{
  "version": "1.0",
  "truncation": null,
  "padding": null,
  "added_tokens": [
    {
      "id": 0,
      "content": "[UNK]",
      "single_word": false,
      "lstrip": false,
      "rstrip": false,
      "normalized": false,
      "special": true
    }
  ],
  "normalizer": {
    "type": "NFKC"
  },
  "pre_tokenizer": {
    "type": "Metaspace",
    "replacement": "▁",
    "prepend_scheme": "never",
    "split": true
  },
  "post_processor": null,
  "decoder": {
    "type": "Metaspace",
    "replacement": "▁",
    "prepend_scheme": "never",
    "split": true
  },
  "model": {
    "type": "BPE",
    "dropout": null,
    "unk_token": "[UNK]",
    "continuing_subword_prefix": null,
    "end_of_word_suffix": null,
    "fuse_unk": false,
    "byte_fallback": false,
    "ignore_merges": false,
    "vocab": {
      "[UNK]": 0,
      "\n": 1,
      "\r": 2,
      "!": 3,
      "\"": 4,
      "#": 5,
      "$": 6,
      "%": 7,
      "&": 8,
      "'": 9,
      "(": 10,
      ")": 11,
      "*": 12,
      "+": 13,
      ",": 14,
      "-": 15,
      ".": 16,
      "/": 17,
      "0": 18,
      "1": 19,
      "2": 20,
      "3": 21,
      "4": 22,
      "5": 23,
      "6": 24,
      "7": 25,
      "8": 26,
      "9": 27,
      ":": 28,
      ";": 29,
      "<": 30,
      "=": 31,
      ">": 32,
      "?": 33,
      "A": 34,
      "B": 35,
      "C": 36,
      "D": 37,
      "E": 38,
      "F": 39,
      "G": 40,
      "H": 41,
      "I": 42,
      "J": 43,
      "K": 44,
      "L": 45,
      "M": 46,
      "N": 47,
      "O": 48,
      "P": 49,
      "Q": 50,
      "R": 51,
      "S": 52,
      "T": 53,
      "U": 54,
      "V": 55,
      "W": 56,
      "X": 57,
      "Y": 58,
      "Z": 59,
      "[": 60,
      "\\": 61,
      "]": 62,
      "^": 63,
      "_": 64,
      "`": 65,
      "a": 66,
      "b": 67,
      "c": 68,
      "d": 69,
      "e": 70,
      "f": 71,
      "g": 72,
      "h": 73,
      "i": 74,
      "j": 75,
      "k": 76,
      "l": 77,
      "m": 78,
      "n": 79,
      "o": 80,
      "p": 81,
      "q": 82,
      "r": 83,
      "s": 84,
      "t": 85,
      "u": 86,
      "v": 87,
      "w": 88,
      "x": 89,
      "y": 90,
      "z": 91,
      "{": 92,
      "|": 93,
      "}": 94,
      "~": 95,
      "°": 96,
      "·": 97,
      "Ö": 98,
      "á": 99,
      "â": 100,
      "æ": 101,
      "ç": 102,
      "è": 103,
      "é": 104,
      "í": 105,
      "ñ": 106,
      "ö": 107,
      "ü": 108,
      "ā": 109,
      "ī": 110,
      "İ": 111,
      "ņ": 112,
      "Ś": 113,
      "ś": 114,
      "ū": 115,
      "ș": 116,
      "ə": 117,
      "ɦ": 118,
      "ɪ": 119,
      "ɾ": 120,
      "ʊ": 121,
      "ʼ": 122,
      "ˈ": 123,
      "ː": 124,
      "ί": 125,
      "α": 126,
      "δ": 127,
      "θ": 128,
      "ν": 129,
      "π": 130,
      "ς": 131,
      "ό": 132,
      "ँ": 133,
      "ं": 134,
      "ः": 135,
      "अ": 136,
      "आ": 137,
      "इ": 138,
      "ई": 139,
      "उ": 140,
      "ऊ": 141,
      "ऋ": 142,
      "ऍ": 143,
      "ए": 144,
      "ऐ": 145,
      "ऑ": 146,
      "ओ": 147,
      "औ": 148,
      "क": 149,
      "ख": 150,
      "ग": 151,
      "घ": 152,
      "ङ": 153,
      "च": 154,
      "छ": 155,
      "ज": 156,
      "झ": 157,
      "ञ": 158,
      "ट": 159,
      "ठ": 160,
      "ड": 161,
      "ढ": 162,
      "ण": 163,
      "त": 164,
      "थ": 165,
      "द": 166,
      "ध": 167,
      "न": 168,
      "प": 169,
      "फ": 170,
      "ब": 171,
      "भ": 172,
      "म": 173,
      "य": 174,
      "र": 175,
      "ल": 176,
      "ळ": 177,
      "व": 178,
      "श": 179,
      "ष": 180,
      "स": 181,
      "ह": 182,
      "़": 183,
      "ा": 184,
      "ि": 185,
      "ी": 186,
      "ु": 187,
      "ू": 188,
      "ृ": 189,
      "े": 190,
      "ै": 191,
      "ॉ": 192,
      "ॊ": 193,
      "ो": 194,
      "ौ": 195,
      "्": 196,
      "।": 197,
      "०": 198,
      "१": 199,
      "२": 200,
      "३": 201,
      "४": 202,
      "५": 203,
      "६": 204,
      "७": 205,
      "८": 206,
      "९": 207,
      "॰": 208,
      "ం": 209,
      "ః": 210,
      "అ": 211,
      "ఆ": 212,
      "ఇ": 213,
      "ఈ": 214,
      "ఉ": 215,
      "ఋ": 216,
      "ఎ": 217,
      "ఏ": 218,
      "ఐ": 219,
      "ఒ": 220,
      "ఓ": 221,
      "ఔ": 222,
      "క": 223,
      "ఖ": 224,
      "గ": 225,
      "ఘ": 226,
      "చ": 227,
      "ఛ": 228,
      "జ": 229,
      "ఞ": 230,
      "ట": 231,
      "ఠ": 232,
      "డ": 233,
      "ఢ": 234,
      "ణ": 235,
      "త": 236,
      "థ": 237,
      "ద": 238,
      "ధ": 239,
      "న": 240,
      "ప": 241,
      "ఫ": 242,
      "బ": 243,
      "భ": 244,
      "మ": 245,
      "య": 246,
      "ర": 247,
      "ల": 248,
      "ళ": 249,
      "వ": 250,
      "శ": 251,
      "ష": 252,
      "స": 253,
      "హ": 254,
      "ా": 255,
      "ి": 256,
      "ీ": 257,
      "ు": 258,
      "ూ": 259,
      "ృ": 260,
      "ె": 261,
      "ే": 262,
      "ై": 263,
      "ొ": 264,
      "ో": 265,
      "ౌ": 266,
      "్": 267,
      "ಂ": 268,
      "ಅ": 269,
      "ಆ": 270,
      "ಇ": 271,
      "ಈ": 272,
      "ಉ": 273,
      "ಋ": 274,
      "ಎ": 275,
      "ಏ": 276,
      "ಐ": 277,
      "ಒ": 278,
      "ಓ": 279,
      "ಕ": 280,
      "ಖ": 281,
      "ಗ": 282,
      "ಘ": 283,
      "ಚ": 284,
      "ಛ": 285,
      "ಜ": 286,
      "ಝ": 287,
      "ಞ": 288,
      "ಟ": 289,
      "ಠ": 290,
      "ಡ": 291,
      "ಢ": 292,
      "ಣ": 293,
      "ತ": 294,
      "ಥ": 295,
      "ದ": 296,
      "ಧ": 297,
      "ನ": 298,
      "ಪ": 299,
      "ಫ": 300,
      "ಬ": 301,
      "ಭ": 302,
      "ಮ": 303,
      "ಯ": 304,
      "ರ": 305,
      "ಲ": 306,
      "ಳ": 307,
      "ವ": 308,
      "ಶ": 309,
      "ಷ": 310,
      "ಸ": 311,
      "ಹ": 312,
      "಼": 313,
      "ಾ": 314,
      "ಿ": 315,
      "ೀ": 316,
      "ು": 317,
      "ೂ": 318,
      "ೃ": 319,
      "ೆ": 320,
      "ೇ": 321,
      "ೈ": 322,
      "ೊ": 323,
      "ೋ": 324,
      "ೌ": 325,
      "್": 326,
      "೦": 327,
      "೧": 328,
      "೨": 329,
      "೩": 330,
      "೪": 331,
      "೫": 332,
      "೬": 333,
      "೭": 334,
      "೮": 335,
      "೯": 336,
      "ṅ": 337,
      "ṇ": 338,
      "Ṛ": 339,
      "ṣ": 340,
      "ṭ": 341,
      "Ἰ": 342,
      "‌": 343,
      "‍": 344,
      "‎": 345,
      "–": 346,
      "—": 347,
      "‘": 348,
      "’": 349,
      "“": 350,
      "”": 351,
      "†": 352,
      "‡": 353,
      "•": 354,
      "′": 355,
      "‹": 356,
      "›": 357,
      "⁡": 358,
      "₹": 359,
      "↑": 360,
      "−": 361,
      "▁": 362,
      "▪": 363,
      "﻿": 364,
      "wi": 365,
      "ki": 366,
      "wiki": 367,
      "di": 368,
      "dia": 369,
      "or": 370,
      "ht": 371,
      "](": 372,
      "tp": 373,
      ":/": 374,
      "http": 375,
      "://": 376,
      "pe": 377,
      "](http": 378,
      "s://": 379,
      "](https://": 380,
      "g/": 381,
      ".or": 382,
      ".org/": 383,
      "pedia": 384,
      ".wiki": 385,
      ".org/wiki": 386,
      ".org/wiki/": 387,
      ".wikipedia": 388,
      ".wikipedia.org/wiki/": 389,
      "▁[": 390,
      "te": 391,
      "en": 392,
      "▁\"": 393,
      "\")": 394,
      "in": 395,
      "an": 396,
      "on": 397,
      "In": 398,
      "ti": 399,
      "\r\n": 400,
      "th": 401,
      "al": 402,
      "](https://en": 403,
      "India": 404,
      "](https://en.wikipedia.org/wiki/": 405,
      "er": 406,
      "ar": 407,
      "20": 408,
      "▁|": 409,
      "es": 410,
      "hi": 411,
      "re": 412,
      "ci": 413,
      "of": 414,
      "tion": 415,
      "ार": 416,
      "the": 417,
      "is": 418,
      "om": 419,
      "](https://hi": 420,
      "](https://hi.wikipedia.org/wiki/": 421,
      "▁क": 422,
      "and": 423,
      "▁-": 424,
      "te_": 425,
      "▁of": 426,
      "▁(": 427,
      "్ర": 428,
      "ou": 429,
      "▁the": 430,
      "#ci": 431,
      "#cite_": 432,
      "ri": 433,
      "्र": 434,
      "](https://te": 435,
      "](https://te.wikipedia.org/wiki/": 436,
      "as": 437,
      "201": 438,
      "](https://en.wikipedia.org/wiki/India": 439,
      "ార": 440,
      "भार": 441,
      "भारत": 442,
      "le": 443,
      "▁India": 444,
      "19": 445,
      "ed": 446,
      "no": 447,
      "▁स": 448,
      "ation": 449,
      "oo": 450,
      "▁in": 451,
      "OT": 452,
      "ate": 453,
      "**": 454,
      "si": 455,
      "ent": 456,
      "ac": 457,
      "li": 458,
      "am": 459,
      "](https://en.wikipedia.org/wiki/India#cite_": 460,
      "at": 461,
      "▁and": 462,
      "et": 463,
      "▁p": 464,
      "▁s": 465,
      "200": 466,
      "-0": 467,
      "ాల": 468,
      "\\_": 469,
      "▁c": 470,
      "▁C": 471,
      "id": 472,
      "ag": 473,
      "▁म": 474,
      "-1": 475,
      "्य": 476,
      "▁A": 477,
      "్య": 478,
      "ref": 479,
      "us": 480,
      "ing": 481,
      ").": 482,
      "note": 483,
      "kn": 484,
      "భార": 485,
      "](https://kn": 486,
      "](https://kn.wikipedia.org/wiki/": 487,
      "భారత": 488,
      "ad": 489,
      "దే": 490,
      "▁f": 491,
      "▁S": 492,
      "[[": 493,
      "దేశ": 494,
      "స్": 495,
      "ಾರ": 496,
      "ook": 497,
      "ve": 498,
      "रा": 499,
      "▁प": 500,
      "್ರ": 501,
      "ang": 502,
      "▁b": 503,
      "ref-": 504,
      "note-": 505,
      "▁ప": 506,
      "lo": 507,
      "ic": 508,
      "▁t": 509,
      "▁1": 510,
      "సా": 511,
      "um": 512,
      "ur": 513,
      ".\r\n": 514,
      "▁|\r\n": 515,
      "\"),": 516,
      "ww": 517,
      "ర్": 518,
      "78": 519,
      "lin": 520,
      "edi": 521,
      "▁P": 522,
      "▁m": 523,
      "ist": 524,
      "fi": 525,
      "న్": 526,
      "ें": 527,
      "we": 528,
      "of_": 529,
      "ver": 530,
      "ul": 531,
      "ान": 532,
      "_of_": 533,
      "com": 534,
      "00": 535,
      "ro": 536,
      "it": 537,
      "ter": 538,
      "र्": 539,
      "▁के": 540,
      "he": 541,
      "red": 542,
      "ra": 543,
      "▁201": 544,
      "](https://hi.wikipedia.org/wiki/भारत": 545,
      "IS": 546,
      "ce": 547,
      "ch": 548,
      "▁[↑": 549,
      "▁ह": 550,
      "FO": 551,
      "21": 552,
      "NOT": 553,
      "OTNOT": 554,
      "FOOTNOT": 555,
      "FOOTNOTE": 556,
      "=1": 557,
      "ory": 558,
      "st": 559,
      "link": 560,
      "ಭಾರ": 561,
      "ಭಾರತ": 562,
      "्त": 563,
      "action": 564,
      "edit": 565,
      "un": 566,
      "978": 567,
      "BN": 568,
      "ISBN": 569,
      "action=": 570,
      "?action=": 571,
      "&red": 572,
      "link=1": 573,
      "edit&red": 574,
      "?action=edit&red": 575,
      "?action=edit&redlink=1": 576,
      "್ಯ": 577,
      "▁w": 578,
      "లు": 579,
      "our": 580,
      "▁T": 581,
      "▁R": 582,
      "రా": 583,
      "▁**": 584,
      "]](https://en.wikipedia.org/wiki/India#cite_": 585,
      "cial": 586,
      "](https://en.wikipedia.org/wiki/India#cite_ref-": 587,
      "]](https://en.wikipedia.org/wiki/India#cite_note-": 588,
      "enti": 589,
      "▁M": 590,
      "tic": 591,
      "chi": 592,
      "ons": 593,
      "web": 594,
      "భారతదేశ": 595,
      "ol": 596,
      "या": 597,
      ".శ": 598,
      ".శ.": 599,
      "िक": 600,
      "లో": 601,
      "de": 602,
      "identi": 603,
      "సా.శ.": 604,
      "fier": 605,
      "identifier": 606,
      "il": 607,
      "\")\r\n": 608,
      "▁2": 609,
      "▁में": 610,
      "▁to": 611,
      "india": 612,
      "ni": 613,
      "-0)": 614,
      "▁క": 615,
      "identifier)": 616,
      "age": 617,
      "ीय": 618,
      "res": 619,
      ".g": 620,
      "▁अ": 621,
      "book": 622,
      "es/": 623,
      "▁a": 624,
      "ment": 625,
      "್ತ": 626,
      "▁D": 627,
      "▁B": 628,
      "త్ర": 629,
      "ాలు": 630,
      "రి": 631,
      "oun": 632,
      ")\r\n": 633,
      "ty": 634,
      "క్": 635,
      "em": 636,
      "),": 637,
      "23": 638,
      "ంద": 639,
      "pg": 640,
      "ों": 641,
      "ని": 642,
      "angu": 643,
      "▁వ": 644,
      "10": 645,
      ".j": 646,
      "_(": 647,
      "ig": 648,
      "ir": 649,
      "50": 650,
      ".com": 651,
      "ರ್": 652,
      "▁\"S": 653,
      "ಲಿ": 654,
      "books": 655,
      "▁19": 656,
      "▁l": 657,
      "वि": 658,
      "ay": 659,
      "IT": 660,
      "ना": 661,
      "me": 662,
      ".com/": 663,
      "▁ಸ": 664,
      "▁ज": 665,
      "ct": 666,
      "\").": 667,
      "ld": 668,
      "्ष": 669,
      "ల్": 670,
      "al_": 671,
      "ly": 672,
      "▁*": 673,
      "ved": 674,
      "భారతదేశం": 675,
      "ER": 676,
      "con": 677,
      "▁[↑](https://en.wikipedia.org/wiki/India#cite_ref-": 678,
      "EF": 679,
      "ाल": 680,
      "▁e": 681,
      "ITER": 682,
      "▁ಮ": 683,
      "_क": 684,
      "pecial": 685,
      "ITEREF": 686,
      "▁है": 687,
      "24": 688,
      "Uni": 689,
      "ourc": 690,
      "ంగ": 691,
      "▁E": 692,
      "·**": 693,
      "www": 694,
      "▁**·**": 695,
      "▁స": 696,
      "26": 697,
      "▁द": 698,
      "▁G": 699,
      "](https://hi.wikipedia.org/wiki/भारत#cite_": 700,
      "ber": 701,
      "cal": 702,
      "op": 703,
      ".in": 704,
      "▁మ": 705,
      "pecial:": 706,
      "त्र": 707,
      "▁--": 708,
      "ateg": 709,
      "www.": 710,
      "▁h": 711,
      "_India": 712,
      "राज": 713,
      "▁•": 714,
      "▁N": 715,
      "ategory": 716,
      "ेश": 717,
      "न्": 718,
      "िया": 719,
      "up": 720,
      "ategory:": 721,
      "ಂದ": 722,
      "▁India\")": 723,
      "్రా": 724,
      "rom": 725,
      "ources/": 726,
      "Book": 727,
      "▁ಪ": 728,
      "11": 729,
      "ount": 730,
      "#C": 731,
      "▁H": 732,
      "28": 733,
      "Sources/": 734,
      "_in": 735,
      "ీయ": 736,
      "pecial:Book": 737,
      "pecial:BookSources/": 738,
      "#CITEREF": 739,
      "ry": 740,
      "और": 741,
      "ಗಳ": 742,
      "outh": 743,
      "▁20": 744,
      "ary": 745,
      "▁---": 746,
      "ండ": 747,
      "▁ब": 748,
      "pecial:BookSources/978": 749,
      "-3": 750,
      "ew": 751,
      "-4": 752,
      "sh": 753,
      "▁on": 754,
      "ंग": 755,
      "for": 756,
      "archi": 757,
      "ng": 758,
      "▁भारत": 759,
      "▁की": 760,
      "_S": 761,
      "▁g": 762,
      "22": 763,
      "▁प्र": 764,
      "ला": 765,
      "du": 766,
      "▁त": 767,
      "भा": 768,
      "्व": 769,
      "జ్య": 770,
      "▁न": 771,
      "▁చ": 772,
      "anguage": 773,
      "List": 774,
      "▁से": 775,
      "30": 776,
      "ab": 777,
      "ನ್": 778,
      "##": 779,
      "ov": 780,
      "archive": 781,
      "▁200": 782,
      "ರಾ": 783,
      "ಲ್": 784,
      "mp": 785,
      "_A": 786,
      "18": 787,
      "tu": 788,
      "తా": 789,
      "▁J": 790,
      "▁और": 791,
      "per": 792,
      "ము": 793,
      "ress": 794,
      "▁F": 795,
      "▁th": 796,
      "నా": 797,
      "ap": 798,
      "▁or": 799,
      "▁.": 800,
      "sia": 801,
      ".[[": 802,
      "తి": 803,
      "్ట": 804,
      "ak": 805,
      "▁re": 806,
      "▁का": 807,
      "ub": 808,
      "-8": 809,
      "orld": 810,
      "▁n": 811,
      "est": 812,
      "25": 813,
      "ain": 814,
      "_स": 815,
      "▁[\"": 816,
      "ತ್ತ": 817,
      "](https://en.wikipedia.org/wiki/India#CITEREF": 818,
      "ಭಾರತದ": 819,
      "rit": 820,
      "▁by": 821,
      "The": 822,
      "el": 823,
      "సి": 824,
      "calf": 825,
      "ational": 826,
      "త్": 827,
      "199": 828,
      "ion": 829,
      "se": 830,
      "्रे": 831,
      "ता": 832,
      "etcalf": 833,
      "_of_India": 834,
      "▁from": 835,
      "▁In": 836,
      "ted": 837,
      "्ट": 838,
      "ಸ್": 839,
      "archive.org/": 840,
      ".gov": 841,
      ".jpg": 842,
      "▁[S": 843,
      "15": 844,
      "▁d": 845,
      "-0-": 846,
      "▁./": 847,
      "ge": 848,
      "▁(సా.శ.": 849,
      "web.": 850,
      "]](https://en.wikipedia.org/wiki/India#cite_note-FOOTNOTE": 851,
      "](https://web.": 852,
      "ast": 853,
      "/http": 854,
      "13": 855,
      "web/": 856,
      "archive.org/web/": 857,
      "](https://web.archive.org/web/": 858,
      "యా": 859,
      "ులు": 860,
      "▁రా": 861,
      "16": 862,
      "im": 863,
      "ish": 864,
      "▁\"भारत": 865,
      "over": 866,
      "–సా.శ.": 867,
      "with": 868,
      "ens": 869,
      "▁(identifier)": 870,
      "_(identifier)": 871,
      "▁(identifier)\")": 872,
      "versi": 873,
      "17": 874,
      "▁అ": 875,
      "s/": 876,
      "ep": 877,
      "40": 878,
      "ి.": 879,
      "▁for": 880,
      "inal": 881,
      ".in/": 882,
      "29": 883,
      "स्त": 884,
      "▁\"C": 885,
      "▁व": 886,
      "ust": 887,
      "conom": 888,
      "राज्य": 889,
      "_and": 890,
      "▁is": 891,
      "err": 892,
      "▁ప్ర": 893,
      "क्ष": 894,
      "ort": 895,
      "ित": 896,
      "ిక": 897,
      "▁ar": 898,
      "▁[A": 899,
      "a](https://en.wikipedia.org/wiki/": 900,
      "▁p.": 901,
      "Metcalf": 902,
      "▁O": 903,
      "తం": 904,
      "न्द": 905,
      "nd": 906,
      "14": 907,
      "error": 908,
      "_C": 909,
      "Har": 910,
      "versity": 911,
      "har": 912,
      "AA": 913,
      "ిన": 914,
      "జ్యం": 915,
      "umb": 916,
      "▁आ": 917,
      "▁([": 918,
      "n_": 919,
      "▁Indian": 920,
      "षा": 921,
      "▁ಹ": 922,
      "पु": 923,
      "gle": 924,
      "జా": 925,
      "av": 926,
      "ति": 927,
      "ut": 928,
      "್ಟ": 929,
      "ಲ್ಲಿ": 930,
      "▁L": 931,
      "ot": 932,
      "ास": 933,
      "ంచ": 934,
      "కు": 935,
      "ensus": 936,
      "27": 937,
      "late": 938,
      "ಕ್": 939,
      "'s": 940,
      "oogle": 941,
      "▁be": 942,
      "*.": 943,
      "](https://te.wikipedia.org/wiki/భారతదేశం": 944,
      "ಾನ": 945,
      "▁ಕ": 946,
      "▁W": 947,
      "?id": 948,
      "a_": 949,
      "ను": 950,
      "పూ": 951,
      "rie": 952,
      "▁[C": 953,
      "s](https://en.wikipedia.org/wiki/": 954,
      "do": 955,
      "?id=": 956,
      "▁ವ": 957,
      "భా": 958,
      "▁[ISBN": 959,
      ".google": 960,
      "books.google": 961,
      ".com/books": 962,
      "_in_India": 963,
      "books.google.com/books": 964,
      "](http://": 965,
      "-9": 966,
      "books.google.com/books?id=": 967,
      ".p": 968,
      "स्": 969,
      "▁K": 970,
      "▁ನ": 971,
      "ప్ర": 972,
      "▁\"ISBN": 973,
      "ISBN_(identifier)": 974,
      "media": 975,
      "px": 976,
      "▁[978": 977,
      "ries": 978,
      "ద్": 979,
      "ింద": 980,
      "_P": 981,
      "ಂತ": 982,
      "ರಿ": 983,
      "ance": 984,
      "opul": 985,
      "ha": 986,
      "▁ఉ": 987,
      "ತ್ತು": 988,
      "arg": 989,
      "भाषा": 990,
      "ages": 991,
      "▁orig": 992,
      "ం:": 993,
      "47": 994,
      "▁\"M": 995,
      "ther": 996,
      "▁Uni": 997,
      "](https://books.google.com/books?id=": 998,
      "▁The": 999,
      "ಗಳು": 1000,
      "mons": 1001,
      "▁[*": 1002,
      "36": 1003,
      "मा": 1004,
      "▁को": 1005,
      "35": 1006,
      "hin": 1007,
      "था": 1008,
      "▁ఆ": 1009,
      "▁de": 1010,
      "lig": 1011,
      "s,": 1012,
      "]](https://hi.wikipedia.org/wiki/भारत#cite_": 1013,
      "load": 1014,
      "▁original": 1015,
      "णी": 1016,
      "upload": 1017,
      ")[[": 1018,
      "aj": 1019,
      "ong": 1020,
      "der": 1021,
      "री": 1022,
      "log": 1023,
      ".wikimedia": 1024,
      "![": 1025,
      "ची": 1026,
      "](S": 1027,
      "a\")": 1028,
      "ction": 1029,
      "देश": 1030,
      "▁ర": 1031,
      "pedia/": 1032,
      ".org/wikipedia/": 1033,
      "ountries": 1034,
      "upload.wikimedia": 1035,
      "upload.wikimedia.org/wikipedia/": 1036,
      "ow": 1037,
      "Category:": 1038,
      "▁ग": 1039,
      "](https://upload.wikimedia.org/wikipedia/": 1040,
      "tern": 1041,
      "-2": 1042,
      "rchi": 1043,
      "opulation": 1044,
      "▁[↑](https://en.wikipedia.org/wiki/India#cite_ref-FOOTNOTE": 1045,
      "umm": 1046,
      "p.": 1047,
      "ss": 1048,
      "▁Ret": 1049,
      "ड़": 1050,
      "మా": 1051,
      "▁సా": 1052,
      "భారతీయ": 1053,
      "rieved": 1054,
      "▁Retrieved": 1055,
      "thumb": 1056,
      "%20": 1057,
      "ದೇ": 1058,
      "▁ಅ": 1059,
      "▁ಬ": 1060,
      "gh": 1061,
      "వా": 1062,
      "▁[M": 1063,
      "▁पर": 1064,
      "/thumb": 1065,
      "/thumb/": 1066,
      "▁उ": 1067,
      "commons": 1068,
      "రు": 1069,
      "▁as": 1070,
      "▁ए": 1071,
      "](https://kn.wikipedia.org/wiki/ಭಾರತ": 1072,
      "ದೇಶ": 1073,
      "px-": 1074,
      "7.": 1075,
      "s\")": 1076,
      "ष्ट": 1077,
      "ाद": 1078,
      "▁है।": 1079,
      "▁pp.": 1080,
      "](https://upload.wikimedia.org/wikipedia/commons": 1081,
      "ana": 1082,
      "_and_": 1083,
      "38": 1084,
      "వి": 1085,
      "ష్ట": 1086,
      "2011": 1087,
      "ార్": 1088,
      "పూ.": 1089,
      "ence": 1090,
      "](https://web.archive.org/web/201": 1091,
      "ma": 1092,
      "▁श": 1093,
      "క్ష": 1094,
      "_के": 1095,
      "](https://upload.wikimedia.org/wikipedia/commons/thumb/": 1096,
      "Harv": 1097,
      "cy": 1098,
      "](https://en.wikipedia.org/wiki/S": 1099,
      "ys": 1100,
      "ತಿ": 1101,
      "ರು": 1102,
      "](https://en.wikipedia.org/wiki/ISBN_(identifier)": 1103,
      "స్థ": 1104,
      "రిత్ర": 1105,
      "▁[ISBN](https://en.wikipedia.org/wiki/ISBN_(identifier)": 1106,
      "PA": 1107,
      "▁[B": 1108,
      "ans": 1109,
      "▁\"Special:BookSources/978": 1110,
      "](Special:BookSources/978": 1111,
      "70": 1112,
      "ru": 1113,
      "oli": 1114,
      "▁\"B": 1115,
      "omm": 1116,
      "2.": 1117,
      "rchived": 1118,
      "▁[म": 1119,
      "्रेणी": 1120,
      "ಸಂ": 1121,
      "1.": 1122,
      "_म": 1123,
      "og": 1124,
      "-5": 1125,
      "nic": 1126,
      "श्रेणी": 1127,
      "ष्ट्र": 1128,
      "న్న": 1129,
      "6.": 1130,
      "tate": 1131,
      "का": 1132,
      "ಷ್ಟ": 1133,
      "ಾಗ": 1134,
      "▁सं": 1135,
      "विश": 1136,
      "श्रेणी:": 1137,
      "ff": 1138,
      "ud": 1139,
      "▁\"P": 1140,
      "ले": 1141,
      "-7": 1142,
      "ने": 1143,
      "▁I": 1144,
      "▁with": 1145,
      "fn": 1146,
      "](https://en.wikipedia.org/wiki/C": 1147,
      "la": 1148,
      "all": 1149,
      "ेत्र": 1150,
      "](https://hi.wikipedia.org/wiki/भारत#cite_ref-": 1151,
      "]](https://hi.wikipedia.org/wiki/भारत#cite_note-": 1152,
      "ani": 1153,
      "%2": 1154,
      "▁\"A": 1155,
      "▁Category:": 1156,
      "प्र": 1157,
      "म्": 1158,
      "ಿಕ": 1159,
      "tein": 1160,
      "](https://kn.wikipedia.org/wiki/ಭಾರತ#cite_": 1161,
      "39": 1162,
      "les": 1163,
      "land": 1164,
      "िल": 1165,
      "ity": 1166,
      "_D": 1167,
      "os": 1168,
      "overn": 1169,
      "&pg": 1170,
      "](https://te.wikipedia.org/wiki/భారతదేశం#cite_": 1171,
      "&pg=": 1172,
      "ore": 1173,
      "▁\"List": 1174,
      "india.gov": 1175,
      "4.": 1176,
      "గా": 1177,
      "temp": 1178,
      "ere": 1179,
      "▁Press": 1180,
      "emp": 1181,
      "60": 1182,
      "\"))": 1183,
      "DP": 1184,
      "_b": 1185,
      "ంట": 1186,
      "కి": 1187,
      "_के_": 1188,
      "ank": 1189,
      "ear": 1190,
      "ಂಗ": 1191,
      "ಂಡ": 1192,
      "ಿಂದ": 1193,
      "▁इ": 1194,
      "Indian": 1195,
      "titu": 1196,
      "మ్రా": 1197,
      "्या": 1198,
      "ష్ట్ర": 1199,
      "ib": 1200,
      "/https://": 1201,
      "िय": 1202,
      "▁di": 1203,
      "▁Asia": 1204,
      ".jp": 1205,
      "▁*[": 1206,
      "ism": 1207,
      "List_of_": 1208,
      "ంత": 1209,
      "und": 1210,
      "ummit": 1211,
      "ಸಿ": 1212,
      "್ರಾ": 1213,
      "ai": 1214,
      "to": 1215,
      "हि": 1216,
      "ी](https://hi.wikipedia.org/wiki/": 1217,
      "▁3": 1218,
      "](https://en.wikipedia.org/wiki/M": 1219,
      "▁no": 1220,
      "▁\"G": 1221,
      "ज़": 1222,
      "▁&": 1223,
      "&pg=PA": 1224,
      "_M": 1225,
      "language": 1226,
      "పు": 1227,
      ".jpg)": 1228,
      "Hin": 1229,
      "45": 1230,
      "9.": 1231,
      "सं": 1232,
      "सा": 1233,
      "▁\"T": 1234,
      "](https://www.": 1235,
      "48": 1236,
      "▁న": 1237,
      "2006": 1238,
      "ations": 1239,
      "overnment": 1240,
      "eral": 1241,
      "2018": 1242,
      ".jpg/": 1243,
      "ಷ್ಟ್ರ": 1244,
      "त्त": 1245,
      "మి": 1246,
      "ాన": 1247,
      "▁र": 1248,
      "htm": 1249,
      "▁[P": 1250,
      "▁University": 1251,
      "▁was": 1252,
      "పా": 1253,
      "▁ఇ": 1254,
      "▁త": 1255,
      "భాష": 1256,
      "90": 1257,
      "vi": 1258,
      "ata": 1259,
      "ಜ್ಯ": 1260,
      "▁[G": 1261,
      "್ಯಾ": 1262,
      "y_": 1263,
      "ori": 1264,
      "lop": 1265,
      "▁are": 1266,
      "77": 1267,
      "ck": 1268,
      "▁an": 1269,
      "-10": 1270,
      "▁language": 1271,
      "-6": 1272,
      "పాల": 1273,
      "లీ": 1274,
      "](https://en.wikipedia.org/wiki/B": 1275,
      "art": 1276,
      "ದೆ": 1277,
      "್ವ": 1278,
      "▁ಮತ್ತು": 1279,
      "*](https://books.google.com/books?id=": 1280,
      "dge": 1281,
      "\").\r\n": 1282,
      "र्व": 1283,
      "3.": 1284,
      "ard": 1285,
      "8.": 1286,
      "ंड": 1287,
      "▁దేశ": 1288,
      "▁\"E": 1289,
      "స్తా": 1290,
      "istory": 1291,
      "▁2011": 1292,
      "80": 1293,
      "PP": 1294,
      "ali": 1295,
      "anguages": 1296,
      "▁\"D": 1297,
      "▁ex": 1298,
      "CS": 1299,
      "ll": 1300,
      "िस": 1301,
      "వర్": 1302,
      "ాయ": 1303,
      "▁ಪ್ರ": 1304,
      "](https://en.wikipedia.org/wiki/P": 1305,
      "राष्ट्र": 1306,
      "ue": 1307,
      "tem": 1308,
      "hm": 1309,
      "▁De": 1310,
      "▁con": 1311,
      "46": 1312,
      "▁ल": 1313,
      "ಜನ": 1314,
      "ೆಯ": 1315,
      "ರಾಷ್ಟ್ರ": 1316,
      "tim": 1317,
      "మ్రాజ్యం": 1318,
      "onstitu": 1319,
      "ile": 1320,
      "▁सा": 1321,
      "्षेत्र": 1322,
      "43": 1323,
      "5.": 1324,
      "_T": 1325,
      "దేశ్": 1326,
      "df": 1327,
      "als": 1328,
      "▁Hin": 1329,
      "rad": 1330,
      "चि": 1331,
      "ೀಯ": 1332,
      "esh": 1333,
      "amb": 1334,
      "ountry": 1335,
      "sher": 1336,
      "ನ್ನ": 1337,
      "▁it": 1338,
      "ame": 1339,
      "conomy": 1340,
      "मन": 1341,
      "ी_": 1342,
      "ం](https://te.wikipedia.org/wiki/": 1343,
      "▁राज्य": 1344,
      "_N": 1345,
      "पा": 1346,
      "sion": 1347,
      "lic": 1348,
      "श्रेणी:Harv": 1349,
      "%2C": 1350,
      "जा": 1351,
      "ంబ": 1352,
      "టి": 1353,
      "▁error": 1354,
      "▁\"म": 1355,
      "12": 1356,
      "ಖ್ಯ": 1357,
      "▁ಆ": 1358,
      ").\r\n": 1359,
      "▁भाषा": 1360,
      "2010": 1361,
      "▁whi": 1362,
      "▁V": 1363,
      "Re": 1364,
      "Stein": 1365,
      "ంలో": 1366,
      "sian": 1367,
      "▁हैं": 1368,
      "స్తాన్": 1369,
      "▁\"N": 1370,
      "conomic": 1371,
      "▁य": 1372,
      "▁वि": 1373,
      "/http://": 1374,
      "errors": 1375,
      "arget": 1376,
      "ke": 1377,
      "rou": 1378,
      "33": 1379,
      "au": 1380,
      "గు": 1381,
      "డు": 1382,
      "నే": 1383,
      "్చ": 1384,
      "▁भ": 1385,
      "ult": 1386,
      "ರ್ಮ": 1387,
      "gen": 1388,
      "other": 1389,
      "ari": 1390,
      "omp": 1391,
      "000": 1392,
      "AJ": 1393,
      "velop": 1394,
      "stan": 1395,
      "ford": 1396,
      "eng": 1397,
      "artic": 1398,
      "BAJ": 1399,
      "QBAJ": 1400,
      "ूची": 1401,
      "మూ": 1402,
      "pend": 1403,
      "్రీ": 1404,
      "జాత": 1405,
      "lish": 1406,
      "aki": 1407,
      "गर": 1408,
      "▁[![": 1409,
      "ine": 1410,
      "1)": 1411,
      "ಸ್ತ": 1412,
      "49": 1413,
      "_B": 1414,
      "cl": 1415,
      "లా": 1416,
      "▁(P": 1417,
      "ంగా": 1418,
      ",_": 1419,
      "new": 1420,
      "india-": 1421,
      "xford": 1422,
      "▁[↑](https://hi.wikipedia.org/wiki/भारत#cite_ref-": 1423,
      "▁[D": 1424,
      "ob": 1425,
      "డ్": 1426,
      "ిల్": 1427,
      "▁r": 1428,
      "▁జ": 1429,
      "-1)": 1430,
      "velopment": 1431,
      "ure": 1432,
      "▁[N": 1433,
      "DF": 1434,
      "RI": 1435,
      "ven": 1436,
      "ेला": 1437,
      "ಭಾ": 1438,
      "ಿತ": 1439,
      "▁–": 1440,
      "▁[2": 1441,
      "tive": 1442,
      "](https://en.wikipedia.org/wiki/D": 1443,
      "ated": 1444,
      "-0-19": 1445,
      ".pdf": 1446,
      "udd": 1447,
      ".pdf)": 1448,
      "_s": 1449,
      "census": 1450,
      "dust": 1451,
      "हा": 1452,
      "లి": 1453,
      "స్త్ర": 1454,
      "tics": 1455,
      "AAQBAJ": 1456,
      "▁5": 1457,
      "ire": 1458,
      "कार": 1459,
      "पर": 1460,
      "కా": 1461,
      "ణా": 1462,
      "దక్ష": 1463,
      "ధిక": 1464,
      "▁कर": 1465,
      "▁ప్రా": 1466,
      "▁వి": 1467,
      "ंग्रे": 1468,
      "సియా": 1469,
      "జాతీయ": 1470,
      "▁(PDF": 1471,
      ".nic": 1472,
      "ath": 1473,
      "ec": 1474,
      "ಿಯ": 1475,
      "▁at": 1476,
      "ಸ್ಥ": 1477,
      "क्त": 1478,
      "िर": 1479,
      "ोल": 1480,
      "▁mo": 1481,
      "United": 1482,
      "ublic": 1483,
      "MetcalfMetcalf": 1484,
      "-p": 1485,
      "कि": 1486,
      "मी": 1487,
      "వం": 1488,
      "▁un": 1489,
      "▁సం": 1490,
      "▁చరిత్ర": 1491,
      "ture": 1492,
      "_p": 1493,
      "ficial": 1494,
      "▁[Archived": 1495,
      "ex": 1496,
      "port": 1497,
      "▁[1": 1498,
      "](https://en.wikipedia.org/wiki/E": 1499,
      "ant": 1500,
      "s.": 1501,
      "డి": 1502,
      "ನೇ": 1503,
      "▁4": 1504,
      "▁7": 1505,
      "▁ಇ": 1506,
      "ark": 1507,
      "riti": 1508,
      "ach": 1509,
      "್ರಿ": 1510,
      "हिन्द": 1511,
      "▁which": 1512,
      "his": 1513,
      "html": 1514,
      "sv": 1515,
      "ंध": 1516,
      "ेष": 1517,
      "▁[E": 1518,
      "](https://en.wikipedia.org/wiki/T": 1519,
      "](https://hi.wikipedia.org/wiki/म": 1520,
      "ational_": 1521,
      "out": 1522,
      "ase": 1523,
      "india.gov.in/": 1524,
      "4)": 1525,
      "ी\")": 1526,
      "ంధ": 1527,
      "స్త": 1528,
      "ाना": 1529,
      "▁अन": 1530,
      "▁రాజ్యం": 1531,
      "▁సామ్రాజ్యం": 1532,
      "వర్గ": 1533,
      "దక్షి": 1534,
      "_G": 1535,
      "ik": 1536,
      "द्": 1537,
      "से": 1538,
      "▁[the": 1539,
      "▁क्षेत्र": 1540,
      "▁pro": 1541,
      "0%": 1542,
      "ನಾ": 1543,
      "ವಿ": 1544,
      "▁li": 1545,
      "▁ಭಾರತದ": 1546,
      "▁[T": 1547,
      "▁ಸಂ": 1548,
      "ಭಾಷ": 1549,
      "85": 1550,
      "fe": 1551,
      "దీ": 1552,
      "ding": 1553,
      "ack": 1554,
      "ingh": 1555,
      "र्म": 1556,
      "ండి": 1557,
      "వర్గం:": 1558,
      "▁that": 1559,
      "uc": 1560,
      "धान": 1561,
      "वा": 1562,
      "ोत": 1563,
      "ess": 1564,
      "▁South": 1565,
      "1,": 1566,
      "250": 1567,
      "_by_": 1568,
      "World": 1569,
      "भि": 1570,
      "श्": 1571,
      "తర": 1572,
      "ది": 1573,
      "▁బ": 1574,
      "aste": 1575,
      "territ": 1576,
      "sic": 1577,
      ".nic.in/": 1578,
      "bot": 1579,
      "tin": 1580,
      "धार": 1581,
      "ृत": 1582,
      "ಧರ್ಮ": 1583,
      "▁ಜನ": 1584,
      "ties": 1585,
      "▁India's": 1586,
      "▁ने": 1587,
      "ree": 1588,
      "▁199": 1589,
      "\"](https://web.archive.org/web/201": 1590,
      "sland": 1591,
      "ట్": 1592,
      "ిత": 1593,
      "्रा": 1594,
      "▁has": 1595,
      "RICS": 1596,
      "_R": 1597,
      "ef": 1598,
      "2)": 1599,
      "ah": 1600,
      "albot": 1601,
      "cies": 1602,
      "10.": 1603,
      "विशेष": 1604,
      "37": 1605,
      "od": 1606,
      "ames": 1607,
      "_చ": 1608,
      "के": 1609,
      "ం\")": 1610,
      "▁\"మ": 1611,
      "ass": 1612,
      "ange": 1613,
      "ింది.": 1614,
      "लेख": 1615,
      "world": 1616,
      "ದಲ್ಲಿ": 1617,
      "ವರ್": 1618,
      "▁\"In": 1619,
      "ರಾಜ್ಯ": 1620,
      "ನ್ನು": 1621,
      "vis": 1622,
      "▁[अ": 1623,
      "ile:": 1624,
      "ते": 1625,
      "entr": 1626,
      "120": 1627,
      "62": 1628,
      "Asher": 1629,
      "▁१": 1630,
      "▁ఎ": 1631,
      "▁[మ": 1632,
      "inist": 1633,
      "](https://en.wikipedia.org/wiki/A": 1634,
      "ीय_": 1635,
      "###": 1636,
      "▁(సా.శ.పూ.": 1637,
      "3)": 1638,
      "countries": 1639,
      "iki": 1640,
      "ten": 1641,
      "hy": 1642,
      "ions": 1643,
      "ंद": 1644,
      "ंत्र": 1645,
      "ूल": 1646,
      "▁\"अ": 1647,
      "](https://en.wikipedia.org/wiki/N": 1648,
      "ril": 1649,
      "amil": 1650,
      "▁ति": 1651,
      "▁एक": 1652,
      "65": 1653,
      "67": 1654,
      "_E": 1655,
      "rig": 1656,
      "6)": 1657,
      "File:": 1658,
      "ho": 1659,
      "ts": 1660,
      "ధ్య": 1661,
      "ದ್": 1662,
      "ಮು": 1663,
      "▁గ": 1664,
      "▁శ": 1665,
      "▁ಭಾರತ": 1666,
      "▁[भारत": 1667,
      "ous": 1668,
      "▁पु": 1669,
      "ంద్ర": 1670,
      "ಕ್ಷ": 1671,
      "ಾಗಿ": 1672,
      "onstitution": 1673,
      "ಭಾಷೆ": 1674,
      "विशेष:": 1675,
      "\"\r\n": 1676,
      "-m": 1677,
      "ia": 1678,
      "ोग": 1679,
      "▁\"The": 1680,
      "ission": 1681,
      "nolog": 1682,
      "outh_A": 1683,
      "AAQBAJ&pg=PA": 1684,
      "\")*": 1685,
      "isation": 1686,
      "▁countries": 1687,
      "rap": 1688,
      "roup": 1689,
      "..": 1690,
      "co": 1691,
      "िण": 1692,
      "ైన": 1693,
      "ers": 1694,
      "](https://te.wikipedia.org/wiki/మ": 1695,
      "2009": 1696,
      "▁పే": 1697,
      "स्तान": 1698,
      "ritish": 1699,
      "▁\"स": 1700,
      "ric": 1701,
      "une": 1702,
      "oh": 1703,
      "2003": 1704,
      "▁Re": 1705,
      "mpire": 1706,
      "](http://www.": 1707,
      "IN": 1708,
      "ವೇ": 1709,
      "್ಚ": 1710,
      "\")•": 1711,
      "ట్ట": 1712,
      "హింద": 1713,
      "▁భారతదేశం": 1714,
      "](File:": 1715,
      "▁[R": 1716,
      "](https://en.wikipedia.org/wiki/G": 1717,
      "hist": 1718,
      "2004": 1719,
      "ంగ్": 1720,
      ".jpg)\r\n": 1721,
      "ద్ధ": 1722,
      "/https://www.": 1723,
      "par": 1724,
      ")\")": 1725,
      "GDP": 1726,
      "ati": 1727,
      "ीप": 1728,
      "▁pe": 1729,
      "▁[K": 1730,
      "lection": 1731,
      "lion": 1732,
      "0.": 1733,
      "qu": 1734,
      "ram": 1735,
      "▁le": 1736,
      "▁2014": 1737,
      "ించ": 1738,
      "▁ఒ": 1739,
      "▁భాష": 1740,
      "▁[క": 1741,
      "▁\"R": 1742,
      "ridge": 1743,
      "ాల్": 1744,
      "](https://en.wikipedia.org/wiki/India#cite_ref-FOOTNOTE": 1745,
      "▁प्रदेश": 1746,
      "elhi": 1747,
      "-0-5": 1748,
      "क्षिण": 1749,
      "ansk": 1750,
      "ommission": 1751,
      "times": 1752,
      "MetcalfMetcalf2006": 1753,
      "▁8": 1754,
      "▁its": 1755,
      "]](https://kn.wikipedia.org/wiki/ಭಾರತ#cite_": 1756,
      "o-": 1757,
      "गमन": 1758,
      "थि": 1759,
      "ಕಿ": 1760,
      "ಗಣ": 1761,
      "ದಿ": 1762,
      "ಮಿ": 1763,
      "ರೆ": 1764,
      "ಹಿಂದ": 1765,
      "▁ದ": 1766,
      "▁[स": 1767,
      "_1": 1768,
      "cre": 1769,
      "▁2021": 1770,
      "template": 1771,
      "List_of_countries": 1772,
      "-b": 1773,
      "/978": 1774,
      "]](https://te.wikipedia.org/wiki/భారతదేశం#cite_": 1775,
      "द्य": 1776,
      "नी": 1777,
      "ी_स": 1778,
      "చ్చ": 1779,
      "జీ": 1780,
      "ేంద్ర": 1781,
      "▁U": 1782,
      "▁\"K": 1783,
      "▁\"క": 1784,
      "do-": 1785,
      "tates": 1786,
      "▁तिथि": 1787,
      "anskrit": 1788,
      "gion": 1789,
      "RC": 1790,
      "ope": 1791,
      "usic": 1792,
      "ँच": 1793,
      "यु": 1794,
      "ून": 1795,
      "▁\"Indian": 1796,
      "▁st": 1797,
      "2007": 1798,
      "emplate": 1799,
      "rg": 1800,
      "wn": 1801,
      "orth": 1802,
      "ater": 1803,
      "7)": 1804,
      "త్య": 1805,
      "బ్": 1806,
      "మీ": 1807,
      "▁ख": 1808,
      "ini": 1809,
      "](https://te.wikipedia.org/wiki/ద": 1810,
      "్యా": 1811,
      "ury": 1812,
      "రాష్ట్ర": 1813,
      "▁./వర్గం:": 1814,
      "▁तिथि:": 1815,
      "/c": 1816,
      "_language": 1817,
      "dom": 1818,
      "ಗ:": 1819,
      "▁ಹೆ": 1820,
      "ವರ್ಗ:": 1821,
      "-in": 1822,
      "_F": 1823,
      "na": 1824,
      "▁te": 1825,
      "dit": 1826,
      "ord": 1827,
      "any": 1828,
      "▁18": 1829,
      "▁भारतीय": 1830,
      "ambridge": 1831,
      "mer": 1832,
      "hel": 1833,
      "▁languages": 1834,
      "जन": 1835,
      "ढ़": 1836,
      "धिक": 1837,
      "ంక": 1838,
      "ప్": 1839,
      "యు": 1840,
      "ome": 1841,
      "▁अभि": 1842,
      "\").[[": 1843,
      "▁देश": 1844,
      "తంత్ర": 1845,
      "](https://te.wikipedia.org/wiki/భారతదేశం#cite_ref-": 1846,
      "దక్షిణ": 1847,
      "]](https://te.wikipedia.org/wiki/భారతదేశం#cite_note-": 1848,
      "▁अभिगमन": 1849,
      "69": 1850,
      "▁[L": 1851,
      "arch": 1852,
      "ower": 1853,
      "late_": 1854,
      "Oxford": 1855,
      "_m": 1856,
      "धर्म": 1857,
      "▁[In": 1858,
      "▁\"L": 1859,
      "्री": 1860,
      "्रोत": 1861,
      "ulture": 1862,
      "▁जन": 1863,
      "▁तथा": 1864,
      "▁\"भारतीय": 1865,
      "yson": 1866,
      "-s": 1867,
      "eb": 1868,
      "uman": 1869,
      "_స": 1870,
      "ave": 1871,
      "oc": 1872,
      "ती": 1873,
      "त्": 1874,
      "बर": 1875,
      "తము": 1876,
      "వే": 1877,
      "ష్": 1878,
      "ాన్": 1879,
      "ಟಿ": 1880,
      "ಣಿ": 1881,
      "ತಂತ": 1882,
      "▁च": 1883,
      "▁ಎ": 1884,
      "▁ರ": 1885,
      "▁\"क": 1886,
      "alth": 1887,
      "▁(201": 1888,
      "స్క": 1889,
      "▁ಸಾ": 1890,
      "ligion": 1891,
      "▁हैं।": 1892,
      "ిల్లీ": 1893,
      "▁ಜನಸಂ": 1894,
      "ತಂತ್ರ": 1895,
      "ron": 1896,
      "on-": 1897,
      "uly": 1898,
      "ograp": 1899,
      "59": 1900,
      "ili": 1901,
      "हर": 1902,
      "ूर्व": 1903,
      "्ल": 1904,
      "dition": 1905,
      "eneral": 1906,
      "ashm": 1907,
      "ood": 1908,
      "ament": 1909,
      "▁Ap": 1910,
      "uring": 1911,
      "akistan": 1912,
      "05": 1913,
      "▁ad": 1914,
      "E0%": 1915,
      "hand": 1916,
      "वं": 1917,
      "జి": 1918,
      "ధాన": 1919,
      "బె": 1920,
      "end": 1921,
      "alay": 1922,
      "](https://hi.wikipedia.org/wiki/क": 1923,
      "ారు": 1924,
      "▁se": 1925,
      "▁కా": 1926,
      "▁రాజ": 1927,
      "स्तक": 1928,
      "AARC": 1929,
      "पुस्तक": 1930,
      "▁[978-1": 1931,
      "dern": 1932,
      "विशेष:पुस्तक": 1933,
      "्रोत/978": 1934,
      "-t": 1935,
      "56": 1936,
      "mb": 1937,
      "\\_S": 1938,
      ".sv": 1939,
      "Dw": 1940,
      "dus": 1941,
      "kno": 1942,
      "national": 1943,
      "val": 1944,
      "ves": 1945,
      "मान": 1946,
      "▁6": 1947,
      "ally": 1948,
      "urope": 1949,
      "िका": 1950,
      "▁जा": 1951,
      "राष्ट्रीय": 1952,
      "radesh": 1953,
      "द्ध": 1954,
      "ಂಧ": 1955,
      "ಗೆ": 1956,
      "ವಾ": 1957,
      "ಿಮ": 1958,
      "▁ಚ": 1959,
      "▁ಧರ್ಮ": 1960,
      "act": 1961,
      "ಂದಿ": 1962,
      "ಭಾರತದ_": 1963,
      "▁./ವರ್ಗ:": 1964,
      "ug": 1965,
      "दी": 1966,
      "रकार": 1967,
      "हार": 1968,
      "దు": 1969,
      "మ్": 1970,
      "శ్": 1971,
      "encies": 1972,
      "](https://hi.wikipedia.org/wiki/स": 1973,
      "](https://te.wikipedia.org/wiki/క": 1974,
      "▁sub": 1975,
      "▁Archived": 1976,
      "్యవ": 1977,
      "usin": 1978,
      "▁were": 1979,
      "ంది.": 1980,
      "▁History": 1981,
      "पुर": 1982,
      "Stein2010": 1983,
      "tinent": 1984,
      "_చరిత్ర": 1985,
      "\"](https://www.": 1986,
      "▁\"H": 1987,
      "cient": 1988,
      "[![": 1989,
      "mber": 1990,
      "▁राज": 1991,
      "▁[क": 1992,
      "▁\"ब": 1993,
      "▁cent": 1994,
      "1998": 1995,
      "doi": 1996,
      "विश्व": 1997,
      "▁इस": 1998,
      "▁Hindu": 1999,
      "▁si": 2000,
      "▁17": 2001,
      "umber": 2002,
      ".;": 2003,
      "ober": 2004,
      "ఢిల్లీ": 2005,
      "పంచ": 2006,
      "ారి": 2007,
      "▁मेला": 2008,
      ".jpg)](File:": 2009,
      "మూస": 2010,
      "/p": 2011,
      "34": 2012,
      "ates": 2013,
      "peration": 2014,
      "ystem": 2015,
      "_ಮ": 2016,
      "a,": 2017,
      "गु": 2018,
      "ಪಾ": 2019,
      "ಪ್ರ": 2020,
      "▁೧": 2021,
      "rib": 2022,
      "▁स्": 2023,
      "रालेख": 2024,
      "age/": 2025,
      "irst": 2026,
      "continent": 2027,
      "ಂಗ್": 2028,
      "▁ಪ್ರದೇಶ": 2029,
      "ರಾಷ್ಟ್ರೀಯ": 2030,
      "▁ಜನಸಂಖ್ಯ": 2031,
      "8)": 2032,
      "oi": 2033,
      "right": 2034,
      "_Uni": 2035,
      "sc": 2036,
      "tro": 2037,
      "ा_": 2038,
      "िव": 2039,
      "వు": 2040,
      "▁\"प": 2041,
      "▁\"భారతీయ": 2042,
      "](https://en.wikipedia.org/wiki/In": 2043,
      "2005": 2044,
      "▁10": 2045,
      "▁हु": 2046,
      "_की_स": 2047,
      "▁वर्": 2048,
      "_में": 2049,
      "ommissioner": 2050,
      "▁April": 2051,
      "3,": 2052,
      "Wiki": 2053,
      "les/": 2054,
      "▁\"F": 2055,
      "▁July": 2056,
      "](https://web.archive.org/web/20": 2057,
      "Hindi": 2058,
      "250px-": 2059,
      "-g": 2060,
      "-l": 2061,
      "_the": 2062,
      "ध्य": 2063,
      "्च": 2064,
      "▁[ब": 2065,
      "ese": 2066,
      "](https://hi.wikipedia.org/wiki/अ": 2067,
      "ace": 2068,
      "र्थ": 2069,
      "depend": 2070,
      "ound": 2071,
      "स्क": 2072,
      "ंग्रेज़": 2073,
      "entral": 2074,
      "रालेखित": 2075,
      "▁June": 2076,
      "4%": 2077,
      "57": 2078,
      "ज्": 2079,
      "జన": 2080,
      "టు": 2081,
      "టె": 2082,
      "](https://en.wikipedia.org/wiki/R": 2083,
      "2008": 2084,
      "▁An": 2085,
      "ctober": 2086,
      "▁చె": 2087,
      "నాయ": 2088,
      "aint": 2089,
      "–సా.శ.పూ.": 2090,
      "▁ఆర్": 2091,
      "matics": 2092,
      "పాలిత": 2093,
      "▁भी": 2094,
      "స్త్రం:": 2095,
      "▁ప్రాంత": 2096,
      "inistry": 2097,
      "-0-521": 2098,
      "ేంద్రపాలిత": 2099,
      "](https://te.wikipedia.org/wiki/దస్త్రం:": 2100,
      ".\"\r\n": 2101,
      "5)": 2102,
      "country": 2103,
      "ಟ್ಟ": 2104,
      "ತ್ರ": 2105,
      "ದು": 2106,
      "ಾಲ": 2107,
      "೨೦": 2108,
      "▁ಉ": 2109,
      "▁ಶ": 2110,
      "▁ಭಾಷೆ": 2111,
      "ಾರ್": 2112,
      "▁ಪಾ": 2113,
      "ಸ್ತಾನ": 2114,
      "news/": 2115,
      "Talbot": 2116,
      "_भारत": 2117,
      "air": 2118,
      "ran": 2119,
      "shi": 2120,
      "थान": 2121,
      "रे": 2122,
      "हास": 2123,
      "िट": 2124,
      "िश": 2125,
      "▁v": 2126,
      "ined": 2127,
      "led": 2128,
      "ats": 2129,
      "ref-1": 2130,
      "note-1": 2131,
      "ice": 2132,
      "ill": 2133,
      "india/": 2134,
      "emb": 2135,
      "▁World": 2136,
      "चित्र": 2137,
      "AsherTalbot": 2138,
      "line": 2139,
      "▁Pro": 2140,
      "_and_S": 2141,
      "9)": 2142,
      "Edit": 2143,
      "Page/": 2144,
      "iv": 2145,
      "ms": 2146,
      "mund": 2147,
      "oor": 2148,
      "ove": 2149,
      "olog": 2150,
      "द्र": 2151,
      "फ़": 2152,
      "ुख": 2153,
      "ఖ్య": 2154,
      "గో": 2155,
      "తో": 2156,
      "బి": 2157,
      "హి": 2158,
      "](https://hi.wikipedia.org/wiki/ब": 2159,
      "\\_with": 2160,
      "▁Asian": 2161,
      "▁25": 2162,
      "ctor": 2163,
      "ories": 2164,
      "othermund": 2165,
      "స్కృ": 2166,
      "EditPage/": 2167,
      "▁21": 2168,
      "\\_and": 2169,
      "\\_errors": 2170,
      "▁15": 2171,
      "imf": 2172,
      "help": 2173,
      "44": 2174,
      "ces": 2175,
      "man": 2176,
      "sp": 2177,
      "शिया": 2178,
      "▁territ": 2179,
      "ork": 2180,
      "▁[H": 2181,
      "omb": 2182,
      "ulke": 2183,
      "](https://hi.wikipedia.org/wiki/भारत_में": 2184,
      "tical": 2185,
      "▁2022": 2186,
      "apit": 2187,
      "▁not": 2188,
      "%E0%": 2189,
      ",000": 2190,
      "2%": 2191,
      "▁par": 2192,
      "▁October": 2193,
      "ongress": 2194,
      "121": 2195,
      "330": 2196,
      "_ప": 2197,
      "aw": 2198,
      "fter": 2199,
      "oci": 2200,
      "uk": 2201,
      "ution": 2202,
      "year": 2203,
      "ीन": 2204,
      "హా": 2205,
      "ి.\r\n": 2206,
      "ವಾಗಿ": 2207,
      "ೃತ": 2208,
      "▁ను": 2209,
      "▁జాతీయ": 2210,
      "▁\"ಭಾರತದ": 2211,
      "ister": 2212,
      "](https://en.wikipedia.org/wiki/Indian_": 2213,
      "197": 2214,
      "▁सम": 2215,
      "aman": 2216,
      "▁co": 2217,
      "▁Census": 2218,
      "](https://kn.wikipedia.org/wiki/ಭಾರತದ_": 2219,
      "▁[↑](https://kn.wikipedia.org/wiki/ಭಾರತ#cite_": 2220,
      "▁हि": 2221,
      "old": 2222,
      "▁ಕೋ": 2223,
      "%20%20": 2224,
      "त्तर": 2225,
      "dustry": 2226,
      "ಸ್ಥೆ": 2227,
      "్యవస్థ": 2228,
      "\\_with\\_": 2229,
      "1_": 2230,
      "las": 2231,
      "nglish": 2232,
      "▁([help": 2233,
      "argest": 2234,
      "s\"))\r\n": 2235,
      "▁errors\"))\r\n": 2236,
      "ail": 2237,
      "मिल": 2238,
      "ुस": 2239,
      "▁सूची": 2240,
      "▁2010": 2241,
      "dex": 2242,
      "illion": 2243,
      "eptem": 2244,
      "india.gov.in": 2245,
      "eptember": 2246,
      "/0": 2247,
      "100": 2248,
      "▁[W": 2249,
      "▁India,": 2250,
      "▁2016": 2251,
      "\"](https://": 2252,
      "-f": 2253,
      "rary": 2254,
      "tal": 2255,
      "yn": 2256,
      "रु": 2257,
      "ूच": 2258,
      "డా": 2259,
      "దా": 2260,
      "బడ": 2261,
      "మే": 2262,
      "రణ": 2263,
      "▁9": 2264,
      "▁లో": 2265,
      "ority": 2266,
      "▁[प": 2267,
      "2014": 2268,
      "▁కూ": 2269,
      "ాలు,": 2270,
      "▁రాష్ట్ర": 2271,
      "ortal": 2272,
      "కిస్తాన్": 2273,
      "/http://www.": 2274,
      "▁చరిత్ర\")": 2275,
      "fn_": 2276,
      "gar": 2277,
      "▁template": 2278,
      "one": 2279,
      "no-t": 2280,
      "\\_no-t": 2281,
      "▁Sfn": 2282,
      "▁target": 2283,
      "210": 2284,
      "▁26": 2285,
      "fn\\_no-t": 2286,
      "template_": 2287,
      "▁error:": 2288,
      "arget\\_errors": 2289,
      "\\_Sfn\\_no-t": 2290,
      "_and_Sfn_": 2291,
      "\\_and\\_Sfn\\_no-t": 2292,
      "▁target:": 2293,
      "template_errors": 2294,
      "arget\\_errors\r\n": 2295,
      "_and_Sfn_template_errors": 2296,
      "\\_and\\_Sfn\\_no-target\\_errors\r\n": 2297,
      ",0": 2298,
      "8/": 2299,
      "_c": 2300,
      "ugh": 2301,
      "कर": 2302,
      "▁[F": 2303,
      "▁सरकार": 2304,
      "low": 2305,
      "▁2007": 2306,
      "articles": 2307,
      "ashmir": 2308,
      "[![](https://upload.wikimedia.org/wikipedia/commons/thumb/": 2309,
      "data": 2310,
      "pt": 2311,
      "ಕಾ": 2312,
      "ಪು": 2313,
      "ಯು": 2314,
      "ವೆ": 2315,
      "ed.": 2316,
      "▁CITEREF": 2317,
      "▁ಮು": 2318,
      "▁this": 2319,
      "ಹಿಂದೂ": 2320,
      "1/": 2321,
      "C&pg=PA": 2322,
      "_L": 2323,
      "han": 2324,
      "mar": 2325,
      "ne": 2326,
      "tar": 2327,
      "uj": 2328,
      "पाल": 2329,
      "हु": 2330,
      "ा:": 2331,
      "ैद": 2332,
      "ोक": 2333,
      "▁घ": 2334,
      "▁२": 2335,
      "▁ఈ": 2336,
      "▁ag": 2337,
      "▁భారత": 2338,
      "time": 2339,
      "lim": 2340,
      "rab": 2341,
      "త్రి": 2342,
      "ాలు\")": 2343,
      "ాలు](https://te.wikipedia.org/wiki/": 2344,
      "ign": 2345,
      "_Indian_": 2346,
      "▁तक": 2347,
      "▁./Category:": 2348,
      "▁\"Special:BookSources/978-1": 2349,
      "](Special:BookSources/978-1": 2350,
      "▁Island": 2351,
      "Hindu": 2352,
      "साँच": 2353,
      "किस्तान": 2354,
      "emplate:": 2355,
      "87": 2356,
      "je": 2357,
      "▁per": 2358,
      "anisation": 2359,
      "▁population": 2360,
      "▁government": 2361,
      "▁Development": 2362,
      "▁[Archived](https://web.archive.org/web/201": 2363,
      "-language": 2364,
      "Singh": 2365,
      "aper": 2366,
      "्ड": 2367,
      "](https://hi.wikipedia.org/wiki/भारतीय_": 2368,
      "▁Empire": 2369,
      "ople": 2370,
      "▁New": 2371,
      "isher": 2372,
      "ternational": 2373,
      "▁Asia\")": 2374,
      "▁(PDF)": 2375,
      "ofindia": 2376,
      "also": 2377,
      "gency": 2378,
      "_క": 2379,
      "odi": 2380,
      "न\")": 2381,
      "सम": 2382,
      "ूर": 2383,
      "తు": 2384,
      "పతి": 2385,
      "▁es": 2386,
      "▁ని": 2387,
      "▁స్థ": 2388,
      "▁[అ": 2389,
      "▁[ప": 2390,
      "▁\"భారతదేశం": 2391,
      "erv": 2392,
      "్రి": 2393,
      "ouse": 2394,
      "ledge": 2395,
      "liament": 2396,
      "▁pl": 2397,
      "▁ch": 2398,
      "▁September": 2399,
      "ical": 2400,
      "ర్వ": 2401,
      "న్ని": 2402,
      "ों_की_स": 2403,
      "మిళ": 2404,
      "వంశ": 2405,
      "श्चि": 2406,
      "DwAAQBAJ&pg=PA": 2407,
      "2-": 2408,
      "51": 2409,
      "\")*.": 2410,
      "▁sfn": 2411,
      "▁comp": 2412,
      "ing\\_": 2413,
      "athe": 2414,
      "fficial": 2415,
      "hat": 2416,
      "ris": 2417,
      "ओं": 2418,
      "गण": 2419,
      "ीं": 2420,
      "ूप": 2421,
      "ಕೆ": 2422,
      "ತೆ": 2423,
      "ದಾ": 2424,
      "ನೆ": 2425,
      "ುನಾ": 2426,
      "ೇಂದ": 2427,
      "ೈನ": 2428,
      "ೊಂದಿ": 2429,
      "▁ಈ": 2430,
      "▁ಲ": 2431,
      "king": 2432,
      "](https://hi.wikipedia.org/wiki/प": 2433,
      "lear": 2434,
      "iron": 2435,
      "▁\"South": 2436,
      "duc": 2437,
      "▁ವಿ": 2438,
      "ಗಳು\r\n": 2439,
      "]](https://hi.wikipedia.org/wiki/भारत#cite_note-FOOTNOTE": 2440,
      "ಂಗಾ": 2441,
      "ummit\")": 2442,
      "▁language\")": 2443,
      "]](https://kn.wikipedia.org/wiki/ಭಾರತ#cite_note-": 2444,
      "ಕಿಸ್ತಾನ": 2445,
      "68": 2446,
      "van": 2447,
      "▁En": 2448,
      "ographi": 2449,
      "31": 2450,
      "_మ": 2451,
      "_భాష": 2452,
      "gist": 2453,
      "hp": 2454,
      "ocial": 2455,
      "rar": 2456,
      "रब": 2457,
      "ली": 2458,
      "्स": 2459,
      "ఫ్": 2460,
      "▁స్": 2461,
      "▁[J": 2462,
      "▁[బ": 2463,
      "▁[స": 2464,
      "▁\"J": 2465,
      "▁\"అ": 2466,
      "](https://en.wikipedia.org/wiki/List_of_": 2467,
      "▁किया": 2468,
      "1947": 2469,
      "▁Commissioner": 2470,
      "న్నాయ": 2471,
      "row": 2472,
      "radition": 2473,
      "▁కాల": 2474,
      "नाम": 2475,
      "▁have": 2476,
      "ులు](https://te.wikipedia.org/wiki/": 2477,
      "imes": 2478,
      "▁రై": 2479,
      "_के_राज्य": 2480,
      ".jpg)](https://te.wikipedia.org/wiki/దస్త్రం:": 2481,
      ".jpg/250px-": 2482,
      "Stein1998": 2483,
      "ंदिर": 2484,
      "outh_Asia": 2485,
      "హిందూ": 2486,
      "Singh2009": 2487,
      "gistrar": 2488,
      "▁also": 2489,
      "ince": 2490,
      "▁National": 2491,
      "/A": 2492,
      "Dyson": 2493,
      "_3": 2494,
      "_प्र": 2495,
      "rac": 2496,
      "viron": 2497,
      "जी": 2498,
      "दक्षिण": 2499,
      "ष्": 2500,
      "▁+": 2501,
      "▁year": 2502,
      "▁into": 2503,
      "▁system": 2504,
      "ross": 2505,
      "▁2018": 2506,
      "्वीप": 2507,
      "engal": 2508,
      "censusindia.gov.in/": 2509,
      "uclear": 2510,
      "uropean": 2511,
      "ज्ञ": 2512,
      "ombined": 2513,
      "vironment": 2514,
      "ph": 2515,
      "s-": 2516,
      "tel": 2517,
      "anu": 2518,
      "olper": 2519,
      "PPP": 2520,
      "List_of_countries_by_": 2521,
      "olpert": 2522,
      "pur": 2523,
      "ta": 2524,
      "ंजा": 2525,
      "ख्या": 2526,
      "वन": 2527,
      "वे": 2528,
      "ఆసియా": 2529,
      "ద్ర": 2530,
      "భూ": 2531,
      "మె": 2532,
      "య్య": 2533,
      "ర్య": 2534,
      "▁ల": 2535,
      "▁us": 2536,
      "▁\"ప": 2537,
      "▁\"బ": 2538,
      "▁\"స": 2539,
      "](https://en.wikipedia.org/wiki/H": 2540,
      "](https://en.wikipedia.org/wiki/K": 2541,
      "▁their": 2542,
      "entre": 2543,
      "anges": 2544,
      "▁16": 2545,
      "▁Pradesh": 2546,
      "ters": 2547,
      "▁[↑](https://te.wikipedia.org/wiki/భారతదేశం#cite_ref-": 2548,
      "ember": 2549,
      "न्न": 2550,
      "త్త": 2551,
      "▁during": 2552,
      "▁అధిక": 2553,
      "▁ప్రదేశ్": 2554,
      "ప్రదేశ్": 2555,
      "▁भाषा\")": 2556,
      "_summit": 2557,
      "▁खाना": 2558,
      ".svg": 2559,
      "330px-": 2560,
      "▁నుండి": 2561,
      "ों_की_सूची": 2562,
      "ंजाब": 2563,
      "ेव": 2564,
      "ಂಬ": 2565,
      "ಗಿ": 2566,
      "ಗು": 2567,
      "ಡಿ": 2568,
      "ಭೆ": 2569,
      "ಯಾ": 2570,
      "ಸಭೆ": 2571,
      "▁ಒ": 2572,
      "▁[ಮ": 2573,
      "▁\"ಮ": 2574,
      "](https://kn.wikipedia.org/wiki/ಮ": 2575,
      "बसे": 2576,
      "ुल": 2577,
      "inister": 2578,
      "ley": 2579,
      "▁Aug": 2580,
      "▁first": 2581,
      "▁Population": 2582,
      "ेंद्र": 2583,
      "▁2019": 2584,
      "](https://hi.wikipedia.org/wiki/भारत_क": 2585,
      "_Press": 2586,
      "▁गया": 2587,
      "▁Press\").": 2588,
      "▁राज्यों": 2589,
      "▁[Archived](https://web.archive.org/web/20": 2590,
      "outledge": 2591,
      "120px-": 2592,
      "censusindia.gov.in/2011": 2593,
      "▁August": 2594,
      "89": 2595,
      "▁0.": 2596,
      "wing": 2597,
      "▁[I": 2598,
      "them": 2599,
      "ool": 2600,
      "▁Se": 2601,
      "ural": 2602,
      "▁(PDF).": 2603,
      "2-0)": 2604,
      "Combined": 2605,
      "Rothermund": 2606,
      "jab": 2607,
      "ost": 2608,
      "बंध": 2609,
      "ణి": 2610,
      "తమిళ": 2611,
      "మైన": 2612,
      "హార": 2613,
      "ోర్": 2614,
      "▁\"ఇ": 2615,
      "▁\"భారత": 2616,
      "](https://en.wikipedia.org/wiki/J": 2617,
      "](https://en.wikipedia.org/wiki/L": 2618,
      "](https://te.wikipedia.org/wiki/బ": 2619,
      "▁Ch": 2620,
      "▁हो": 2621,
      "ayan": 2622,
      "▁మొ": 2623,
      "▁2023": 2624,
      "▁नि": 2625,
      "నాగ": 2626,
      "త్తర": 2627,
      "ులు\")": 2628,
      "न्द्र": 2629,
      ".php": 2630,
      "▁[मूल": 2631,
      "ffair": 2632,
      "ियों": 2633,
      "శ్మీ": 2634,
      "మూస:": 2635,
      "Dyson2018": 2636,
      "_re": 2637,
      "_at": 2638,
      "▁\"O": 2639,
      "ind": 2640,
      "▁India:": 2641,
      "urr": 2642,
      "ourt": 2643,
      "resid": 2644,
      "230": 2645,
      ".gov/": 2646,
      "ibrary": 2647,
      "crease": 2648,
      "%28": 2649,
      "Kulke": 2650,
      "Pages": 2651,
      "son": 2652,
      "uis": 2653,
      "चल": 2654,
      "ब्": 2655,
      "िन": 2656,
      "India)": 2657,
      "2023": 2658,
      "estern": 2659,
      "cience": 2660,
      "▁सबसे": 2661,
      "sical": 2662,
      "▁state": 2663,
      "ument": 2664,
      "▁world": 2665,
      "▁**[": 2666,
      "ight": 2667,
      "ालय": 2668,
      "▁region": 2669,
      "स्था": 2670,
      "चीन": 2671,
      "hism": 2672,
      "html)": 2673,
      "▁पुरालेखित": 2674,
      "चित्र:": 2675,
      "▁सूची\")": 2676,
      "▁पुरालेखित।": 2677,
      "pr": 2678,
      "tain": 2679,
      "eration": 2680,
      "▁Ass": 2681,
      "epublic": 2682,
      "-2)": 2683,
      "embly": 2684,
      "_and_Sfn_template_errors?action=edit&redlink=1": 2685,
      "2_": 2686,
      "88": 2687,
      "_K": 2688,
      "iver": 2689,
      "जरा": 2690,
      "ैन": 2691,
      "శా": 2692,
      "ైనా": 2693,
      "ಖ್": 2694,
      "ಚ್ಚ": 2695,
      "ಟೆ": 2696,
      "ಣೆ": 2697,
      "ಪಂ": 2698,
      "ಬ್ಯಾ": 2699,
      "ಭೂ": 2700,
      "ರಂ": 2701,
      "ಲಾ": 2702,
      "ಷ್": 2703,
      "ಹಾ": 2704,
      "ಹಲಿ": 2705,
      "ು.": 2706,
      "▁wi": 2707,
      "▁en": 2708,
      "▁al": 2709,
      "▁[ఇ": 2710,
      "▁[ಭಾರತದ": 2711,
      "▁\"జ": 2712,
      "annic": 2713,
      "are": 2714,
      "eser": 2715,
      "](https://hi.wikipedia.org/wiki/चित्र:": 2716,
      "](https://te.wikipedia.org/wiki/ఇ": 2717,
      "](https://te.wikipedia.org/wiki/స": 2718,
      "etwe": 2719,
      "-17": 2720,
      "భారత_": 2721,
      "chnolog": 2722,
      "రాజ": 2723,
      "లో](https://te.wikipedia.org/wiki/": 2724,
      "రిజ": 2725,
      "క్కు": 2726,
      "ರ್ಥ": 2727,
      "ियाँ": 2728,
      "ండ్": 2729,
      "-81": 2730,
      "ritannic": 2731,
      "1994": 2732,
      "ಂತರ": 2733,
      "ಸಿಂಧ": 2734,
      "ದೆ.": 2735,
      "ದೆಹಲಿ": 2736,
      "क्ति": 2737,
      "ದ್ಧ": 2738,
      "ವೇಬ್ಯಾ": 2739,
      "స్కృతి": 2740,
      "etween": 2741,
      "ವೇಬ್ಯಾಕ್": 2742,
      "\".": 2743,
      "2,": 2744,
      "4-0)": 2745,
      "86": 2746,
      "cat": 2747,
      "▁1,": 2748,
      "-19": 2749,
      "gy": 2750,
      "hen": 2751,
      "her": 2752,
      "lag": 2753,
      "odern": 2754,
      "t-": 2755,
      "ymb": 2756,
      "प्त": 2757,
      "ोर": 2758,
      "।[[": 2759,
      "▁$": 2760,
      "▁ri": 2761,
      "▁[उ": 2762,
      "ond": 2763,
      "thnolog": 2764,
      "▁Chin": 2765,
      "adu": 2766,
      "unjab": 2767,
      "▁जिस": 2768,
      "▁प्रा": 2769,
      "▁form": 2770,
      "versity_Press": 2771,
      ".png": 2772,
      "स्थान": 2773,
      ".jpg/330px-": 2774,
      "vision": 2775,
      "history": 2776,
      "-in-": 2777,
      "ुसार": 2778,
      "KulkeRothermund": 2779,
      "Pages\\_": 2780,
      "thnologue": 2781,
      "4/": 2782,
      "75": 2783,
      "▁[U": 2784,
      "▁2009": 2785,
      "_H": 2786,
      "_t": 2787,
      "min": 2788,
      "च्च": 2789,
      "ण्ड": 2790,
      "वरी": 2791,
      "ం?action=edit&redlink=1": 2792,
      "చే": 2793,
      "బా": 2794,
      "–1": 2795,
      "▁[t": 2796,
      "▁[జ": 2797,
      "tes": 2798,
      "](https://en.wikipedia.org/wiki/F": 2799,
      "omen": 2800,
      "▁India\"),": 2801,
      "ature": 2802,
      "▁పా": 2803,
      "lob": 2804,
      "come": 2805,
      "raven": 2806,
      "](https://hi.wikipedia.org/wiki/भारत#CITEREF": 2807,
      "▁Th": 2808,
      "oll": 2809,
      "▁వా": 2810,
      "ండు": 2811,
      "▁చూ": 2812,
      "able": 2813,
      "_सं": 2814,
      "త్వ": 2815,
      "a](https://en.wikipedia.org/wiki/S": 2816,
      "ప్రధాన": 2817,
      "▁है।\r\n": 2818,
      "▁తే": 2819,
      "▁साथ": 2820,
      "udden": 2821,
      "▁subcontinent": 2822,
      "usiness": 2823,
      "](https://hi.wikipedia.org/wiki/भारत_में_": 2824,
      "ok": 2825,
      "▁'": 2826,
      "▁30": 2827,
      "city": 2828,
      ".gov.in/": 2829,
      "view": 2830,
      "article": 2831,
      "known": 2832,
      "2/": 2833,
      "CE": 2834,
      "_%28": 2835,
      "a/": 2836,
      "dle": 2837,
      "ian": 2838,
      "ies": 2839,
      "rans": 2840,
      "ya": 2841,
      "आई": 2842,
      "टे": 2843,
      "ाम": 2844,
      "▁था": 2845,
      "▁धर्म": 2846,
      "▁\"श्रेणी:Harv": 2847,
      "](https://hi.wikipedia.org/wiki/श्रेणी:Harv": 2848,
      "andhi": 2849,
      "▁सि": 2850,
      "▁cons": 2851,
      "cember": 2852,
      "▁Metcalf": 2853,
      "▁1947": 2854,
      "▁GDP": 2855,
      "▁2024": 2856,
      "्वर": 2857,
      "▁2006": 2858,
      "▁./श्रेणी:Harv": 2859,
      "umbai": 2860,
      "▁आधार": 2861,
      "▁संघ": 2862,
      "earch": 2863,
      ".jpg/120px-": 2864,
      "पाकिस्तान": 2865,
      "▁([help](https://hi.wikipedia.org/wiki/श्रेणी:Harv": 2866,
      "▁./श्रेणी:Harv\\_and\\_Sfn\\_no-target\\_errors\r\n": 2867,
      "▁([help](https://hi.wikipedia.org/wiki/श्रेणी:Harv_and_Sfn_template_errors?action=edit&redlink=1": 2868,
      "_d": 2869,
      "c=": 2870,
      "ಖಂಡ": 2871,
      "ಮ್ರಾ": 2872,
      "ಶ್ಚ": 2873,
      "ಹಾರ": 2874,
      "್ಮ": 2875,
      "▁[3": 2876,
      "ominal": 2877,
      "ooperation": 2878,
      "್ಯವ": 2879,
      "▁1950": 2880,
      "▁ಸ್ವ": 2881,
      "ಸ್ಕ": 2882,
      "▁ಹೊಂದಿ": 2883,
      "rganisation": 2884,
      "▁ಹೆಚ್ಚ": 2885,
      "ತಂತ್ರ್ಯ": 2886,
      "▁ಪಾಕಿಸ್ತಾನ": 2887,
      "ುನಾವ": 2888,
      "anuary": 2889,
      "ರ್ಥಿಕ": 2890,
      "ಮ್ರಾಜ್ಯ": 2891,
      "-of": 2892,
      "3-0)": 2893,
      "Ar": 2894,
      "Template:": 2895,
      "_I": 2896,
      "_సా": 2897,
      "fric": 2898,
      "mu": 2899,
      "की": 2900,
      "णा": 2901,
      "तंत्र": 2902,
      "्ला": 2903,
      "ంప": 2904,
      "కో": 2905,
      "గణ": 2906,
      "దిన": 2907,
      "నై": 2908,
      "రీ": 2909,
      "▁ac": 2910,
      "▁ru": 2911,
      "▁विश्व": 2912,
      "▁\"W": 2913,
      "▁\"उ": 2914,
      "▁\"చ": 2915,
      "](https://hi.wikipedia.org/wiki/उ": 2916,
      "](https://te.wikipedia.org/wiki/జ": 2917,
      "ారం": 2918,
      "iddle": 2919,
      "्यट": 2920,
      "▁Sh": 2921,
      "▁but": 2922,
      "▁between": 2923,
      "▁1.": 2924,
      "▁more": 2925,
      "vers": 2926,
      "▁క్రీ": 2927,
      "క్‌": 2928,
      "నికి": 2929,
      "ల్ల": 2930,
      "ाली": 2931,
      "ంగీ": 2932,
      "▁సి": 2933,
      "నాభా": 2934,
      "Harle": 2935,
      "harma": 2936,
      "జాబి": 2937,
      "▁been": 2938,
      "ligi": 2939,
      "▁original](https://www.": 2940,
      "▁[![](https://upload.wikimedia.org/wikipedia/commons/thumb/": 2941,
      "clu": 2942,
      "श्मी": 2943,
      "▁శా": 2944,
      "▁భాష\")": 2945,
      "బెంగ": 2946,
      "_University_Press": 2947,
      "ujar": 2948,
      "censusindia.gov.in/2011census": 2949,
      "ymbol": 2950,
      "జాబితా": 2951,
      "cri": 2952,
      "▁Congress": 2953,
      "▁May": 2954,
      "▁2020": 2955,
      "▁January": 2956,
      "▁Feb": 2957,
      "actbook": 2958,
      "-le": 2959,
      "National_": 2960,
      "fic": 2961,
      "hol": 2962,
      "uri": 2963,
      "ंब": 2964,
      "गढ़": 2965,
      "ज्य": 2966,
      "तमिल": 2967,
      "दा": 2968,
      "भी": 2969,
      "ांग": 2970,
      "ेर": 2971,
      "▁Y": 2972,
      "▁[Indian": 2973,
      "ann": 2974,
      "2024": 2975,
      "्रिट": 2976,
      "▁Act": 2977,
      "ures": 2978,
      "▁अधिक": 2979,
      "▁General": 2980,
      "berg": 2981,
      "ublish": 2982,
      "-80": 2983,
      "ustr": 2984,
      "तिहास": 2985,
      "▁bec": 2986,
      "%2F": 2987,
      "-107": 2988,
      "rade": 2989,
      "▁१९": 2990,
      "युक्त": 2991,
      "▁century": 2992,
      "स्कृत": 2993,
      "ology": 2994,
      "▁हिन्द": 2995,
      "61": 2996,
      "nominal": 2997,
      "▁/": 2998,
      "▁national": 2999,
      "harat": 3000,
      "ographic": 3001,
      "nominal)": 3002,
      ".n": 3003,
      "01": 3004,
      "76": 3005,
      ":[": 3006,
      "ban": 3007,
      "lad": 3008,
      "pp": 3009,
      "pic": 3010,
      "rish": 3011,
      "ua": 3012,
      "uch": 3013,
      "wo": 3014,
      "में": 3015,
      "చల్": 3016,
      "యన్": 3017,
      "షు": 3018,
      "ూర్": 3019,
      "▁res": 3020,
      ".org/10.": 3021,
      "▁[O": 3022,
      "▁[చ": 3023,
      "▁[భారత": 3024,
      "▁[భారతీయ": 3025,
      "▁\"I": 3026,
      "arn": 3027,
      "](https://te.wikipedia.org/wiki/ప": 3028,
      "](https://te.wikipedia.org/wiki/భారతీయ": 3029,
      "ార్ట": 3030,
      "edu": 3031,
      "amp": 3032,
      "ాలయ": 3033,
      "▁मान": 3034,
      "▁music": 3035,
      "▁2012": 3036,
      "▁2017": 3037,
      "याल": 3038,
      "▁after": 3039,
      "క్క": 3040,
      "▁వ్యవస్థ": 3041,
      "▁ము": 3042,
      "ండో": 3043,
      "▁बाद": 3044,
      "्वार": 3045,
      "ముంబ": 3046,
      "సిన": 3047,
      "▁dance": 3048,
      "ినల్": 3049,
      "avid": 3050,
      "ద్ద": 3051,
      "▁ఉన్న": 3052,
      "▁ఉన్నాయ": 3053,
      "▁depend": 3054,
      "िल्ल": 3055,
      "పాకిస్తాన్": 3056,
      "-0-19-8": 3057,
      "html).": 3058,
      "ంధీ": 3059,
      "्राज्य": 3060,
      "▁ఒక": 3061,
      "▁ఒరిజ": 3062,
      "doi.org/10.": 3063,
      "వంశం": 3064,
      "chnology": 3065,
      "▁తేదీ": 3066,
      "ార్టీ": 3067,
      "▁ఒరిజినల్": 3068,
      "-20": 3069,
      "55": 3070,
      "ey": 3071,
      "evelopment": 3072,
      "2019": 3073,
      "resident": 3074,
      "Pages\\_us": 3075,
      "%29": 3076,
      "-c": 3077,
      "Wolpert": 3078,
      "_W": 3079,
      "_और": 3080,
      "ote": 3081,
      "ttar": 3082,
      "wart": 3083,
      "zberg": 3084,
      "एं": 3085,
      "वर्": 3086,
      "शास": 3087,
      "ಕ್ತ": 3088,
      "ಗೋ": 3089,
      "ಜಾ": 3090,
      "ಜೈನ": 3091,
      "ಡಳ": 3092,
      "ಡೆ": 3093,
      "ಡ್": 3094,
      "ಧ್ಯ": 3095,
      "ಯಿ": 3096,
      "ಳಿ": 3097,
      "ಳು": 3098,
      "ಷಿ": 3099,
      "ಷ್ಯಾ": 3100,
      "ಿಲಿ": 3101,
      "ೀಪ": 3102,
      "ೋಕ": 3103,
      "ೌದ್ಧ": 3104,
      "▁over": 3105,
      "▁other": 3106,
      "ped": 3107,
      "▁[ಬ": 3108,
      "▁\"ಬ": 3109,
      "ones": 3110,
      "eral_": 3111,
      "▁कार": 3112,
      "▁pri": 3113,
      "▁poli": 3114,
      "](https://kn.wikipedia.org/wiki/ಬ": 3115,
      "ade": 3116,
      "edic": 3117,
      "chwart": 3118,
      "▁who": 3119,
      "▁**ರಾಷ್ಟ್ರೀಯ": 3120,
      "▁ab": 3121,
      ".com/news/": 3122,
      "▁East": 3123,
      "form": 3124,
      "formatics": 3125,
      "▁number": 3126,
      "क्षेत्र": 3127,
      "माण": 3128,
      "ड़ा": 3129,
      "▁ಬೆ": 3130,
      "▁शास": 3131,
      "ತಿಹಾ": 3132,
      "ರುವ": 3133,
      "ommon": 3134,
      "म्ब": 3135,
      "▁Press.": 3136,
      "▁साम": 3137,
      "▁यह": 3138,
      "auth": 3139,
      "▁[भारतीय": 3140,
      "▁2014.\r\n": 3141,
      "▁ಜನಸಂಖ್ಯೆ": 3142,
      "▁ಕೋಟಿ": 3143,
      "▁estim": 3144,
      "▁years": 3145,
      "ज्ञान": 3146,
      "ಶ್ಚಿಮ": 3147,
      "ುನಾವಣೆ": 3148,
      "ಡಳಿತ": 3149,
      "chwartzberg": 3150,
      "ತಿಹಾಸ": 3151,
      ",[[": 3152,
      "-re": 3153,
      "-india-": 3154,
      "_O": 3155,
      "fr": 3156,
      "gram": 3157,
      "ime": 3158,
      "s18": 3159,
      "▁official": 3160,
      "00)": 3161,
      "▁March": 3162,
      "▁22": 3163,
      "▁24": 3164,
      "eport": 3165,
      "904": 3166,
      "▁Hindi": 3167,
      "gramme": 3168,
      ",9": 3169,
      "1-0)": 3170,
      "A4%": 3171,
      "ID": 3172,
      "Vi": 3173,
      "_भाषा": 3174,
      "ner": 3175,
      "तर": 3176,
      "लु": 3177,
      "ाट": 3178,
      "జ్": 3179,
      "వరి": 3180,
      "శ్చ": 3181,
      "ిన్న": 3182,
      "ెల": 3183,
      "▁थ": 3184,
      "pear": 3185,
      "▁\"భారతదేశ": 3186,
      "▁\"विशेष:पुस्तक": 3187,
      "\"):": 3188,
      "off": 3189,
      "](https://hi.wikipedia.org/wiki/ISBN_(identifier)": 3190,
      "](https://hi.wikipedia.org/wiki/विशेष:पुस्तक": 3191,
      "్రె": 3192,
      "▁India\")\r\n": 3193,
      "▁स्रोत/978": 3194,
      "life": 3195,
      "▁Cambridge": 3196,
      "▁पा": 3197,
      "anglad": 3198,
      "istan": 3199,
      "](https://hi.wikipedia.org/wiki/भारत_के_": 3200,
      "ాలు\r\n": 3201,
      "నిస్తాన్": 3202,
      "ird": 3203,
      "cture": 3204,
      "▁English": 3205,
      "▁మధ్య": 3206,
      "लाई": 3207,
      "▁For": 3208,
      "_स्रोत/978": 3209,
      "1996": 3210,
      "▁./श्रेणी:": 3211,
      "▁(identifier)\"):[": 3212,
      "](https://te.wikipedia.org/wiki/భారతదేశంలో": 3213,
      "▁[ISBN](https://hi.wikipedia.org/wiki/ISBN_(identifier)": 3214,
      "▁[*A": 3215,
      "స్థాన్": 3216,
      "_के_आ": 3217,
      "▁2011.\r\n": 3218,
      "CS1": 3219,
      "▁December": 3220,
      "▁लि": 3221,
      "▁most": 3222,
      "▁పేజీ": 3223,
      "మ్మూ": 3224,
      "साँचा:": 3225,
      "▁\"భారతదేశంలో": 3226,
      "श्चिम": 3227,
      "ffairs": 3228,
      "▁చూసిన": 3229,
      "ांग्ला": 3230,
      "ustrali": 3231,
      "▁తేదీ:": 3232,
      "Wolpert2003": 3233,
      "శ్చి": 3234,
      "](https://hi.wikipedia.org/wiki/विशेष:पुस्तक_स्रोत/978": 3235,
      "angladesh": 3236,
      "▁పేజీని": 3237,
      "NGDP": 3238,
      "_4": 3239,
      "ft": 3240,
      "gl": 3241,
      "get": 3242,
      "win": 3243,
      "▁[[": 3244,
      "ough": 3245,
      "etary": 3246,
      "files/": 3247,
      "▁2015": 3248,
      "Pages\\_using\\_": 3249,
      "-d": 3250,
      "CO": 3251,
      "how": 3252,
      "ned": 3253,
      "oon": 3254,
      "ंप": 3255,
      "मुख": 3256,
      "▁राष्ट्रीय": 3257,
      "kim": 3258,
      "din": 3259,
      "▁[e": 3260,
      "▁[v": 3261,
      "▁[Metcalf": 3262,
      "\")**": 3263,
      "estic": 3264,
      "▁part": 3265,
      "2000": 3266,
      "2001": 3267,
      "▁Comp": 3268,
      "▁Constitution": 3269,
      "▁Ar": 3270,
      "loc": 3271,
      "_of_the": 3272,
      "rop": 3273,
      "term": 3274,
      "rahm": 3275,
      "▁[↑](https://hi.wikipedia.org/wiki/भारत#cite_": 3276,
      "union": 3277,
      "ticles": 3278,
      "▁जु": 3279,
      "▁election": 3280,
      "ेश्वर": 3281,
      "fore": 3282,
      "duct": 3283,
      "_Asia": 3284,
      "▁[South": 3285,
      "doc": 3286,
      "▁उप": 3287,
      "emple": 3288,
      "▁यु": 3289,
      "obb": 3290,
      "▁[2](https://en.wikipedia.org/wiki/India#cite_ref-FOOTNOTE": 3291,
      "▁[1](https://en.wikipedia.org/wiki/India#cite_ref-FOOTNOTE": 3292,
      "ikshi": 3293,
      "त्प": 3294,
      "गुजरा": 3295,
      "▁territories": 3296,
      "ूचना": 3297,
      "_प्रदेश": 3298,
      "्रिटिश": 3299,
      "ikshit": 3300,
      "/P": 3301,
      "National": 3302,
      "hang": 3303,
      "▁time": 3304,
      "high": 3305,
      "ama": 3306,
      "▁Increase": 3307,
      "▁dom": 3308,
      "ligence": 3309,
      "telligence": 3310,
      ".as": 3311,
      "07": 3312,
      "79": 3313,
      "CN": 3314,
      "_19": 3315,
      "_पर": 3316,
      "_territ": 3317,
      "gions": 3318,
      "lam": 3319,
      "rin": 3320,
      "काल": 3321,
      "बाद": 3322,
      "रक्ष": 3323,
      "वाद": 3324,
      "ाष्ट्र": 3325,
      "ागर": 3326,
      "ोर्": 3327,
      "షన్": 3328,
      "హ్": 3329,
      "ెలు": 3330,
      "▁:": 3331,
      "▁k": 3332,
      "▁all": 3333,
      "orther": 3334,
      "▁[सं": 3335,
      "▁[United": 3336,
      "inf": 3337,
      "theast": 3338,
      "](https://te.wikipedia.org/wiki/అ": 3339,
      "ash": 3340,
      "ased": 3341,
      "1950": 3342,
      "att": 3343,
      "▁spe": 3344,
      "▁capit": 3345,
      "agar": 3346,
      "▁Per": 3347,
      "wealth": 3348,
      "िक्ष": 3349,
      "రియా": 3350,
      "▁మార్": 3351,
      "▁[Stein": 3352,
      "▁Oxford": 3353,
      "ndaman": 3354,
      "ప్రపంచ": 3355,
      "_and_depend": 3356,
      "cyc": 3357,
      "_मेला": 3358,
      "नेमा": 3359,
      "▁సంస్కృతి": 3360,
      "దీవ": 3361,
      "धार_पर": 3362,
      "tent": 3363,
      "द्योग": 3364,
      "हाराष्ट्र": 3365,
      "lassical": 3366,
      "ughal": 3367,
      "▁2006](https://en.wikipedia.org/wiki/India#CITEREF": 3368,
      "_के_आधार_पर": 3369,
      "orthern": 3370,
      "_के_आधार_पर_भारत": 3371,
      "-23": 3372,
      "64": 3373,
      "vol": 3374,
      "ಗ್ರಾ": 3375,
      "ಣಾ": 3376,
      "ಪತಿ": 3377,
      "ಮ್": 3378,
      "ಮಾನ": 3379,
      "ಸಾ": 3380,
      "ೂರ್": 3381,
      "ೆಷಿ": 3382,
      "ೊಂಡ": 3383,
      "▁ದೇಶ": 3384,
      "▁ರಾಜ್ಯ": 3385,
      "▁[India": 3386,
      "ised": 3387,
      "▁India\").": 3388,
      "ಾರ್ವ": 3389,
      "ರ್ಕ": 3390,
      "▁ಸಿ": 3391,
      "ಗಳಲ್ಲಿ": 3392,
      "ನ್.": 3393,
      "▁ಹೋ": 3394,
      "ಕ್ಕೆ": 3395,
      "▁ನಗ": 3396,
      "ತ್ತು_": 3397,
      "▁ಅತಿ": 3398,
      "ruary": 3399,
      "ಸಂಸ್ಕ": 3400,
      "ಸಿಖ್": 3401,
      "▁ಆರ್ಥಿಕ": 3402,
      "ಸ್ಥಾನ": 3403,
      "ಗಣರಾಜ್ಯ": 3404,
      "▁ಹೆಸ": 3405,
      "_ಮತ್ತು_": 3406,
      "ಪ್ರದೇಶ": 3407,
      "▁೧೯": 3408,
      "ತ್ರಿಕ": 3409,
      "೨೦೧": 3410,
      "ೇಂದ್ರ": 3411,
      "ಸಿಂಧೂ": 3412,
      "▁ಹೆಚ್ಚು": 3413,
      "ೆಷಿನ್": 3414,
      "ಾರ್ವತ್ರಿಕ": 3415,
      "ಸಂಸ್ಕೃತ": 3416,
      "-21": 3417,
      "-26": 3418,
      ".india": 3419,
      "En": 3420,
      "Fisher": 3421,
      "UN": 3422,
      "bi": 3423,
      "dr": 3424,
      "eh": 3425,
      "ox": 3426,
      "oin": 3427,
      "por": 3428,
      "pib": 3429,
      "s.[[": 3430,
      "tary": 3431,
      "एशिया": 3432,
      "लि": 3433,
      "ल\")": 3434,
      "▁right": 3435,
      "ale": 3436,
      "](https://en.wikipedia.org/wiki/W": 3437,
      "ering": 3438,
      "arb": 3439,
      "▁स्व": 3440,
      "▁मंदिर": 3441,
      "्यव": 3442,
      "▁Budd": 3443,
      "▁BCE": 3444,
      "▁है,": 3445,
      "ources": 3446,
      "▁दक्षिण": 3447,
      "▁had": 3448,
      "ंगा": 3449,
      "ake": 3450,
      "▁[2](https://en.wikipedia.org/wiki/India#cite_ref-": 3451,
      "▁[1](https://en.wikipedia.org/wiki/India#cite_ref-": 3452,
      "ंग्रेज़ी": 3453,
      "▁2010](https://en.wikipedia.org/wiki/India#CITEREF": 3454,
      "ed.).": 3455,
      "▁पुरालेखित।.": 3456,
      "ritannica": 3457,
      "▁जुलाई": 3458,
      "_के_आधार_पर_भारत_के_राज्य": 3459,
      "Fisher2018": 3460,
      "5-0)": 3461,
      "81": 3462,
      "ive": 3463,
      "araj": 3464,
      "▁14": 3465,
      "▁Nations": 3466,
      "onstituent": 3467,
      "_pro": 3468,
      "/India": 3469,
      "1–": 3470,
      "1]](https://en.wikipedia.org/wiki/India#cite_note-FOOTNOTE": 3471,
      "4).": 3472,
      "63": 3473,
      "7C": 3474,
      "_వ": 3475,
      "back": 3476,
      "cent": 3477,
      "imp": 3478,
      "lang": 3479,
      "oth": 3480,
      "ीस": 3481,
      "००": 3482,
      "ం\"),": 3483,
      "ంత్రి": 3484,
      "ఆఫ్": 3485,
      "కత": 3486,
      "కై": 3487,
      "క్య": 3488,
      "దాయ": 3489,
      "రే": 3490,
      "లంక": 3491,
      "వీ": 3492,
      "శ్రీ": 3493,
      "షి": 3494,
      "సు": 3495,
      "▁ఏ": 3496,
      "▁up": 3497,
      "▁नाम": 3498,
      "order": 3499,
      "pect": 3500,
      "](https://doi.org/10.": 3501,
      "▁[సి": 3502,
      "▁\"United": 3503,
      "rick": 3504,
      "](https://te.wikipedia.org/wiki/చ": 3505,
      "le:": 3506,
      "eds.": 3507,
      "స్సా": 3508,
      "▁पूर्व": 3509,
      "▁పరి": 3510,
      "▁పార్టీ": 3511,
      "▁tradition": 3512,
      "▁two": 3513,
      "▁me": 3514,
      "న్‌": 3515,
      "change": 3516,
      "▁Talbot": 3517,
      "olk": 3518,
      "▁కు": 3519,
      "▁अप": 3520,
      "▁వచ్చ": 3521,
      "नाग": 3522,
      "abad": 3523,
      "ముద్ర": 3524,
      "▁विक": 3525,
      "▁It": 3526,
      "గాంధీ": 3527,
      "▁रूप": 3528,
      "నేపాల": 3529,
      "▁[↑](https://hi.wikipedia.org/wiki/भारत#cite_ref-FOOTNOTE": 3530,
      "▁పేరు": 3531,
      "హిందీ": 3532,
      "GDP_(": 3533,
      "times.com/": 3534,
      "▁देशों": 3535,
      "▁చెయ్య": 3536,
      "▁కూడా": 3537,
      "List_of_countries_by_GDP_(": 3538,
      "ంగీతం": 3539,
      "ligious": 3540,
      "▁became": 3541,
      "ముంబై": 3542,
      "శ్చిమ": 3543,
      "▁మార్గ": 3544,
      "▁చెయ్యబడ": 3545,
      "*,": 3546,
      "/5": 3547,
      "/S": 3548,
      "EO": 3549,
      "WEO": 3550,
      "onetary": 3551,
      "osed": 3552,
      "▁2021.\r\n": 3553,
      "lobal": 3554,
      "▁February": 3555,
      "glance": 3556,
      "-to": 3557,
      "0&": 3558,
      "IM": 3559,
      "Population": 3560,
      "_f": 3561,
      "_n": 3562,
      "_In": 3563,
      "a-": 3564,
      "a.": 3565,
      "ae": 3566,
      "adi": 3567,
      "f/": 3568,
      "has": 3569,
      "yan": 3570,
      "ंक": 3571,
      "धी": 3572,
      "ोन": 3573,
      "▁we": 3574,
      "▁ro": 3575,
      "▁\"Re": 3576,
      "ार्": 3577,
      "▁कि": 3578,
      "andard": 3579,
      "riod": 3580,
      "▁India.": 3581,
      "▁summit\")": 3582,
      "▁caste": 3583,
      "vel": 3584,
      "▁13": 3585,
      "▁Plate": 3586,
      "0000": 3587,
      "▁war": 3588,
      "▁Times": 3589,
      "▁*The": 3590,
      "▁house": 3591,
      "_in_S": 3592,
      "▁2025": 3593,
      "ंगाल": 3594,
      "▁general": 3595,
      "▁तट": 3596,
      "▁न्या": 3597,
      "1997": 3598,
      "▁Union": 3599,
      "▁एवं": 3600,
      "ffice": 3601,
      "▁\"Economy": 3602,
      "outh_Asian": 3603,
      "Wikipedia": 3604,
      "AsherTalbot2008": 3605,
      "ivil": 3606,
      "%E0%A4%": 3607,
      "-language\\_": 3608,
      "श्मीर": 3609,
      "ujarat": 3610,
      "्यवस्था": 3611,
      "7,": 3612,
      "83": 3613,
      "84": 3614,
      "population": 3615,
      "s\r\n": 3616,
      "ze": 3617,
      "208": 3618,
      "ficient": 3619,
      "▁2019.": 3620,
      "▁27": 3621,
      "▁29": 3622,
      "▁2008": 3623,
      "-B": 3624,
      ".b": 3625,
      "4–": 3626,
      "500": 3627,
      "8-0)": 3628,
      "99": 3629,
      "JP": 3630,
      "nam": 3631,
      "pl": 3632,
      "rof": 3633,
      "sar": 3634,
      "ton": 3635,
      "vid": 3636,
      "सद": 3637,
      "గర": 3638,
      "టక": 3639,
      "టా": 3640,
      "దార": 3641,
      "నీ": 3642,
      "రో": 3643,
      "సభ": 3644,
      "ెద్ద": 3645,
      "ಕ್ರ": 3646,
      "ತ್ಯ": 3647,
      "ಧಾನ": 3648,
      "ಬ್": 3649,
      "ಸು": 3650,
      "್ಥ": 3651,
      "೦೦": 3652,
      "▁ತ": 3653,
      "▁ರಾಷ್ಟ್ರ": 3654,
      "▁[न": 3655,
      "▁[doi": 3656,
      "▁\"द": 3657,
      "▁\"సి": 3658,
      "▁केंद्र": 3659,
      "](https://te.wikipedia.org/wiki/భారత_": 3660,
      "asia": 3661,
      "leg": 3662,
      "ata_": 3663,
      "\\_country": 3664,
      "](https://kn.wikipedia.org/wiki/ಚ": 3665,
      "▁St": 3666,
      "▁పు": 3667,
      "loy": 3668,
      "▁Pe": 3669,
      "cean": 3670,
      "chool": 3671,
      "217": 3672,
      "्तर": 3673,
      "రాజ్య": 3674,
      "▁కేంద్రపాలిత": 3675,
      "▁Di": 3676,
      "▁BRICS": 3677,
      "_(India)": 3678,
      "▁ಸ್ಥ": 3679,
      "▁మా": 3680,
      "▁group": 3681,
      "भाग": 3682,
      "▁చే": 3683,
      "ರಾಜ": 3684,
      "ము\")": 3685,
      "akh": 3686,
      "aksh": 3687,
      "త్స": 3688,
      "▁రాజ్య": 3689,
      "▁ವರ್": 3690,
      "▁[978-0-": 3691,
      "ಂತ್ರಿ": 3692,
      "▁ಅನೇ": 3693,
      "వాతంత్ర": 3694,
      "संख्या": 3695,
      "ದೆ.\r\n": 3696,
      "▁దేశాల": 3697,
      "▁\"Doi": 3698,
      "లాదేశ్": 3699,
      "obox": 3700,
      "](https://en.wikipedia.org/wiki/Doi": 3701,
      "స్తు": 3702,
      "▁अनुसार": 3703,
      "▁సామ్రాజ్యం](https://te.wikipedia.org/wiki/": 3704,
      "\"](https://web.archive.org/web/20160": 3705,
      "ంగ్లాదేశ్": 3706,
      "▁భాషలు": 3707,
      "▁प्रदेश\")": 3708,
      "List_of_countries_and_depend": 3709,
      "▁ಸಾಮ್ರಾಜ್ಯ": 3710,
      "ారు.": 3711,
      "encies_by_": 3712,
      "▁स्थ": 3713,
      "▁ಜನಸಂಖ್ಯೆಯ": 3714,
      "ಟ್ಟು": 3715,
      "_ప్రా": 3716,
      "▁[↑](https://kn.wikipedia.org/wiki/ಭಾರತ#cite_ref-": 3717,
      "articleshow": 3718,
      "్రిటి": 3719,
      "▁అధికార": 3720,
      ".png)": 3721,
      "▁ಸ್ವಾ": 3722,
      "ూర్పు": 3723,
      "▁dependencies": 3724,
      "▁estimate": 3725,
      "▁(identifier)\"):[10.": 3726,
      "infobox": 3727,
      "కైవు": 3728,
      "▁[doi](https://en.wikipedia.org/wiki/Doi": 3729,
      "▁ಅನೇಕ": 3730,
      "List_of_countries_and_dependencies_by_": 3731,
      "▁[doi](https://en.wikipedia.org/wiki/Doi_(identifier)": 3732,
      "71": 3733,
      "ele": 3734,
      "▁\"U": 3735,
      "2017": 3736,
      "▁Data": 3737,
      "▁Economic": 3738,
      "▁2003": 3739,
      "▁original](https://": 3740,
      "▁*[The": 3741,
      "efficient": 3742,
      "▁2021.": 3743,
      "ymbols": 3744,
      "-28": 3745,
      "2).": 3746,
      "73": 3747,
      "Con": 3748,
      "C).": 3749,
      "Craven": 3750,
      "IA": 3751,
      "TR": 3752,
      "ao": 3753,
      "az": 3754,
      "cms": 3755,
      "gan": 3756,
      "if": 3757,
      "oy": 3758,
      "oast": 3759,
      "ras": 3760,
      "ration": 3761,
      "slam": 3762,
      "va": 3763,
      "war": 3764,
      "way": 3765,
      "yayan": 3766,
      "एँ": 3767,
      "एस": 3768,
      "खा": 3769,
      "गो": 3770,
      "चे": 3771,
      "सी": 3772,
      "ैक": 3773,
      "ोड़": 3774,
      "▁j": 3775,
      "▁ref": 3776,
      "▁[हिन्द": 3777,
      "tecture": 3778,
      "than": 3779,
      "alley": 3780,
      "](https://en.wikipedia.org/wiki/I": 3781,
      "](https://en.wikipedia.org/wiki/The": 3782,
      "tionary": 3783,
      "ार्ट": 3784,
      "astern": 3785,
      "2016": 3786,
      "achin": 3787,
      "▁sup": 3788,
      "▁मूल": 3789,
      "-15": 3790,
      "▁Sanskrit": 3791,
      "ISO": 3792,
      "ung": 3793,
      "विधान": 3794,
      "▁जो": 3795,
      "▁बहु": 3796,
      "-40": 3797,
      "▁one": 3798,
      "▁सेना": 3799,
      "▁than": 3800,
      "imalay": 3801,
      "▁art": 3802,
      "_Centre": 3803,
      "▁War": 3804,
      "ड़ी": 3805,
      "म्बर": 3806,
      "▁Press](https://en.wikipedia.org/wiki/": 3807,
      ".jpg)](https://hi.wikipedia.org/wiki/चित्र:": 3808,
      "▁भू": 3809,
      "ultan": 3810,
      "-0-19-9": 3811,
      "▁modern": 3812,
      "visions": 3813,
      "धिकार": 3814,
      "trol": 3815,
      "ainting": 3816,
      "atsyayan": 3817,
      "spu": 3818,
      "garh": 3819,
      "Hinduism": 3820,
      "PPP)": 3821,
      "_Island": 3822,
      "्यटन": 3823,
      "ublishing": 3824,
      "Craven1997": 3825,
      "त्य": 3826,
      "er,": 3827,
      "▁Bank": 3828,
      "▁Assembly": 3829,
      "-world": 3830,
      "2]](https://en.wikipedia.org/wiki/India#cite_note-FOOTNOTE": 3831,
      "5–": 3832,
      "6-0)": 3833,
      "8+": 3834,
      "Asia": 3835,
      "BC": 3836,
      "IB": 3837,
      "II": 3838,
      "Main": 3839,
      "_V": 3840,
      "_en": 3841,
      "ahar": 3842,
      "be": 3843,
      "can": 3844,
      "day": 3845,
      "iz": 3846,
      "minist": 3847,
      "vatsyayan": 3848,
      "y,": 3849,
      "तिक": 3850,
      "दू": 3851,
      "भू": 3852,
      "श्री": 3853,
      "ीत": 3854,
      "ील": 3855,
      "ంజా": 3856,
      "గి": 3857,
      "టీ": 3858,
      "టాన్": 3859,
      "మంత్రి": 3860,
      "లను": 3861,
      "వె": 3862,
      "వరణ": 3863,
      "హదార": 3864,
      "ూచ": 3865,
      "▁%": 3866,
      "▁హ": 3867,
      "▁am": 3868,
      "▁భారతదేశ": 3869,
      "▁emp": 3870,
      "▁[m": 3871,
      "teen": 3872,
      "\");": 3873,
      "Informatics": 3874,
      "tig": 3875,
      "errit": 3876,
      "arge": 3877,
      "religion": 3878,
      "omas": 3879,
      "▁(eds.": 3880,
      "్రమ": 3881,
      "asing": 3882,
      "2015": 3883,
      "site": 3884,
      "ammu": 3885,
      "▁states": 3886,
      "▁such": 3887,
      "▁classical": 3888,
      "▁Al": 3889,
      "ussia": 3890,
      "inguis": 3891,
      "urch": 3892,
      "▁Poli": 3893,
      "▁million": 3894,
      "భారతదేశ_": 3895,
      "ilg": 3896,
      "▁కొ": 3897,
      "▁వ్యా": 3898,
      "▁later": 3899,
      "नाथ": 3900,
      "cond": 3901,
      "_क्षेत्र": 3902,
      "▁మత": 3903,
      "▁మతము": 3904,
      "duction": 3905,
      "తావరణ": 3906,
      "▁Fund": 3907,
      "▁there": 3908,
      "నాడు": 3909,
      "▁northern": 3910,
      "1990": 3911,
      "a](https://en.wikipedia.org/wiki/C": 3912,
      "▁ఉంది.": 3913,
      "▁[*The": 3914,
      "▁एशिया": 3915,
      "▁\"Special:BookSources/978-0-": 3916,
      "](Special:BookSources/978-0-": 3917,
      "▁ఇతర": 3918,
      "ాయి": 3919,
      "▁cont": 3920,
      "_BRICS": 3921,
      "india-glance": 3922,
      "ణాసియా": 3923,
      "athak": 3924,
      "▁under": 3925,
      "▁अन्य": 3926,
      "▁period": 3927,
      "usines": 3928,
      "-lord": 3929,
      "-largest": 3930,
      "టెడ్": 3931,
      "▁ఆర్కైవు": 3932,
      "inistry_of_": 3933,
      "ovember": 3934,
      "▁రైలు": 3935,
      "భూటాన్": 3936,
      "_సామ్రాజ్యం": 3937,
      "ommonwealth": 3938,
      "गुजरात": 3939,
      ".indiatimes.com/": 3940,
      "ehru": 3941,
      "langoff": 3942,
      "IMF": 3943,
      "వాతంత్ర్య": 3944,
      "vatsyayan-lord": 3945,
      "_12": 3946,
      "evan": 3947,
      "s=": 3948,
      "▁6.": 3949,
      "▁high": 3950,
      "ensi": 3951,
      "▁State": 3952,
      "▁total": 3953,
      "▁2004": 3954,
      "▁[\"National": 3955,
      "rief": 3956,
      ",NGDP": 3957,
      "6/": 3958,
      "7-0)": 3959,
      "_for": 3960,
      "ealth": 3961,
      "fl": 3962,
      "lations": 3963,
      "wal": 3964,
      "अन": 3965,
      "जय": 3966,
      "टक": 3967,
      "पी": 3968,
      "पति": 3969,
      "मह": 3970,
      "रो": 3971,
      "ेस": 3972,
      "▁ड": 3973,
      "▁फ": 3974,
      "▁ra": 3975,
      "▁[द": 3976,
      "▁[19": 3977,
      "tex": 3978,
      "alore": 3979,
      "ern": 3980,
      "arly": 3981,
      "2022": 3982,
      "reat": 3983,
      "iss": 3984,
      "ould": 3985,
      "2012": 3986,
      "atak": 3987,
      "etail": 3988,
      "▁south": 3989,
      "-07": 3990,
      "▁Con": 3991,
      "-14": 3992,
      "uslim": 3993,
      "▁found": 3994,
      "angalore": 3995,
      "▁11": 3996,
      "▁mathe": 3997,
      "_of_S": 3998,
      "▁2013": 3999,
      "chedu": 4000,
      "24)": 4001,
      "26)": 4002,
      "िया\")": 4003,
      "-3)": 4004,
      "▁[*India": 4005,
      "owland": 4006,
      "▁गण": 4007,
      "म्म": 4008,
      "ankar": 4009,
      "ी_भाषा": 4010,
      "▁union": 4011,
      "do-A": 4012,
      "वंश": 4013,
      "▁जाता": 4014,
      "▁वर्ष": 4015,
      "ynas": 4016,
      "ैदान": 4017,
      "limate": 4018,
      "rowth": 4019,
      "▁2018](https://en.wikipedia.org/wiki/India#CITEREF": 4020,
      "वेब": 4021,
      "Articles": 4022,
      "तंत्रता": 4023,
      "Harle1994": 4024,
      "▁साम्राज्य": 4025,
      "द्योगिक": 4026,
      "erritory": 4027,
      "inguistic": 4028,
      "usiness/": 4029,
      "127": 4030,
      "2nd": 4031,
      "7%": 4032,
      "_ಭಾಷೆ": 4033,
      "ಂಶ": 4034,
      "ಏಷ್ಯಾ": 4035,
      "ಧಿಕ": 4036,
      "ನಿ": 4037,
      "ಯನ್": 4038,
      "ಲ್ತ": 4039,
      "ಲೋಕ": 4040,
      "ಾಲ್": 4041,
      "ಿಣ": 4042,
      "▁ಭ": 4043,
      "reme": 4044,
      "](https://kn.wikipedia.org/wiki/G": 4045,
      "[[೧": 4046,
      "▁2.": 4047,
      "▁ಸು": 4048,
      "▁ಮಾ": 4049,
      "ಂದರೆ": 4050,
      "▁ಪಶ್ಚಿಮ": 4051,
      "▁ಪೂರ್": 4052,
      "▁ವ್ಯವ": 4053,
      "▁ನಂತರ": 4054,
      "hai": 4055,
      "್ವೀಪ": 4056,
      "▁ಸಂಪ": 4057,
      "ದ್ದು": 4058,
      "ಕ್ಷಿಣ": 4059,
      "ಹಿಂದಿ": 4060,
      "▁ರೂ": 4061,
      "▁ರಲ್ಲಿ": 4062,
      "▁ಚುನಾವಣೆ": 4063,
      "ಾಲಯ": 4064,
      "▁ಶತ": 4065,
      "▁ಒಟ್ಟು": 4066,
      "ಳುವ": 4067,
      "▁ಬೆಳ": 4068,
      "▁ಸ್ವಾತಂತ್ರ್ಯ": 4069,
      "ಧಿಕೃತ": 4070,
      "▁ಪೂರ್ವ": 4071,
      "-on-": 4072,
      "/auth": 4073,
      "129": 4074,
      "2–": 4075,
      "6).": 4076,
      "9-0)": 4077,
      "Dikshit": 4078,
      "Empire": 4079,
      "European": 4080,
      "LA": 4081,
      "Qu": 4082,
      "Schwartzberg": 4083,
      "_g": 4084,
      "_11": 4085,
      "aus": 4086,
      "cted": 4087,
      "dones": 4088,
      "here": 4089,
      "lor": 4090,
      "mil": 4091,
      "rm": 4092,
      "पे": 4093,
      "मंत्र": 4094,
      "रवरी": 4095,
      "ल्": 4096,
      "िज़": 4097,
      "ेट": 4098,
      "ంశ": 4099,
      "ఆర్": 4100,
      "ఉత్తర": 4101,
      "ఒడి": 4102,
      "కీయ": 4103,
      "గలు": 4104,
      "చు": 4105,
      "జరా": 4106,
      "తూర్పు": 4107,
      "భు": 4108,
      "మన్": 4109,
      "యి": 4110,
      "లస": 4111,
      "ీన": 4112,
      "ేక": 4113,
      "▁డ": 4114,
      "▁జాబితా": 4115,
      "▁[इ": 4116,
      "▁[భారతదేశ": 4117,
      "▁[पु": 4118,
      "▁\"V": 4119,
      "▁\"इ": 4120,
      "▁\"हिन्द": 4121,
      "inance": 4122,
      "arna": 4123,
      "arliament": 4124,
      "esearch": 4125,
      "read": 4126,
      "ise": 4127,
      "educ": 4128,
      "▁industry": 4129,
      "▁inclu": 4130,
      "\\_par": 4131,
      "▁comm": 4132,
      "▁मु": 4133,
      "▁Ac": 4134,
      "ingdom": 4135,
      "▁పట్ట": 4136,
      "ics": 4137,
      "ర్\")": 4138,
      "▁Pakistan": 4139,
      "▁many": 4140,
      "rown": 4141,
      "rative": 4142,
      "▁**జాతీయ": 4143,
      "resent": 4144,
      "ments": 4145,
      "▁British": 4146,
      "23)": 4147,
      "నిక": 4148,
      "▁long": 4149,
      "▁large": 4150,
      "विज्ञान": 4151,
      "ाला": 4152,
      "▁economic": 4153,
      "ంగ్రె": 4154,
      "▁సభ": 4155,
      "తాబ్": 4156,
      "▁[\"India": 4157,
      "ast_Asia": 4158,
      "▁ప్రపంచ": 4159,
      "▁ప్రభు": 4160,
      "utra": 4161,
      "▁K.": 4162,
      "▁ఆసియా": 4163,
      "]](https://hi.wikipedia.org/wiki/भारत#cite_note-1": 4164,
      "ड़े": 4165,
      "▁उत्तर": 4166,
      "మ్రాజ్య": 4167,
      "Hindust": 4168,
      "ameters": 4169,
      "conomy_of_": 4170,
      "గుజరా": 4171,
      "▁సామ్రాజ్యం\")": 4172,
      "ikh": 4173,
      "...": 4174,
      "▁people": 4175,
      "MetcalfMetcalf2006),": 4176,
      "द्यान": 4177,
      "త్యేక": 4178,
      "రాష్ట్రపతి": 4179,
      "ప్ప": 4180,
      "▁కాశ్మీ": 4181,
      "▁రాజవంశం": 4182,
      "र्थिक": 4183,
      "▁చెంద": 4184,
      "▁ఆర్ధిక": 4185,
      "▁समय": 4186,
      "%20%20%20%20": 4187,
      "▁స్థాన": 4188,
      "ervation": 4189,
      "▁Environment": 4190,
      "తమిళనాడు": 4191,
      "ప్రధానమంత్రి": 4192,
      "గణతంత్ర": 4193,
      "▁rule": 4194,
      "▁క్రీడ": 4195,
      "यालय": 4196,
      "▁ఉన్నాయి.": 4197,
      "▁[↑](https://hi.wikipedia.org/wiki/भारत#cite_ref-1": 4198,
      "document": 4199,
      ".aspx": 4200,
      "ఆఫ్ఘ": 4201,
      "శ్రీలంక": 4202,
      "షియా": 4203,
      "న్‌ఫ": 4204,
      "నేపాల్": 4205,
      "▁among": 4206,
      "Informatics_Centre": 4207,
      "▁(eds.).": 4208,
      "DikshitSchwartzberg": 4209,
      "education": 4210,
      "\\_parameters": 4211,
      "తాబ్ద": 4212,
      "DikshitSchwartzberg2023": 4213,
      "\\_parameters#": 4214,
      "119": 4215,
      "94": 4216,
      "Human": 4217,
      "_dom": 4218,
      "bank": 4219,
      "▁50": 4220,
      "oot": 4221,
      "▁power": 4222,
      "_Development": 4223,
      "engali": 4224,
      "\"](https://books.google.com/books?id=": 4225,
      ",6": 4226,
      "-e": 4227,
      "-india": 4228,
      "-25": 4229,
      ".htm": 4230,
      "32": 4231,
      "3]](https://en.wikipedia.org/wiki/India#cite_note-FOOTNOTE": 4232,
      "8–": 4233,
      "Ludden": 4234,
      "Pro": 4235,
      "South": 4236,
      "Spear": 4237,
      "af": 4238,
      "ced": 4239,
      "cul": 4240,
      "gni": 4241,
      "iri": 4242,
      "iter": 4243,
      "kar": 4244,
      "ls": 4245,
      "languages": 4246,
      "ning": 4247,
      "osi": 4248,
      "west": 4249,
      "डी": 4250,
      "डु": 4251,
      "णि": 4252,
      "धु": 4253,
      "लोक": 4254,
      "▁छ": 4255,
      "▁em": 4256,
      "▁out": 4257,
      "pee": 4258,
      "▁\"न": 4259,
      "▁\"India": 4260,
      "▁\"सं": 4261,
      "ality": 4262,
      "arri": 4263,
      "2021": 4264,
      "issi": 4265,
      "▁(1,": 4266,
      "ed/": 4267,
      "atus": 4268,
      "▁sh": 4269,
      "▁some": 4270,
      "▁CE": 4271,
      "▁मा": 4272,
      "▁Arab": 4273,
      "▁Afric": 4274,
      "▁Portal": 4275,
      "chin": 4276,
      "state": 4277,
      "▁Min": 4278,
      "▁Modern": 4279,
      "▁land": 4280,
      "नाव": 4281,
      "al_in": 4282,
      "▁द्वार": 4283,
      "_Summit": 4284,
      "▁[\"A": 4285,
      "▁[\"C": 4286,
      "▁artic": 4287,
      "avi": 4288,
      "माज": 4289,
      "hindi": 4290,
      "ffer": 4291,
      "ी](https://hi.wikipedia.org/wiki/अ": 4292,
      "%2C_": 4293,
      "ineering": 4294,
      "arket": 4295,
      "india.gov.in/india-glance": 4296,
      "सेना": 4297,
      "▁चु": 4298,
      "▁हुई": 4299,
      "शासित": 4300,
      "त्पाद": 4301,
      "_in_South_Asia": 4302,
      "ynasty": 4303,
      "ast_Asia_Summit": 4304,
      "54": 4305,
      ":**": 4306,
      "B0%": 4307,
      "ym": 4308,
      "India.pdf)": 4309,
      "rect": 4310,
      "umeration": 4311,
      "states": 4312,
      "otal": 4313,
      "-pro": 4314,
      "jection": 4315,
      "cript": 4316,
      "%)": 4317,
      "-78": 4318,
      ".IN": 4319,
      ".fr": 4320,
      "/g": 4321,
      "/articleshow": 4322,
      "58": 4323,
      "6–": 4324,
      "6]](https://en.wikipedia.org/wiki/India#cite_note-": 4325,
      "9,": 4326,
      "_J": 4327,
      "_ब": 4328,
      "_ప్రదేశ్": 4329,
      "cor": 4330,
      "d/": 4331,
      "e/": 4332,
      "eld": 4333,
      "fgh": 4334,
      "ii": 4335,
      "k:": 4336,
      "m.nic.in/": 4337,
      "nal": 4338,
      "ncl": 4339,
      "oa": 4340,
      "ose": 4341,
      "press": 4342,
      "rdu": 4343,
      "ईसा": 4344,
      "कल": 4345,
      "खाना": 4346,
      "तु": 4347,
      "नगर": 4348,
      "ोम": 4349,
      "।\r\n": 4350,
      "ం,": 4351,
      "ఉప": 4352,
      "కొ": 4353,
      "కేంద్రపాలిత": 4354,
      "జె": 4355,
      "ఢ్": 4356,
      "ది.": 4357,
      "నాల": 4358,
      "లే": 4359,
      "ళు": 4360,
      "ౌద్ధ": 4361,
      "▁ऊ": 4362,
      "▁he": 4363,
      "▁భా": 4364,
      "▁imp": 4365,
      "dian": 4366,
      "▁[V": 4367,
      "▁[వి": 4368,
      "enni": 4369,
      "▁\"Oxford": 4370,
      "tis": 4371,
      "tici": 4372,
      "tition": 4373,
      "cia": 4374,
      "omin": 4375,
      "](https://hi.wikipedia.org/wiki/इ": 4376,
      "▁(*": 4377,
      "rid": 4378,
      "▁सु": 4379,
      "ett": 4380,
      "▁social": 4381,
      "-00": 4382,
      "ాలీ": 4383,
      "-111": 4384,
      "inger": 4385,
      "urton": 4386,
      "ర్చ": 4387,
      "▁mi": 4388,
      "▁maj": 4389,
      "▁minister": 4390,
      "003": 4391,
      "र्दू": 4392,
      "rain": 4393,
      "▁अग": 4394,
      "ాలు?action=edit&redlink=1": 4395,
      "109": 4396,
      "26.": 4397,
      "▁दिया": 4398,
      "pecial:EditPage/": 4399,
      "▁her": 4400,
      "▁Nadu": 4401,
      "118": 4402,
      "▁बढ़": 4403,
      "-317": 4404,
      "_Sh": 4405,
      "apan": 4406,
      "ainism": 4407,
      "overe": 4408,
      "–సా.శ.18": 4409,
      "▁అత్య": 4410,
      "▁[Asher": 4411,
      "▁Language": 4412,
      "s](https://en.wikipedia.org/wiki/M": 4413,
      "▁Kashmir": 4414,
      "▁ఆధ": 4415,
      "logo": 4416,
      "మాఖ్య": 4417,
      "వాణా": 4418,
      "ంటి": 4419,
      "▁దేశం": 4420,
      "राष्ट्रपति": 4421,
      "_New": 4422,
      "▁\"National": 4423,
      "డ్డ": 4424,
      "▁జనాభా": 4425,
      "हिन्दी": 4426,
      "దక్షిణాసియా": 4427,
      "्रां": 4428,
      "▁గల": 4429,
      "▁Registrar": 4430,
      "▁భారతదేశంలో": 4431,
      "ంగ్లీ": 4432,
      "meric": 4433,
      "యునై": 4434,
      "ష్ణ": 4435,
      "ront": 4436,
      "ility": 4437,
      "_చరిత్ర?action=edit&redlink=1": 4438,
      "▁हुआ": 4439,
      "dependence": 4440,
      "हासागर": 4441,
      "▁Programme": 4442,
      "फ़रवरी": 4443,
      "▁territory": 4444,
      "▁రాష్ట్రాలు,": 4445,
      "_మతము": 4446,
      "ष्ण": 4447,
      "▁మొద": 4448,
      "ंबई": 4449,
      "arnatak": 4450,
      "CS1\\_": 4451,
      "▁लिए": 4452,
      "union_territ": 4453,
      "▁विकास": 4454,
      "▁చెయ్యబడింది.": 4455,
      "WEO.IN": 4456,
      "IMFWEO.IN": 4457,
      "Spear1990": 4458,
      "fghan": 4459,
      "nclm.nic.in/": 4460,
      "pecial:EditPage/Template:": 4461,
      "యునైటెడ్": 4462,
      ".world": 4463,
      "ving": 4464,
      "dia/": 4465,
      "\")[[": 4466,
      "2020": 4467,
      "▁(nominal)": 4468,
      "ists": 4469,
      "▁Republic": 4470,
      "▁economy": 4471,
      "avy": 4472,
      "▁area": 4473,
      "india.gov.in/kno": 4474,
      "code": 4475,
      "▁left": 4476,
      "windia/": 4477,
      "hanghai": 4478,
      "8+5": 4479,
      "india.gov.in/knowindia/": 4480,
      ",5": 4481,
      "-an": 4482,
      "219": 4483,
      "3/": 4484,
      "545": 4485,
      "6]](https://en.wikipedia.org/wiki/India#cite_note-FOOTNOTE": 4486,
      "7/": 4487,
      "Taj": 4488,
      "UCN": 4489,
      "_ಚ": 4490,
      "_ಧರ್ಮ": 4491,
      "_ಪ್ರದೇಶ": 4492,
      "business/": 4493,
      "election": 4494,
      "owe": 4495,
      "ser": 4496,
      "क्स": 4497,
      "न](https://hi.wikipedia.org/wiki/": 4498,
      "योग": 4499,
      "वै": 4500,
      "स्ट": 4501,
      "ूर्": 4502,
      "ृति": 4503,
      "ಂ](https://kn.wikipedia.org/wiki/": 4504,
      "ಂಗಳ": 4505,
      "ಅಸ್": 4506,
      "ಉತ್ತ": 4507,
      "ಕಡ": 4508,
      "ಗಢ": 4509,
      "ಚಲ": 4510,
      "ಜರಾ": 4511,
      "ಟ್": 4512,
      "ಡು": 4513,
      "ತ್": 4514,
      "ತಮಿ": 4515,
      "ದ್ರಾ": 4516,
      "ಮಾ": 4517,
      "ಮನ್": 4518,
      "ರತ": 4519,
      "ರೀ": 4520,
      "ರ್ಯ": 4521,
      "ಲಸ": 4522,
      "ವರ": 4523,
      "ವ್": 4524,
      "ಶ್ವ": 4525,
      "ಶ್ಮ": 4526,
      "ಹಿ": 4527,
      "ಹಿಮ": 4528,
      "ಿಹ": 4529,
      "ೈಸ್ತ": 4530,
      "ೋಕ್": 4531,
      "೦೯": 4532,
      "▁ಗ": 4533,
      "▁ci": 4534,
      "▁oc": 4535,
      "▁history": 4536,
      "▁term": 4537,
      "orest": 4538,
      "▁[आ": 4539,
      "▁[ज": 4540,
      "▁[ಕ": 4541,
      "▁[ಭಾರತ": 4542,
      "▁[Oxford": 4543,
      "▁\"[": 4544,
      "▁\"आ": 4545,
      "▁\"ಕ": 4546,
      "](https://en.wikipedia.org/wiki/V": 4547,
      "ारी": 4548,
      "ार्च": 4549,
      "▁(2018": 4550,
      "▁they": 4551,
      "lem": 4552,
      "1970": 4553,
      "▁incre": 4554,
      "sive": 4555,
      "acy": 4556,
      "ety": 4557,
      "▁since": 4558,
      "\\_articles": 4559,
      "▁Cooperation": 4560,
      "](https://kn.wikipedia.org/wiki/ಕ": 4561,
      "▁SAARC": 4562,
      "ಾರು": 4563,
      "vement": 4564,
      "▁both": 4565,
      "ictionary": 4566,
      "▁medi": 4567,
      "verse": 4568,
      "ulti": 4569,
      "▁R.": 4570,
      "▁Raj": 4571,
      "िक्": 4572,
      "def": 4573,
      "ಲಿಗ್ರಾ": 4574,
      "▁largest": 4575,
      "ayback": 4576,
      "▁ಸಾರ್ವತ್ರಿಕ": 4577,
      "▁जून": 4578,
      "▁ಮನ": 4579,
      "▁ಮೊ": 4580,
      "▁ಮಿಲಿ": 4581,
      "▁ಮೆಷಿನ್": 4582,
      "24.": 4583,
      "▁दे": 4584,
      "▁दिस": 4585,
      "▁Gandhi": 4586,
      "राजस्थान": 4587,
      "ಂದು": 4588,
      "28.": 4589,
      "ryan": 4590,
      "ಲ್ಲ": 4591,
      "▁...": 4592,
      "▁ವಲಸ": 4593,
      "-90": 4594,
      "▁[978-0": 4595,
      "ರಿವ": 4596,
      "ರಿಯಾ": 4597,
      "▁ಅಧಿಕೃತ": 4598,
      "▁ಬಿ": 4599,
      "▁ಬ್ರಿ": 4600,
      "▁\"Special:BookSources/978-0": 4601,
      "](Special:BookSources/978-0": 4602,
      "olitic": 4603,
      "नेपाल": 4604,
      "](https://kn.wikipedia.org/wiki/ಭಾರತ#cite_ref-": 4605,
      "त्तरा": 4606,
      "-108": 4607,
      "artment": 4608,
      "▁ಪ್ರಪಂ": 4609,
      "जाति": 4610,
      "▁rate": 4611,
      "ಿತ್ರ": 4612,
      "-0-19-5": 4613,
      "ಿಯಲ್ಲಿ": 4614,
      "ನೇಪಾ": 4615,
      "▁ಇತಿಹಾಸ": 4616,
      "▁क्षेत्र\")": 4617,
      "▁ಸಂಸ್ಥೆ": 4618,
      "धानमंत्र": 4619,
      ".nic.in/)\r\n": 4620,
      "reek": 4621,
      "ರಾಜ್ಯಸಭೆ": 4622,
      "ಮುಂಬ": 4623,
      "riculture": 4624,
      "ohn": 4625,
      "]](https://kn.wikipedia.org/wiki/ಭಾರತ#cite_note-1": 4626,
      "ಗಣತಿ": 4627,
      "्रीका": 4628,
      "ಣಿಪು": 4629,
      "ography": 4630,
      ".svg/": 4631,
      "▁ಧರ್ಮ\")": 4632,
      "▁\"History": 4633,
      "-0-521-80": 4634,
      "೨೦೦೯": 4635,
      "▁ಭಾಷೆಗಳು": 4636,
      "oordin": 4637,
      "▁[↑](https://kn.wikipedia.org/wiki/ಭಾರತ#cite_ref-1": 4638,
      "ಯುಕ್ತ": 4639,
      "▁ಮುಖ್ಯ": 4640,
      "ject": 4641,
      "▁play": 4642,
      "गणना": 4643,
      "ತೆಲ": 4644,
      "▁ಲಕ್ಷ": 4645,
      "▁used": 4646,
      "](https://en.wikipedia.org/wiki/History": 4647,
      "▁खाना\")": 4648,
      "ಗುಜರಾ": 4649,
      "▁निर्": 4650,
      "▁world's": 4651,
      "ಟೆಲಿಗ್ರಾ": 4652,
      "ಪಂಜಾ": 4653,
      "ಭೂಮಿ": 4654,
      "KulkeRothermund2004": 4655,
      "National_Informatics_Centre": 4656,
      "rishn": 4657,
      "-0-19-88": 4658,
      "माणु": 4659,
      "904-7": 4660,
      "▁2006](https://en.wikipedia.org/wiki/India#CITEREFMetcalfMetcalf2006),": 4661,
      "▁ಸಿರಿವ": 4662,
      "▁ನಗರ": 4663,
      "▁ಹೆಸರು": 4664,
      "೨೦೧೪": 4665,
      "ricket": 4666,
      "ಕ್ರೈಸ್ತ": 4667,
      "▁ಸ್ಥಾನ": 4668,
      "teenth": 4669,
      "म्मू": 4670,
      "ಲೋಕಸಭೆ": 4671,
      "▁article:": 4672,
      "fghanistan": 4673,
      "ಂಗಳೂ": 4674,
      "ಅಸ್ಸಾ": 4675,
      "ಶ್ಮೀ": 4676,
      "▁occ": 4677,
      "▁दिसम्बर": 4678,
      "▁ವಲಸೆ": 4679,
      "▁ಪ್ರಪಂಚ": 4680,
      "-0-521-80904-7": 4681,
      "National_Informatics_Centre2005": 4682,
      "\"[[": 4683,
      "\"](http://": 4684,
      ".html)": 4685,
      "/files/": 4686,
      "New": 4687,
      "_15": 4688,
      "rd": 4689,
      "▁[4": 4690,
      "ency": 4691,
      "▁sp": 4692,
      "unknown": 4693,
      "117": 4694,
      ".gov.in": 4695,
      "](https://web.archive.org/web/200": 4696,
      "ternational_": 4697,
      "ummer": 4698,
      "ublication": 4699,
      "▁2019.\r\n": 4700,
      "Pages\\_using\\_infobox": 4701,
      "\\_country\\_with\\_": 4702,
      "List_of_countries_and_dependencies_by_population": 4703,
      "-di": 4704,
      "110": 4705,
      "6%": 4706,
      "98": 4707,
      "9).": 4708,
      ":EditPage/": 4709,
      "Library": 4710,
      "Report": 4711,
      "Robb": 4712,
      "Sharma": 4713,
      "_प": 4714,
      "_న": 4715,
      "_13": 4716,
      "detail": 4717,
      "ia](https://en.wikipedia.org/wiki/": 4718,
      "ihar": 4719,
      "ia\")": 4720,
      "lack": 4721,
      "ock": 4722,
      "pa": 4723,
      "sur": 4724,
      "stitu": 4725,
      "udi": 4726,
      "zation": 4727,
      "टी": 4728,
      "द्वीप": 4729,
      "वी": 4730,
      "हीं": 4731,
      "िन्": 4732,
      "ैल": 4733,
      "ैंड": 4734,
      "ఖండ": 4735,
      "గం": 4736,
      "టిక": 4737,
      "డే": 4738,
      "ద్య": 4739,
      "మార్": 4740,
      "మాలయ": 4741,
      "లలో": 4742,
      "లకు": 4743,
      "ళ్": 4744,
      "వ](https://te.wikipedia.org/wiki/": 4745,
      "ానికి": 4746,
      "ాళు": 4747,
      "ీర్": 4748,
      "▁భ": 4749,
      "▁36": 4750,
      "▁యు": 4751,
      "▁फ़रवरी": 4752,
      "](Category:": 4753,
      "▁[s": 4754,
      "▁\"వి": 4755,
      "ancy": 4756,
      "oni": 4757,
      "ar,": 4758,
      "ara": 4759,
      "es,": 4760,
      "](https://hi.wikipedia.org/wiki/सं": 4761,
      "▁(India": 4762,
      "lect": 4763,
      "▁India*](https://books.google.com/books?id=": 4764,
      "lia": 4765,
      "atab": 4766,
      "ాలో": 4767,
      "\\_(": 4768,
      "▁Cons": 4769,
      "▁Col": 4770,
      "▁मार्च": 4771,
      "्यता": 4772,
      "▁Summit\")": 4773,
      "స్వ": 4774,
      "స్లా": 4775,
      "▁पह": 4776,
      "▁पार्ट": 4777,
      "▁పాల": 4778,
      "▁trans": 4779,
      "▁Pl": 4780,
      "▁member": 4781,
      "న్\")": 4782,
      "vert": 4783,
      "road": 4784,
      "र्स": 4785,
      "र्जा": 4786,
      "](https://hi.wikipedia.org/wiki/भारतीय": 4787,
      "=1&": 4788,
      "ilk": 4789,
      "▁23": 4790,
      "▁కార": 4791,
      "▁కలి": 4792,
      "▁Delhi": 4793,
      "▁Bengal": 4794,
      "రిహ": 4795,
      "రికత": 4796,
      "type": 4797,
      "క్నాల": 4798,
      "emoc": 4799,
      "emale": 4800,
      "ంది.\r\n": 4801,
      "నిమా": 4802,
      "igh": 4803,
      "243": 4804,
      "▁సంగీతం": 4805,
      "त्रि": 4806,
      "▁2026": 4807,
      "▁बना": 4808,
      "-30": 4809,
      "▁చి": 4810,
      "▁rep": 4811,
      "▁north": 4812,
      "ులు\"),": 4813,
      "–సా.శ.13": 4814,
      "▁అయ": 4815,
      "epal": 4816,
      "▁\"Category:": 4817,
      "▁वा": 4818,
      "▁ప్రధాన": 4819,
      "a](https://en.wikipedia.org/wiki/K": 4820,
      "aving": 4821,
      "▁began": 4822,
      "s](https://en.wikipedia.org/wiki/List_of_": 4823,
      "ప్రదాయ": 4824,
      "ప్రత్యేక": 4825,
      "ద్వీ": 4826,
      "▁ఉప": 4827,
      "▁రె": 4828,
      "own": 4829,
      "olitics": 4830,
      "న్నడ": 4831,
      "▁संविधान": 4832,
      "ంటు": 4833,
      "ibet": 4834,
      "viol": 4835,
      "orities": 4836,
      "र्वत": 4837,
      "ंडिया": 4838,
      "▁దేశంలో": 4839,
      "llchin": 4840,
      "पात": 4841,
      "uddhism": 4842,
      "కాశ్మీ": 4843,
      "ंग्रेस": 4844,
      "ంధు": 4845,
      "ingham": 4846,
      "వర్గం:Harv": 4847,
      "amily": 4848,
      "ద్ధం": 4849,
      "ద్ధి": 4850,
      "ాల్దీవ": 4851,
      "చ్చే": 4852,
      "rgani": 4853,
      "దక్షిణ_": 4854,
      "Oxford_University_Press": 4855,
      "▁కాంగ్రె": 4856,
      "Stein2010),": 4857,
      "ribution": 4858,
      "स्कृति": 4859,
      "టెక్నాల": 4860,
      "హిమాలయ": 4861,
      "▁Empire\")": 4862,
      "ducation": 4863,
      "▁లే": 4864,
      "త్తరా": 4865,
      "నాగరికత": 4866,
      "esert": 4867,
      "క్కువ": 4868,
      "క్‌సభ": 4869,
      "▁శాస్త్ర": 4870,
      "▁Act,": 4871,
      "▁हिन्दी": 4872,
      "formation": 4873,
      "▁शासन": 4874,
      "▁थी": 4875,
      "▁Company": 4876,
      "ెలుగు": 4877,
      "▁2010](https://en.wikipedia.org/wiki/India#CITEREFStein2010),": 4878,
      "▁వచ్చింది.": 4879,
      "yanmar": 4880,
      "_ప్రాంత": 4881,
      "▁Press](https://en.wikipedia.org/wiki/Oxford_University_Press": 4882,
      "ultanate": 4883,
      "ministrative": 4884,
      "do-Aryan": 4885,
      "वेबैक": 4886,
      "▁द्वारा": 4887,
      "ర్చ:": 4888,
      "oordinated": 4889,
      ":EditPage/మూస:": 4890,
      "ాళుక్య": 4891,
      "ప్రత్యేక:EditPage/మూస:": 4892,
      "టెక్నాలజీ": 4893,
      "1%": 4894,
      "53": 4895,
      "DS": 4896,
      "pper": 4897,
      "ward": 4898,
      "▁z": 4899,
      "tered": 4900,
      "omet": 4901,
      "ource": 4902,
      "▁28": 4903,
      "▁28.": 4904,
      "▁gre": 4905,
      "_Pro": 4906,
      "a\"))": 4907,
      "▁1998": 4908,
      "entral_": 4909,
      "/article": 4910,
      "1-1": 4911,
      "318": 4912,
      "3TR": 4913,
      "422": 4914,
      "6_": 4915,
      "Congress": 4916,
      "Se": 4917,
      "_न": 4918,
      "ball": 4919,
      "eg": 4920,
      "eth": 4921,
      "economic": 4922,
      "hal": 4923,
      "hdr": 4924,
      "mi": 4925,
      "mal": 4926,
      "rag": 4927,
      "rust": 4928,
      "uth": 4929,
      "खंड": 4930,
      "खण्ड": 4931,
      "गोल": 4932,
      "धि": 4933,
      "रू": 4934,
      "व्यवस्था": 4935,
      "शीन": 4936,
      "ां": 4937,
      "ुंबई": 4938,
      "ौर": 4939,
      "ौद्ध": 4940,
      "ौद्योगिक": 4941,
      "▁या": 4942,
      "dives": 4943,
      "org": 4944,
      "oram": 4945,
      "pen": 4946,
      "ances": 4947,
      "tice": 4948,
      "thnic": 4949,
      "aldives": 4950,
      "](https://en.wikipedia.org/wiki/O": 4951,
      "](https://en.wikipedia.org/wiki/U": 4952,
      "aran": 4953,
      "hief": 4954,
      "्रम": 4955,
      "as,": 4956,
      "▁संग": 4957,
      "atter": 4958,
      "▁ser": 4959,
      "\\_template": 4960,
      "▁country": 4961,
      "▁C.": 4962,
      "▁मैदान": 4963,
      "▁Science": 4964,
      "los": 4965,
      "lowing": 4966,
      "urn": 4967,
      "▁made": 4968,
      "▁2011.": 4969,
      "cher": 4970,
      "stru": 4971,
      "ournal": 4972,
      "onsoon": 4973,
      "▁अरब": 4974,
      "▁D.": 4975,
      "नाडु": 4976,
      "▁जल": 4977,
      "▁दर": 4978,
      "ountain": 4979,
      "28)": 4980,
      "▁प्रति": 4981,
      "▁2005": 4982,
      "aputra": 4983,
      ".[[3": 4984,
      "akhand": 4985,
      "ubcontinent": 4986,
      "25)": 4987,
      "253": 4988,
      "▁[\"G": 4989,
      "ताब्": 4990,
      "17.": 4991,
      "epartment": 4992,
      "स्त्र": 4993,
      "harm": 4994,
      "पुरी": 4995,
      "otals": 4996,
      "%20A": 4997,
      "](https://hi.wikipedia.org/wiki/भारत#cite_ref-FOOTNOTE": 4998,
      "_Delhi": 4999,
      "▁इतिहास": 5000,
      "erala": 5001,
      "▁control": 5002,
      "▁Valley": 5003,
      "▁हैं,": 5004,
      "rough": 5005,
      "ultural": 5006,
      "पर्यटन": 5007,
      "किम": 5008,
      "_East_Asia_Summit": 5009,
      "quality": 5010,
      "/cb": 5011,
      "endra": 5012,
      "AARC_summit": 5013,
      "दीव": 5014,
      "▁इसके": 5015,
      "रेल": 5016,
      "पालिका": 5017,
      "▁घाट": 5018,
      "_at_the": 5019,
      "▁सिनेमा": 5020,
      "▁York": 5021,
      "ttarakhand": 5022,
      "▁prime": 5023,
      "rahmaputra": 5024,
      "िक्षा": 5025,
      "_Islands": 5026,
      "flu": 5027,
      "िक्किम": 5028,
      "▁(India)\")": 5029,
      "rganization": 5030,
      "3TRt": 5031,
      "At": 5032,
      "ate_": 5033,
      "dies": 5034,
      "▁[World": 5035,
      "lib": 5036,
      "▁This": 5037,
      "▁Time": 5038,
      "/population": 5039,
      "▁composed": 5040,
      "ensity": 5041,
      ".పూ.": 5042,
      "/D": 5043,
      "/in": 5044,
      "/national": 5045,
      "130": 5046,
      "5]](https://en.wikipedia.org/wiki/India#cite_note-FOOTNOTE": 5047,
      "7c": 5048,
      "93,": 5049,
      "RL": 5050,
      "Rowland": 5051,
      "Web": 5052,
      "_2": 5053,
      "_per": 5054,
      "_17": 5055,
      "_Re": 5056,
      "_2004": 5057,
      "aury": 5058,
      "britannica": 5059,
      "ght": 5060,
      "gra": 5061,
      "ite": 5062,
      "ling": 5063,
      "lass": 5064,
      "map": 5065,
      "nf": 5066,
      "operation": 5067,
      "s_of_India": 5068,
      "sources": 5069,
      "work": 5070,
      "रण": 5071,
      "लिस": 5072,
      "वार": 5073,
      "वीं": 5074,
      "शक": 5075,
      "स](https://hi.wikipedia.org/wiki/": 5076,
      "सभा": 5077,
      "ाप": 5078,
      "ांध": 5079,
      "ोष": 5080,
      "०१": 5081,
      "ంతం": 5082,
      "ఆగ": 5083,
      "కళ": 5084,
      "ఖండ్": 5085,
      "గ్": 5086,
      "గిన": 5087,
      "గఢ్": 5088,
      "జో": 5089,
      "ట్ర": 5090,
      "తెలుగు": 5091,
      "ద్రా": 5092,
      "పద": 5093,
      "భి": 5094,
      "యో": 5095,
      "లక్ష": 5096,
      "వర": 5097,
      "శో": 5098,
      "షా": 5099,
      "హు": 5100,
      "హార్": 5101,
      "హాయ": 5102,
      "ాష్ట్ర": 5103,
      "ీక": 5104,
      "ీహార్": 5105,
      "ుల": 5106,
      "ుల్": 5107,
      "ోల్": 5108,
      "ోత్స": 5109,
      "ౌర్య": 5110,
      "▁ध": 5111,
      "▁his": 5112,
      "▁end": 5113,
      "▁ed.).": 5114,
      "dish": 5115,
      "▁[హ": 5116,
      "▁\"హ": 5117,
      "▁\"ఢిల్లీ": 5118,
      "](https://en.wikipedia.org/wiki/Re": 5119,
      "ered": 5120,
      "20)": 5121,
      "్రూ": 5122,
      "rim": 5123,
      "rial": 5124,
      "](https://te.wikipedia.org/wiki/సి": 5125,
      "ating": 5126,
      "ాలా": 5127,
      "ాలలో": 5128,
      "▁col": 5129,
      "ide": 5130,
      "-16": 5131,
      "▁Agency": 5132,
      "్యం": 5133,
      "राठ": 5134,
      "ict": 5135,
      "icon": 5136,
      "urban": 5137,
      "ర్ణా": 5138,
      "ర్మే": 5139,
      "▁Publishing": 5140,
      "its": 5141,
      "itz": 5142,
      "21.": 5143,
      "str": 5144,
      "्ता:": 5145,
      "▁Tamil": 5146,
      "▁River": 5147,
      "▁Monetary": 5148,
      "లోక్‌సభ": 5149,
      "identifiers": 5150,
      "illi": 5151,
      "▁David": 5152,
      "ounci": 5153,
      "▁వంశ": 5154,
      "aylor": 5155,
      "contain": 5156,
      "▁Ex": 5157,
      "▁दृ": 5158,
      "▁दो": 5159,
      "▁Ge": 5160,
      "upt": 5161,
      "▁Himalay": 5162,
      "ండర్": 5163,
      "force": 5164,
      "▁प्रमुख": 5165,
      "▁rec": 5166,
      "▁non-": 5167,
      "254": 5168,
      "](https://en.wikipedia.org/wiki/India#CITEREFB": 5169,
      "త్మా": 5170,
      "asting": 5171,
      "imach": 5172,
      "overty": 5173,
      "▁అతి": 5174,
      "2905": 5175,
      "ికి": 5176,
      "a](https://en.wikipedia.org/wiki/A": 5177,
      "▁Official": 5178,
      "▁Wiki": 5179,
      "ద్దు": 5180,
      "hindu": 5181,
      "▁రహదార": 5182,
      "మాచల్": 5183,
      "▁సామ్రాజ్య": 5184,
      "రువా": 5185,
      "రుణా": 5186,
      "_and_D": 5187,
      "▁शु": 5188,
      "న్నో": 5189,
      "िये": 5190,
      "మిజో": 5191,
      "▁रह": 5192,
      "▁ఇది": 5193,
      "▁लग": 5194,
      "_Nations": 5195,
      "aries": 5196,
      "▁జరి": 5197,
      "▁విస్త": 5198,
      "▁movement": 5199,
      "](https://en.wikipedia.org/wiki/Economy_of_": 5200,
      "857": 5201,
      "ृत्य": 5202,
      "तेलु": 5203,
      "62-2": 5204,
      "▁శతాబ్ద": 5205,
      "ట్టు": 5206,
      "timesofindia": 5207,
      "do-P": 5208,
      "ूनिव": 5209,
      "▁status": 5210,
      "రాష్ట్రాలు": 5211,
      "▁tex": 5212,
      "-symbols": 5213,
      "వేద": 5214,
      "ilitary": 5215,
      "▁రాజకీయ": 5216,
      "▁ప్రాంతాలు": 5217,
      "ship": 5218,
      "illenni": 5219,
      "హిమాచల్": 5220,
      "ociety": 5221,
      "హాత్మా": 5222,
      "olden": 5223,
      "▁Islands](https://en.wikipedia.org/wiki/": 5224,
      "ूरो": 5225,
      "▁ప్రదేశ్\")": 5226,
      "](https://hi.wikipedia.org/wiki/भारत_की_": 5227,
      "](https://hi.wikipedia.org/wiki/भारत_का_": 5228,
      "హారాష్ట్ర": 5229,
      "శాస్త్ర": 5230,
      "రాజస్థాన్": 5231,
      "▁వాతావరణ": 5232,
      "_संघ": 5233,
      "దినోత్స": 5234,
      "బెంగాలీ": 5235,
      "-level": 5236,
      "fication": 5237,
      "-107-111": 5238,
      "యన్మార్": 5239,
      "▁ముఖ్య": 5240,
      "▁युद्ध": 5241,
      "▁domestic": 5242,
      "▁न्यायालय": 5243,
      "-language\\_sources": 5244,
      "JPG": 5245,
      "achine": 5246,
      "धिकारिक": 5247,
      "ంజాబ్": 5248,
      "▁వ్యాస": 5249,
      "▁mathema": 5250,
      "▁[पुरालेखित": 5251,
      "గుజరాత్": 5252,
      "ఆఫ్ఘనిస్తాన్": 5253,
      "న్‌ఫర్మే": 5254,
      "▁अगस्त": 5255,
      "धानमंत्री": 5256,
      "-0-19-882905": 5257,
      "రిహద్దు": 5258,
      "చ్చేరి": 5259,
      "/national-symbols": 5260,
      "Rowland1970": 5261,
      "britannica.com/": 5262,
      "ర్ణాటక": 5263,
      "రుణాచల్": 5264,
      "timesofindia.indiatimes.com/": 5265,
      "-107-11162-2": 5266,
      "-language\\_sources\\_(": 5267,
      "న్‌ఫర్మేషన్": 5268,
      "-0-19-882905-8": 5269,
      "->": 5270,
      ".ಎ": 5271,
      ".html).": 5272,
      "2)[[": 5273,
      "5%": 5274,
      "534": 5275,
      ":India": 5276,
      "_ಬ": 5277,
      "_ಸಂ": 5278,
      "ಂಪ": 5279,
      "ಇಂಡ": 5280,
      "ಘಟ": 5281,
      "ಧಿ": 5282,
      "ಪಾರ": 5283,
      "ರೇಂದ್ರ": 5284,
      "ವು": 5285,
      "ವರಿ": 5286,
      "ವನ್ನು": 5287,
      "ಾಂಗ್": 5288,
      "ೆ.": 5289,
      "ೊಡ್": 5290,
      "ೋದಿ": 5291,
      "್‌": 5292,
      "್ನೆ": 5293,
      "೨]](https://kn.wikipedia.org/wiki/ಭಾರತ#cite_note-": 5294,
      "▁ಜ": 5295,
      "▁೨": 5296,
      "▁ಗಣರಾಜ್ಯ": 5297,
      "▁ರಾಜ": 5298,
      "▁[ಹಿಂದೂ": 5299,
      "▁\"ನ": 5300,
      "▁\"ಭಾರತ": 5301,
      "▁\"ಹಿಂದೂ": 5302,
      "th](https://kn.wikipedia.org/wiki/": 5303,
      "20.": 5304,
      "](https://kn.wikipedia.org/wiki/ಹಿಂದೂ": 5305,
      "್ರೀ": 5306,
      "raj": 5307,
      "23.": 5308,
      "ಲಿಮ್": 5309,
      "▁ಪು": 5310,
      "▁ಪ್ರಾ": 5311,
      "11.": 5312,
      "ಗಳನ್ನು": 5313,
      "▁2001": 5314,
      "ತ್ತಿ": 5315,
      "▁Index": 5316,
      "ಸ್ಲಿಮ್": 5317,
      "▁ಹಾಗ": 5318,
      "ಕ್ಕಿ": 5319,
      "▁ಕಾ": 5320,
      "▁ಕೆ": 5321,
      "▁ಕ್ರಿ": 5322,
      "▁ವಾ": 5323,
      "▁ನದಿ": 5324,
      "ರಿಂದ": 5325,
      "light": 5326,
      "ಸಂಸ": 5327,
      "ಸಂಯುಕ್ತ": 5328,
      "ಾಗರೀ": 5329,
      "ಸಿದ": 5330,
      "್ರಾಡಳಿತ": 5331,
      "್ಯಾಪಾರ": 5332,
      "ರಾಷ್ಟ್ರಪತಿ": 5333,
      "▁ಆಡಳಿತ": 5334,
      "ಿಯಿಂದ": 5335,
      "ವಿರ": 5336,
      "ದ್ದ": 5337,
      "ಮುಖ್ಯ": 5338,
      "ರೆಗೆ": 5339,
      "▁ಎಂಬ": 5340,
      "▁ಎನ್.": 5341,
      "▁ಸಾವಿರ": 5342,
      "▁ಉಪ": 5343,
      "▁ಕೋಟ": 5344,
      "ವೆ.": 5345,
      "ೇಂದ್ರಾಡಳಿತ": 5346,
      "▁ವಿಭ": 5347,
      "ಗಿನ": 5348,
      "ಲಾದೇಶ": 5349,
      "ಹಾರಾ": 5350,
      "▁ರಾಜ್ಯಗಳು": 5351,
      "](https://kn.wikipedia.org/wiki/ಚಿತ್ರ": 5352,
      "▁%),": 5353,
      "ಲ್ತ್‌": 5354,
      "▁ಶತಮಾನ": 5355,
      "ಳುವಳಿ": 5356,
      "ಿಹ್ನೆ": 5357,
      "▁ಮೊದ": 5358,
      "ಂಗಳೂರು": 5359,
      "ಘಟನೆ": 5360,
      "ಾಂಗ್ಲಾದೇಶ": 5361,
      "ೊಡ್ಡ": 5362,
      "▁ಹಾಗೂ": 5363,
      "ಾಗರೀಕ": 5364,
      "▁ಎನ್.ಡಿ": 5365,
      "-C": 5366,
      "-n": 5367,
      "-प": 5368,
      "-and": 5369,
      "-50": 5370,
      "-22": 5371,
      ".ni": 5372,
      "/we": 5373,
      "1200": 5374,
      "125": 5375,
      "2]](https://en.wikipedia.org/wiki/India#cite_note-": 5376,
      "300": 5377,
      "7_": 5378,
      "95": 5379,
      "E﻿": 5380,
      "Ethnologue": 5381,
      "_अ": 5382,
      "_ए": 5383,
      "_pe": 5384,
      "_with": 5385,
      "_languages": 5386,
      "a-b": 5387,
      "c.": 5388,
      "cess": 5389,
      "dlife": 5390,
      "ez": 5391,
      "ham": 5392,
      "house": 5393,
      "ks": 5394,
      "lurton": 5395,
      "que": 5396,
      "udu": 5397,
      "ंका": 5398,
      "कट": 5399,
      "गंगा": 5400,
      "देव": 5401,
      "भो": 5402,
      "मेर": 5403,
      "ल](https://hi.wikipedia.org/wiki/": 5404,
      "लंका": 5405,
      "हैद": 5406,
      "िला": 5407,
      "ीमा": 5408,
      "ूह": 5409,
      "्म": 5410,
      "▁—": 5411,
      "▁lo": 5412,
      "oral": 5413,
      "ortheast": 5414,
      ".org": 5415,
      "▁[c": 5416,
      "▁[p": 5417,
      "▁[ओ": 5418,
      "▁\"ओ": 5419,
      "▁\"19": 5420,
      "on,": 5421,
      "arath": 5422,
      "2025": 5423,
      "tions": 5424,
      "](https://hi.wikipedia.org/wiki/आ": 5425,
      "▁(in": 5426,
      "▁(19": 5427,
      "▁them": 5428,
      "▁India](https://en.wikipedia.org/wiki/G": 5429,
      "▁influ": 5430,
      "lief": 5431,
      "▁pre": 5432,
      "▁painting": 5433,
      "▁summit": 5434,
      "-06": 5435,
      "\\_or": 5436,
      "-12)": 5437,
      "▁S.": 5438,
      "▁Sec": 5439,
      "राबाद": 5440,
      "▁billion": 5441,
      "icha": 5442,
      "icob": 5443,
      "▁12": 5444,
      "▁P.": 5445,
      "ाने": 5446,
      "र्ना": 5447,
      "hell": 5448,
      "ravi": 5449,
      "21)": 5450,
      "▁western": 5451,
      "▁Territory": 5452,
      "▁Man": 5453,
      "ildlife": 5454,
      "▁अप्र": 5455,
      "▁app": 5456,
      "▁Be": 5457,
      "emon": 5458,
      "▁eastern": 5459,
      "_का_": 5460,
      "▁Gana": 5461,
      "▁human": 5462,
      "▁नी": 5463,
      "abh": 5464,
      "ability": 5465,
      "▁J.": 5466,
      "▁rem": 5467,
      "▁new": 5468,
      "elang": 5469,
      "1993": 5470,
      "geoh": 5471,
      "160": 5472,
      "170": 5473,
      "▁Ocean": 5474,
      "14.": 5475,
      "▁Lank": 5476,
      "▁Kingdom": 5477,
      "ternal": 5478,
      "▁[↑](https://en.wikipedia.org/wiki/India#cite_ref-FOOTNOTEMetcalfMetcalf2006": 5479,
      "ogue": 5480,
      "▁संबंध": 5481,
      "म्प": 5482,
      "_Data_": 5483,
      "▁disc": 5484,
      "▁dispu": 5485,
      "हिमा": 5486,
      "▁3,": 5487,
      "overnment_of_India": 5488,
      "त्तीस": 5489,
      "▁[GDP": 5490,
      "र्वो": 5491,
      "▁exp": 5492,
      "_Temple": 5493,
      "▁भाषाओं": 5494,
      "general_": 5495,
      "▁[National": 5496,
      "▁करने": 5497,
      "िरपे": 5498,
      "ikkim": 5499,
      "▁life": 5500,
      "वायु": 5501,
      "\")*,": 5502,
      "ीपी": 5503,
      "▁मेला\")": 5504,
      "▁हुए": 5505,
      "▁2022.\r\n": 5506,
      "▁2016.\r\n": 5507,
      "_capit": 5508,
      "_Indian_general_": 5509,
      ".svg.png)": 5510,
      "-of-india-": 5511,
      "भीम": 5512,
      ".net": 5513,
      "िल्ली": 5514,
      "▁कार्य": 5515,
      "volution": 5516,
      "Encyc": 5517,
      "pectancy": 5518,
      "Wikipedia\\_articles": 5519,
      "rofile": 5520,
      "▁[हिन्दी](https://hi.wikipedia.org/wiki/": 5521,
      "▁employ": 5522,
      ".aspx?": 5523,
      "cording": 5524,
      "cia.gov/": 5525,
      "olitical_": 5526,
      "cherry": 5527,
      "3TRtDwAAQBAJ&pg=PA": 5528,
      "illennium": 5529,
      "uducherry": 5530,
      "हैदराबाद": 5531,
      "ichael": 5532,
      "र्नाटक": 5533,
      "geohack": 5534,
      "िरपेक्ष": 5535,
      "_Indian_general_election": 5536,
      "12.": 5537,
      "Bharat": 5538,
      "_30": 5539,
      "sm": 5540,
      "▁\"World": 5541,
      "report": 5542,
      "agen": 5543,
      "▁14.": 5544,
      "238": 5545,
      "▁[New": 5546,
      "o-d": 5547,
      "bank.org/": 5548,
      "unknown\\_parameters#": 5549,
      "--": 5550,
      "-S": 5551,
      "-r": 5552,
      "-with": 5553,
      "-29": 5554,
      "/ark": 5555,
      "124": 5556,
      "2-4": 5557,
      "3-8": 5558,
      "4]](https://en.wikipedia.org/wiki/India#cite_note-": 5559,
      "613": 5560,
      "7]](https://en.wikipedia.org/wiki/India#cite_note-FOOTNOTE": 5561,
      "CA": 5562,
      "CL": 5563,
      "C-0": 5564,
      "DR": 5565,
      "IJ": 5566,
      "QAAQBAJ&pg=PA": 5567,
      "SAARC_summit": 5568,
      "Tab": 5569,
      "_9": 5570,
      "_di": 5571,
      "_24": 5572,
      "ax": 5573,
      "ece": 5574,
      "eval": 5575,
      "hra": 5576,
      "i,": 5577,
      "i-": 5578,
      "ji": 5579,
      "lm": 5580,
      "m2": 5581,
      "oard": 5582,
      "p?": 5583,
      "yy": 5584,
      "yam": 5585,
      "ंह": 5586,
      "झार": 5587,
      "डिया": 5588,
      "तट": 5589,
      "निक": 5590,
      "पान": 5591,
      "मालय": 5592,
      "हन": 5593,
      "हरी": 5594,
      "ाय": 5595,
      "िज": 5596,
      "िस्तान": 5597,
      "िहार": 5598,
      "ంతి": 5599,
      "కాల": 5600,
      "కారం": 5601,
      "ఖ్": 5602,
      "గంగా": 5603,
      "టో": 5604,
      "డిన": 5605,
      "తీ": 5606,
      "ధి": 5607,
      "ధించ": 5608,
      "నల్": 5609,
      "మన": 5610,
      "మర": 5611,
      "ర్యా": 5612,
      "లం": 5613,
      "లతో": 5614,
      "లమె": 5615,
      "ీస్": 5616,
      "ూప": 5617,
      "ూరు": 5618,
      "ెనీ": 5619,
      "ౌక": 5620,
      "▁ऑ": 5621,
      "▁ద": 5622,
      "▁ఫ": 5623,
      "▁im": 5624,
      "▁80": 5625,
      "▁राष्ट्र": 5626,
      "▁लेख": 5627,
      "▁దక్షిణ": 5628,
      "▁హిందూ": 5629,
      "▁గాంధీ": 5630,
      "orce": 5631,
      "orical": 5632,
      ":/121": 5633,
      "▁[च": 5634,
      "▁[భారతదేశం": 5635,
      "▁[ఢిల్లీ": 5636,
      "ender": 5637,
      "ins": 5638,
      "alli": 5639,
      "erg": 5640,
      "arli": 5641,
      "ared/": 5642,
      "arendra": 5643,
      "esti": 5644,
      "thehindu": 5645,
      "](https://hi.wikipedia.org/wiki/ओ": 5646,
      "▁कुल": 5647,
      "▁(2006": 5648,
      "ారస": 5649,
      "atar": 5650,
      "atch": 5651,
      "etrag": 5652,
      "ాలను": 5653,
      "\\_of": 5654,
      "\\_identifiers": 5655,
      "\\_contain": 5656,
      "▁culture": 5657,
      "▁Centre": 5658,
      "ages/": 5659,
      "agari": 5660,
      "-135": 5661,
      "adwe": 5662,
      "▁far": 5663,
      "స్](https://te.wikipedia.org/wiki/": 5664,
      "▁border": 5665,
      "▁పెద్ద": 5666,
      "lopedia": 5667,
      "ర్లు": 5668,
      "linkim": 5669,
      "ver,": 5670,
      "00–సా.శ.పూ.": 5671,
      "र्ष": 5672,
      "▁केन्द्र": 5673,
      "raz": 5674,
      "▁2016.": 5675,
      "▁ही": 5676,
      "▁होत": 5677,
      "213": 5678,
      "▁women": 5679,
      "లు\")": 5680,
      "ంది": 5681,
      "▁వే": 5682,
      "105": 5683,
      "▁1960": 5684,
      "240": 5685,
      "▁Gu": 5686,
      "▁Government": 5687,
      "▁November": 5688,
      "▁Nehru": 5689,
      "ियां": 5690,
      "▁बन": 5691,
      "shared/": 5692,
      "architecture": 5693,
      "▁नद": 5694,
      "▁नहीं": 5695,
      "▁से](http://": 5696,
      "_Ass": 5697,
      "_Affairs": 5698,
      "18.": 5699,
      "▁From": 5700,
      "akes": 5701,
      "▁regions": 5702,
      "▁[\"The": 5703,
      "త్తం": 5704,
      "▁Indus": 5705,
      "▁(సా.శ.15": 5706,
      "▁(సా.శ.13": 5707,
      "▁అనే": 5708,
      "407": 5709,
      "▁forest": 5710,
      "▁वार": 5711,
      "▁ప్రజ": 5712,
      "▁Organisation": 5713,
      "తం\")": 5714,
      "_Census": 5715,
      "पुरा": 5716,
      "aves": 5717,
      "ంచి": 5718,
      "▁[Chin": 5719,
      "स्ला": 5720,
      "hina": 5721,
      "▁ఆఫ్": 5722,
      "ssam": 5723,
      "▁సాం": 5724,
      "▁[Ministry": 5725,
      "▁उद्यान": 5726,
      "▁है।[[": 5727,
      "ార్లమె": 5728,
      "▁शताब्": 5729,
      "▁\"British": 5730,
      "anipur": 5731,
      "oreign": 5732,
      "కిస్థాన్": 5733,
      "undament": 5734,
      "48/cb": 5735,
      "▁నే": 5736,
      "▁నగర": 5737,
      "▁रहा": 5738,
      "▁[Government": 5739,
      "ాయి.": 5740,
      "hmed": 5741,
      "_Nadu": 5742,
      "టిబె": 5743,
      "్రీ.పూ.": 5744,
      "▁[![A": 5745,
      "athur": 5746,
      "ecu": 5747,
      "MetcalfMetcalf201": 5748,
      "▁produc": 5749,
      "ండియా": 5750,
      "▁ఎక్కువ": 5751,
      "▁ఎన్నో": 5752,
      "amil_Nadu": 5753,
      "विशेष:EditPage/": 5754,
      "▁./వర్గం:Wikipedia\\_articles": 5755,
      "▁technology": 5756,
      "_సం": 5757,
      "ashmiri": 5758,
      "ారు.\r\n": 5759,
      "▁second": 5760,
      "▁Hinduism": 5761,
      "▁मेला](https://hi.wikipedia.org/wiki/": 5762,
      "టుంబ": 5763,
      "aint:": 5764,
      "ranci": 5765,
      "awahar": 5766,
      "▁భారత్": 5767,
      "श्चिमी": 5768,
      "risti": 5769,
      "गणराज्य": 5770,
      "kingdom": 5771,
      "](https://en.wikipedia.org/wiki/List_of_SAARC_summit": 5772,
      "racy": 5773,
      "మెరి": 5774,
      "▁మొత్తం": 5775,
      "urrent": 5776,
      "pringer": 5777,
      "eserve": 5778,
      "▁प्राप्त": 5779,
      "బాద్": 5780,
      "ంపెనీ": 5781,
      "-lead": 5782,
      "annad": 5783,
      "View": 5784,
      "▁स्रोत/978-1": 5785,
      "](https://hi.wikipedia.org/wiki/विशेष:पुस्तक_स्रोत/978-1": 5786,
      "హ్మ": 5787,
      "▁Persian": 5788,
      "oint": 5789,
      "▁ఏర్": 5790,
      "-to-": 5791,
      "hasha": 5792,
      ".bnf": 5793,
      "akshadwe": 5794,
      "్రిటిషు": 5795,
      "▁भूम": 5796,
      "omason": 5797,
      "_BRICS_summit": 5798,
      "▁गणराज्य": 5799,
      "ootball": 5800,
      "Provision": 5801,
      "▁चुनाव": 5802,
      ".fr/ark": 5803,
      "overeign": 5804,
      "▁అత్యధిక": 5805,
      "nclm.nic.in/shared/": 5806,
      "ీర్ణ": 5807,
      "atabase": 5808,
      "దక్షిణ_ఆసియా": 5809,
      "रेलू": 5810,
      "▁[पुरालेखित](https://web.archive.org/web/201": 5811,
      "-language\\_sources\\_(en": 5812,
      "▁summits\")": 5813,
      "icobar": 5814,
      "र्वोच्च": 5815,
      "_capita": 5816,
      ":/12148/cb": 5817,
      "linkimages/": 5818,
      "विशेष:EditPage/साँचा:": 5819,
      "awaharl": 5820,
      "](https://en.wikipedia.org/wiki/List_of_SAARC_summits": 5821,
      ".bnf.fr/ark": 5822,
      "akshadweep": 5823,
      "nclm.nic.in/shared/linkimages/": 5824,
      ".bnf.fr/ark:/12148/cb": 5825,
      "*](https://": 5826,
      "41": 5827,
      "400": 5828,
      "677": 5829,
      "CH": 5830,
      "OV": 5831,
      "_-": 5832,
      "_36": 5833,
      "lue": 5834,
      "▁·": 5835,
      "\")\"": 5836,
      "ations\")": 5837,
      "▁fig": 5838,
      "upreme": 5839,
      "22.": 5840,
      "tudies": 5841,
      "159": 5842,
      "▁[Central": 5843,
      "709": 5844,
      "coefficient": 5845,
      "_Fund": 5846,
      "-D": 5847,
      "-se": 5848,
      "-विज्ञान": 5849,
      ".\")\r\n": 5850,
      ".](https://upload.wikimedia.org/wikipedia/commons/thumb/": 5851,
      "350": 5852,
      "34)": 5853,
      "4,": 5854,
      "4]](https://en.wikipedia.org/wiki/India#cite_note-FOOTNOTE": 5855,
      "4-108": 5856,
      "6,": 5857,
      "7).": 5858,
      "8%": 5859,
      "9857": 5860,
      "=0&": 5861,
      "AS": 5862,
      "Census": 5863,
      "Gua": 5864,
      "HDR": 5865,
      "JIJ": 5866,
      "Kashmir": 5867,
      "MC": 5868,
      "MID": 5869,
      "Ministry_of_": 5870,
      "NA": 5871,
      "Raj": 5872,
      "St": 5873,
      "Vu": 5874,
      "Zva": 5875,
      "ZVu": 5876,
      "_आ": 5877,
      "_उ": 5878,
      "_26": 5879,
      "_देश": 5880,
      "a)": 5881,
      "aul": 5882,
      "aut": 5883,
      "bb": 5884,
      "c/c": 5885,
      "casting": 5886,
      "ek": 5887,
      "go": 5888,
      "hu": 5889,
      "jana": 5890,
      "ker": 5891,
      "kZVu": 5892,
      "lood": 5893,
      "mir": 5894,
      "mrit": 5895,
      "nai": 5896,
      "ncient": 5897,
      "ple": 5898,
      "pture": 5899,
      "s:": 5900,
      "s_in_India": 5901,
      "tats": 5902,
      "ual": 5903,
      "ues": 5904,
      "uil": 5905,
      "y\")": 5906,
      "ंच": 5907,
      "ईरा": 5908,
      "छत्तीस": 5909,
      "त्व": 5910,
      "फल": 5911,
      "फ्रीका": 5912,
      "लग": 5913,
      "स\")": 5914,
      "सून": 5915,
      "िंध": 5916,
      "ीच": 5917,
      "१९": 5918,
      "–24": 5919,
      "′′": 5920,
      "▁<": 5921,
      "▁low": 5922,
      "▁Qu": 5923,
      "▁urban": 5924,
      "orn": 5925,
      "ors": 5926,
      "▁[f": 5927,
      "▁\"च": 5928,
      "ines": 5929,
      "th_BRICS_summit": 5930,
      "aland": 5931,
      "alit": 5932,
      "arlo": 5933,
      "arty": 5934,
      "ison": 5935,
      "](https://hi.wikipedia.org/wiki/च": 5936,
      "▁कई": 5937,
      "▁कश्मीर": 5938,
      "outheast": 5939,
      "rime": 5940,
      "▁सद": 5941,
      "▁सैन": 5942,
      "▁sq": 5943,
      "▁caus": 5944,
      "▁class": 5945,
      "▁Civil": 5946,
      "▁मुख": 5947,
      "▁Affairs": 5948,
      "[[14": 5949,
      "▁पर्वत": 5950,
      "loth": 5951,
      "▁tree": 5952,
      "▁tril": 5953,
      "▁Punjab": 5954,
      "ular": 5955,
      "_of_2011": 5956,
      "00%20A": 5957,
      "▁when": 5958,
      "▁Research": 5959,
      "▁M.": 5960,
      "▁Mana": 5961,
      "-0)\r\n": 5962,
      "emographic": 5963,
      "1017": 5964,
      "iger": 5965,
      "▁1965": 5966,
      "वित": 5967,
      "al_Population": 5968,
      "ly,": 5969,
      "▁*2011": 5970,
      "_का": 5971,
      "Union": 5972,
      "▁Europe": 5973,
      "▁दि": 5974,
      "oples": 5975,
      "upta": 5976,
      "▁बा": 5977,
      "▁बीच": 5978,
      "-39": 5979,
      "-49857": 5980,
      "22-9": 5981,
      "▁से](http://www.": 5982,
      "▁Factbook": 5983,
      "▁these": 5984,
      "▁report": 5985,
      "▁religious": 5986,
      "-85": 5987,
      "▁name": 5988,
      "search": 5989,
      "ताज": 5990,
      "▁Intelligence": 5991,
      "15.": 5992,
      "13.": 5993,
      "16.": 5994,
      "ishing": 5995,
      "▁\"Ch": 5996,
      "क्षा": 5997,
      "न्दिर": 5998,
      "▁आधिकारिक": 5999,
      "utt": 6000,
      "▁Linguistic": 6001,
      "27)": 6002,
      "स्थ": 6003,
      "_Paper": 6004,
      "▁United": 6005,
      "35.": 6006,
      "▁dec": 6007,
      "▁def": 6008,
      "▁development": 6009,
      "ligions": 6010,
      "▁गु": 6011,
      "-2_Data_": 6012,
      "▁[↑](https://en.wikipedia.org/wiki/India#cite_ref-FOOTNOTEB": 6013,
      "%202-": 6014,
      "▁उत्पाद": 6015,
      "7.208": 6016,
      "ाद्वीप": 6017,
      "ana-m": 6018,
      "ana-49857": 6019,
      "▁[British": 6020,
      "_मंदिर": 6021,
      "▁संस्कृति": 6022,
      "लेट": 6023,
      "प्रा": 6024,
      "▁Press](https://en.wikipedia.org/wiki/C": 6025,
      "emplate_": 6026,
      "▁इन": 6027,
      "ibcode": 6028,
      "▁\"Government": 6029,
      "▁language\"),": 6030,
      "िस्ट": 6031,
      "_Totals": 6032,
      "news18": 6033,
      "▁[Dyson": 6034,
      "▁करोड़": 6035,
      "United_Nations": 6036,
      "ext": 6037,
      "exis": 6038,
      "anta": 6039,
      "▁77.208": 6040,
      "▁अनु": 6041,
      "ikhism": 6042,
      "▁liter": 6043,
      "▁1994": 6044,
      "केर": 6045,
      "▁[अंग्रेज़": 6046,
      "](https://en.wikipedia.org/wiki/National_": 6047,
      "674": 6048,
      "onstitutional": 6049,
      "parliament": 6050,
      "atis": 6051,
      "_1_of_2011": 6052,
      "do-European": 6053,
      "▁languages\")": 6054,
      "▁जनगणना": 6055,
      "▁हैं।\r\n": 6056,
      "▁addition": 6057,
      "alayal": 6058,
      "▁sector": 6059,
      "national-an": 6060,
      "▁राजनी": 6061,
      "▁\"पंजाब": 6062,
      "les/00%20A": 6063,
      "-gana-m": 6064,
      "र्थव्यवस्था": 6065,
      "india/national-an": 6066,
      "ovement": 6067,
      "ociation": 6068,
      "▁[पंजाब": 6069,
      "8/8": 6070,
      "करण": 6071,
      "▁Islands\")": 6072,
      "odiversity": 6073,
      "/A-2_Data_": 6074,
      "phere": 6075,
      "them-of-india-": 6076,
      "▁होता": 6077,
      "uisine": 6078,
      "ब्ब": 6079,
      "ighth": 6080,
      "▁wide": 6081,
      "▁along": 6082,
      "gypt": 6083,
      "hennai": 6084,
      "ondon": 6085,
      "▁जिसमें": 6086,
      "censusindia.gov.in/2011census/P": 6087,
      "censusindia.gov.in/2011census/population": 6088,
      "urity": 6089,
      "▁कारण": 6090,
      ".com/news/india/national-an": 6091,
      "074-108": 6092,
      "ोर्ड": 6093,
      "▁km2": 6094,
      "_मेला?action=edit&redlink=1": 6095,
      "UNHDR": 6096,
      "List_of_countries_by_GDP_(nominal)": 6097,
      "▁Plateau": 6098,
      "▁Data*.": 6099,
      "गोआ": 6100,
      "-4020": 6101,
      "_enumeration": 6102,
      "श्रीलंका": 6103,
      "urchasing": 6104,
      "evanagari": 6105,
      "rief-on-": 6106,
      "issing": 6107,
      "Articles\\_contain": 6108,
      "arnatic": 6109,
      "india.gov.in/india-glance/national-symbols": 6110,
      "-78074-108": 6111,
      "roadcasting": 6112,
      "र्सिट": 6113,
      "uthority": 6114,
      "_per_capita": 6115,
      "ूनिवर्सिट": 6116,
      "a-brief-on-": 6117,
      "\\_or\\_": 6118,
      "61389": 6119,
      "CA/A-2_Data_": 6120,
      "Tables/00%20A": 6121,
      "etraglia": 6122,
      "ristian": 6123,
      "Provisional_Population": 6124,
      "GuaJIJ": 6125,
      "ZvaGuaJIJ": 6126,
      "jana-gana-m": 6127,
      "mritsar": 6128,
      "▁trillion": 6129,
      "_Paper_1_of_2011": 6130,
      "%202-India.pdf)": 6131,
      "ana-498576.": 6132,
      "_Totals_Paper_1_of_2011": 6133,
      "news18.com/news/india/national-an": 6134,
      "▁77.20833": 6135,
      "▁[अंग्रेज़ी](https://hi.wikipedia.org/wiki/अ": 6136,
      "them-of-india-a-brief-on-": 6137,
      "censusindia.gov.in/2011census/PCA/A-2_Data_": 6138,
      "censusindia.gov.in/2011census/population_enumeration": 6139,
      "-78074-108-6": 6140,
      "Tables/00%20A%202-India.pdf)": 6141,
      "Provisional_Population_Totals_Paper_1_of_2011": 6142,
      "ZvaGuaJIJgo": 6143,
      "jana-gana-mana-498576.": 6144,
      "news18.com/news/india/national-anthem-of-india-a-brief-on-": 6145,
      "censusindia.gov.in/2011census/PCA/A-2_Data_Tables/00%20A%202-India.pdf)": 6146,
      "Provisional_Population_Totals_Paper_1_of_2011_India": 6147,
      "news18.com/news/india/national-anthem-of-india-a-brief-on-jana-gana-mana-498576.": 6148,
      "8,": 6149,
      "br": 6150,
      "hā": 6151,
      "y=": 6152,
      "▁9.": 6153,
      "202": 6154,
      "▁India\"](https://web.archive.org/web/201": 6155,
      "19.": 6156,
      "▁census": 6157,
      "rowing": 6158,
      "ourism": 6159,
      "▁Total": 6160,
      "▁Report": 6161,
      "▁though": 6162,
      "▁\"Central": 6163,
      "Harv\\_and\\_Sfn\\_no-target\\_errors\r\n": 6164,
      "▁\"International": 6165,
      "▁adop": 6166,
      "▁See": 6167,
      "_top": 6168,
      ".worldbank.org/": 6169,
      "▁zone": 6170,
      ")\"),": 6171,
      "*)": 6172,
      ".ಪ": 6173,
      ".uk": 6174,
      "1-0": 6175,
      "1-4": 6176,
      "2)\r\n": 6177,
      "5).": 6178,
      "9–": 6179,
      ":\r\n": 6180,
      ";\r\n": 6181,
      "AG": 6182,
      "B2%": 6183,
      "ES": 6184,
      "Home": 6185,
      "IF": 6186,
      "IUCN": 6187,
      "TC": 6188,
      "_व": 6189,
      "_ನ": 6190,
      "_38": 6191,
      "_2011": 6192,
      "_43": 6193,
      "_జాబితా": 6194,
      "ative": 6195,
      "ading": 6196,
      "b/": 6197,
      "bu": 6198,
      "ctive": 6199,
      "equality": 6200,
      "fli": 6201,
      "jan": 6202,
      "most": 6203,
      "ption": 6204,
      "sch": 6205,
      "s\").": 6206,
      "ually": 6207,
      "vest": 6208,
      "yle": 6209,
      "ंट": 6210,
      "जम्मू": 6211,
      "पि": 6212,
      "भ्यता": 6213,
      "मो": 6214,
      "लों": 6215,
      "शा": 6216,
      "िख": 6217,
      "िम": 6218,
      "ीगढ़": 6219,
      "ॉक": 6220,
      "ఆంధ": 6221,
      "కీ": 6222,
      "కాలు": 6223,
      "క్రమ": 6224,
      "గర్": 6225,
      "డో": 6226,
      "థి": 6227,
      "నె": 6228,
      "నాలు": 6229,
      "పించ": 6230,
      "బడ్డ": 6231,
      "భర": 6232,
      "మహ": 6233,
      "మై": 6234,
      "యన": 6235,
      "రంగ": 6236,
      "లయా": 6237,
      "వార": 6238,
      "శీ": 6239,
      "షనల్": 6240,
      "స్య": 6241,
      "ృద్ధి": 6242,
      "ెంగ": 6243,
      "ేర": 6244,
      "ಂಭ": 6245,
      "ಉಪ": 6246,
      "ಓಟ": 6247,
      "ಗದ": 6248,
      "ಗೊಂಡ": 6249,
      "ಚೀ": 6250,
      "ಜಿತ": 6251,
      "ಝೋ": 6252,
      "ಟದ": 6253,
      "ಥವಾ": 6254,
      "ದ್ರ": 6255,
      "ದಿಂದ": 6256,
      "ದ್ವೀಪ": 6257,
      "ದಕ್ಷಿಣ": 6258,
      "ನೈ": 6259,
      "ನಿಂದ": 6260,
      "ನೆಯ": 6261,
      "ಬಿ": 6262,
      "ಮಣ": 6263,
      "ಮಂತ್ರಿ": 6264,
      "ಮಾರು": 6265,
      "ಯೋ": 6266,
      "ರಡ": 6267,
      "ಲಕ್ಷ": 6268,
      "ಲಾಗಿ": 6269,
      "ವಣಿ": 6270,
      "ವು.": 6271,
      "ಶಾ": 6272,
      "ಸತ್ಯ": 6273,
      "ಹ್ಮ": 6274,
      "ಾಂಶ": 6275,
      "ೀಸ್": 6276,
      "ೂರ": 6277,
      "ೆಂದರೆ": 6278,
      "ೇಖ": 6279,
      "ೇರ": 6280,
      "ೇವ": 6281,
      "ೊಳ": 6282,
      "▁ओ": 6283,
      "▁ಏ": 6284,
      "▁ಡ": 6285,
      "▁ಫ": 6286,
      "▁hist": 6287,
      "▁ರಾಷ್ಟ್ರೀಯ": 6288,
      "▁దా": 6289,
      "▁ಯು": 6290,
      "▁నాగరికత": 6291,
      "▁టెక్నాలజీ": 6292,
      "▁ಓಟ": 6293,
      "digarh": 6294,
      "](Template:": 6295,
      "▁[ಜ": 6296,
      "▁[ನ": 6297,
      "▁[वि": 6298,
      "▁[सा": 6299,
      "▁[ವಿ": 6300,
      "en,": 6301,
      "eneral_": 6302,
      "▁\"ग": 6303,
      "▁\"ल": 6304,
      "an,": 6305,
      "aro": 6306,
      "203": 6307,
      "hib": 6308,
      "hild": 6309,
      "reed": 6310,
      "cise": 6311,
      "▁कु": 6312,
      "▁off": 6313,
      "్రై": 6314,
      "్రప్రదేశ్": 6315,
      "ripur": 6316,
      "](https://te.wikipedia.org/wiki/ఢిల్లీ": 6317,
      "asi": 6318,
      "ashi": 6319,
      "▁India.[[": 6320,
      "▁India](https://en.wikipedia.org/wiki/C": 6321,
      "▁सूचना": 6322,
      "ation,": 6323,
      "entury": 6324,
      "▁prom": 6325,
      "\\_c": 6326,
      "▁Central": 6327,
      "idy": 6328,
      "▁मध्य": 6329,
      "▁महासागर": 6330,
      "▁At": 6331,
      "](https://kn.wikipedia.org/wiki/C": 6332,
      "](https://kn.wikipedia.org/wiki/ನ": 6333,
      "adra": 6334,
      "adhy": 6335,
      "adras": 6336,
      "▁fam": 6337,
      "దేశం": 6338,
      "దేశాల": 6339,
      "దేశాలు": 6340,
      "స్\")": 6341,
      "vey": 6342,
      "uras": 6343,
      "\"),[[": 6344,
      "ర్‌": 6345,
      "ediff": 6346,
      "▁Park": 6347,
      "ानव": 6348,
      "comm": 6349,
      "rote": 6350,
      "र्ज": 6351,
      "▁2017.": 6352,
      "▁2012.": 6353,
      "▁2014.": 6354,
      "stribution": 6355,
      "ಭಾರತ\r\n": 6356,
      "లు?action=edit&redlink=1": 6357,
      "రాఠ": 6358,
      "]](https://en.wikipedia.org/wiki/India#cite_note-Combined": 6359,
      "▁కి": 6360,
      "▁కో": 6361,
      "▁Bi": 6362,
      "క్టో": 6363,
      "నియా": 6364,
      "▁వర్": 6365,
      "▁వారస": 6366,
      "10)": 6367,
      "103": 6368,
      "ign_": 6369,
      "irth": 6370,
      "ರ್‌": 6371,
      "ಲಿಷ್": 6372,
      "▁ಸಹ": 6373,
      "▁ಸರ್ಕ": 6374,
      "▁जी": 6375,
      "cts": 6376,
      "ల్వే": 6377,
      "content": 6378,
      "ालदीव": 6379,
      "▁ಮೋದಿ": 6380,
      "▁ಮೂರ": 6381,
      "pecially": 6382,
      "▁సరిహద్దు": 6383,
      "265": 6384,
      "267": 6385,
      "▁दशक": 6386,
      "▁Games": 6387,
      "▁మన": 6388,
      "▁మూ": 6389,
      "ेशन": 6390,
      "ेशिया": 6391,
      "▁ಪಡೆ": 6392,
      "▁H.": 6393,
      "ಗಳೆಂದರೆ": 6394,
      "ండమా": 6395,
      "▁only": 6396,
      "▁growth": 6397,
      "▁చిన్న": 6398,
      "_Act": 6399,
      "తాన": 6400,
      "ముఖ": 6401,
      "▁through": 6402,
      ".[[23": 6403,
      "▁religion": 6404,
      "▁near": 6405,
      "25.": 6406,
      "త్వం": 6407,
      "_of_India.svg": 6408,
      "ಸ್ವಾ": 6409,
      "ಸ್ಲಾ": 6410,
      "ಸ್ಟ್": 6411,
      "archive.org/detail": 6412,
      "▁des": 6413,
      "▁(సా.శ.14": 6414,
      "ులు,": 6415,
      "166": 6416,
      "–సా.శ.17": 6417,
      "▁ప్రతి": 6418,
      "▁ప్రస్తు": 6419,
      "▁ప్రకారం": 6420,
      "▁ప్రముఖ": 6421,
      "क्षर": 6422,
      "a](https://en.wikipedia.org/wiki/G": 6423,
      "_Commissioner": 6424,
      "AAJ": 6425,
      "षाण": 6426,
      "▁ಹಿಂದ": 6427,
      "ంచిన": 6428,
      "కుడు": 6429,
      "▁ಕೇಂದ್ರಾಡಳಿತ": 6430,
      "a_d": 6431,
      "a_Empire": 6432,
      "నుమ": 6433,
      "s](https://en.wikipedia.org/wiki/S": 6434,
      "▁ವ್ಯಾಪಾರ": 6435,
      "▁ನಾಗರೀಕ": 6436,
      "ింది.\r\n": 6437,
      "ರಿಕ": 6438,
      "▁\"Mughal": 6439,
      "▁రో": 6440,
      "▁రంగ": 6441,
      "▁రవాణా": 6442,
      "▁సాధించ": 6443,
      "▁ಅಮ": 6444,
      "▁ಅಥವಾ": 6445,
      "▁ಬಲ": 6446,
      "ష్టు": 6447,
      "▁शक्ति": 6448,
      "▁शिक्षा": 6449,
      "ತಿಯ": 6450,
      "काश": 6451,
      "▁within": 6452,
      "law": 6453,
      "osphere": 6454,
      "▁Press,": 6455,
      "▁differ": 6456,
      "ంతో": 6457,
      "▁\"Gross": 6458,
      "▁\"Template:": 6459,
      "▁తరువా": 6460,
      "పాలన": 6461,
      "ंडीगढ़": 6462,
      "▁लोग": 6463,
      "ನ್ನಡ": 6464,
      "ం](https://te.wikipedia.org/wiki/భారతీయ": 6465,
      "▁ಆಗ": 6466,
      "▁ಆರಂ": 6467,
      "గుర్": 6468,
      "నేషనల్": 6469,
      ",_కేంద్రపాలిత": 6470,
      "ಿತು.": 6471,
      "▁ప్రాంతం": 6472,
      "ಿಯಾ": 6473,
      "వందే": 6474,
      "▁ಇತ": 6475,
      "▁రాజ్యం](https://te.wikipedia.org/wiki/": 6476,
      "_General_": 6477,
      "▁क्षेत्रीय": 6478,
      "▁product": 6479,
      "▁బా": 6480,
      "▁బహు": 6481,
      "▁బెంగ": 6482,
      "▁पुरा": 6483,
      "ాల్లో": 6484,
      "ಮಿಝೋ": 6485,
      "▁ದೊಡ್ಡ": 6486,
      "जनसंख्या": 6487,
      "▁जनसंख्या": 6488,
      "▁ಚಿಹ್ನೆ": 6489,
      "శ్వా": 6490,
      "ారిటీ": 6491,
      "ಪಾಯಿ": 6492,
      "ಂಗ್ಲ": 6493,
      "ಂಗ್ಲಿಷ್": 6494,
      "▁ಪ್ರದೇಶ](https://kn.wikipedia.org/wiki/": 6495,
      "▁ಪ್ರದೇಶ\")\r\n": 6496,
      "▁वर्ग": 6497,
      "▁Anthem": 6498,
      "▁ప్రాంతాలు\")": 6499,
      "▁ಉಗ": 6500,
      "▁ಶೇ": 6501,
      "గోళ": 6502,
      "▁21.": 6503,
      "imf_12": 6504,
      "imf-12)": 6505,
      "1971": 6506,
      "▁code": 6507,
      "బడిన": 6508,
      "ughal_": 6509,
      "ಕಾಶ್ಮೀ": 6510,
      "_Lank": 6511,
      "handigarh": 6512,
      "▁ago": 6513,
      "తున్న": 6514,
      "▁especially": 6515,
      "న్నిక": 6516,
      "]](https://hi.wikipedia.org/wiki/भारत#cite_note-FOOTNOTEStein1998": 6517,
      "]](https://hi.wikipedia.org/wiki/भारत#cite_note-FOOTNOTESingh2009": 6518,
      "ಂಗಾಳ": 6519,
      "▁స్వాతంత్ర్య": 6520,
      "▁Commissioner,": 6521,
      "▁కాలంలో": 6522,
      "gistrar_General_": 6523,
      "ross_dom": 6524,
      "▁use": 6525,
      "Dyson2018),": 6526,
      "catal": 6527,
      "▁river": 6528,
      "▁ಹೊಂದಿದೆ.": 6529,
      "ంపి": 6530,
      "బెంగాల్": 6531,
      "ote:": 6532,
      "ಗೋಳ": 6533,
      "ెలవు": 6534,
      "](https://te.wikipedia.org/wiki/భారతదేశంలో_": 6535,
      "मुख्य": 6536,
      "estic_pro": 6537,
      "ೊಂಡಿ": 6538,
      "▁Buddhist": 6539,
      "List_of_countries_by_GDP_(PPP)": 6540,
      "_Index": 6541,
      "ಧಾನಮಂತ್ರಿ": 6542,
      "ಸುತ್ತ": 6543,
      "▁groups": 6544,
      "▁ವರ್ಷ": 6545,
      "▁स्थित": 6546,
      "▁అధికారిక": 6547,
      "text": 6548,
      "▁2018](https://en.wikipedia.org/wiki/India#CITEREFDyson2018),": 6549,
      "▁ಭಾಗ": 6550,
      "[[೧೨]](https://kn.wikipedia.org/wiki/ಭಾರತ#cite_note-": 6551,
      "▁ವ್ಯವಸ್ಥೆ": 6552,
      "ఆర్ధిక": 6553,
      "▁పట్టణ": 6554,
      "▁కాశ్మీరు": 6555,
      "_Development_Index": 6556,
      "▁Minorities": 6557,
      "ంగ్లీషు": 6558,
      "ಮಾನ್": 6559,
      "▁increased": 6560,
      "▁ಮಿಲಿಯನ್": 6561,
      "▁ಬ್ರಿಟಿ": 6562,
      "](https://kn.wikipedia.org/wiki/ಭಾರತ#cite_ref-imf_12": 6563,
      "त्तराखण्ड": 6564,
      "](https://en.wikipedia.org/wiki/History_of_": 6565,
      "▁ಸಿರಿವಂತ": 6566,
      "▁ಪ್ರಪಂಚದ": 6567,
      "▁అయిన": 6568,
      "▁రెండు": 6569,
      "violence": 6570,
      "ాల్దీవులు": 6571,
      "ట్రో": 6572,
      "ుల్తాన": 6573,
      "ouncil": 6574,
      "రాష్ట్రాలు,_కేంద్రపాలిత": 6575,
      "దినోత్సవం": 6576,
      "▁వ్యాసం:": 6577,
      "▁ಕೆಲ": 6578,
      "▁ಎನ್.ಡಿ.ಎ": 6579,
      "▁अप्रैल": 6580,
      "▁remain": 6581,
      "हिमाचल": 6582,
      "▁लेख:": 6583,
      "\\_of\\_": 6584,
      "_Census_Commissioner": 6585,
      "ార్లమెంట": 6586,
      "▁शताब्दी": 6587,
      "▁./వర్గం:Wikipedia\\_articles\\_with\\_": 6588,
      "▁ఏర్ప": 6589,
      "▁Quote:": 6590,
      "ZvaGuaJIJgoC&pg=PA": 6591,
      "ఆంధ్రప్రదేశ్": 6592,
      "లయాళ": 6593,
      "ವಣಿಗೆ": 6594,
      "▁ಓಟು": 6595,
      "▁ಸರ್ಕಾರ": 6596,
      "ಸ್ವಾತಂತ್ರ್ಯ": 6597,
      "archive.org/details/": 6598,
      "▁ಆರಂಭ": 6599,
      "ross_domestic_pro": 6600,
      "[[೧೨]](https://kn.wikipedia.org/wiki/ಭಾರತ#cite_note-imf-12)": 6601,
      "రాష్ట్రాలు,_కేంద్రపాలిత_ప్రాంత": 6602,
      "ross_domestic_product": 6603,
      "1%20": 6604,
      "61)": 6605,
      "Official": 6606,
      "Test": 6607,
      "_50": 6608,
      "_World": 6609,
      "po": 6610,
      "dicat": 6611,
      "▁(2011": 6612,
      "ref-10": 6613,
      "note-10": 6614,
      "▁top": 6615,
      "▁ele": 6616,
      "_Agency": 6617,
      "▁Library": 6618,
      "353": 6619,
      "ogn": 6620,
      "orthographic": 6621,
      "▁[International": 6622,
      "▁\"Official": 6623,
      "_projection": 6624,
      "hār": 6625,
      "dicator": 6626,
      "orthographic_projection": 6627,
      ",&": 6628,
      ",4": 6629,
      "/hindi": 6630,
      "123": 6631,
      "1-3": 6632,
      "577": 6633,
      "72": 6634,
      "7]](https://en.wikipedia.org/wiki/India#cite_note-": 6635,
      "9/": 6636,
      "91": 6637,
      "9]](https://en.wikipedia.org/wiki/India#cite_note-": 6638,
      ";[[": 6639,
      "Alig": 6640,
      "EX": 6641,
      "Ex": 6642,
      "Front": 6643,
      "_on": 6644,
      "_राज": 6645,
      "_18": 6646,
      "_2024": 6647,
      "_house": 6648,
      "ather": 6649,
      "ault": 6650,
      "baki": 6651,
      "c/": 6652,
      "che": 6653,
      "caste": 6654,
      "cbi": 6655,
      "dd": 6656,
      "economy": 6657,
      "each": 6658,
      "ethnologue": 6659,
      "gi": 6660,
      "hak": 6661,
      "hut": 6662,
      "ka": 6663,
      "kb": 6664,
      "khand": 6665,
      "ncbi": 6666,
      "ode": 6667,
      "page": 6668,
      "rance": 6669,
      "subcontinent": 6670,
      "tandard": 6671,
      "var": 6672,
      "vent": 6673,
      "को": 6674,
      "गत": 6675,
      "गू": 6676,
      "टा": 6677,
      "तृत": 6678,
      "म\")": 6679,
      "वल": 6680,
      "श्य": 6681,
      "षय": 6682,
      "हरा": 6683,
      "हित": 6684,
      "िनेमा": 6685,
      "ी.": 6686,
      "ृद्ध": 6687,
      "ेघ": 6688,
      "orship": 6689,
      "http://": 6690,
      ".org/en": 6691,
      "▁[ग": 6692,
      "ences": 6693,
      "▁\"तमिल": 6694,
      "inan": 6695,
      "inem": 6696,
      "anad": 6697,
      "](https://en.wikipedia.org/wiki/World": 6698,
      "arl": 6699,
      "artition": 6700,
      "him": 6701,
      "the-world": 6702,
      "](https://hi.wikipedia.org/wiki/ल": 6703,
      "▁(ed.).": 6704,
      "▁(PPP)": 6705,
      "](https://en.wikipedia.org/wiki/Indian": 6706,
      "lege": 6707,
      "▁India*.": 6708,
      "ed,": 6709,
      "ederal": 6710,
      "▁सक": 6711,
      "ately": 6712,
      "lima": 6713,
      "atri": 6714,
      "▁popul": 6715,
      "▁sur": 6716,
      "▁Chand": 6717,
      "्यों": 6718,
      "▁All": 6719,
      "▁States": 6720,
      "ango": 6721,
      "angam": 6722,
      "ichell": 6723,
      "▁100": 6724,
      "umar": 6725,
      "url": 6726,
      "78.": 6727,
      "very": 6728,
      "ull": 6729,
      "stani": 6730,
      "▁work": 6731,
      "ourbaki": 6732,
      "▁Rothermund": 6733,
      "▁Muslim": 6734,
      "oln": 6735,
      "iland": 6736,
      "rest": 6737,
      "▁अव": 6738,
      "▁Dictionary": 6739,
      "▁By": 6740,
      ".jpe": 6741,
      "50th": 6742,
      "▁1901": 6743,
      "al_T": 6744,
      "University": 6745,
      "260": 6746,
      "▁hum": 6747,
      "115": 6748,
      "_industry": 6749,
      "-415": 6750,
      "▁gen": 6751,
      "▁प्रेस": 6752,
      "▁प्रौद्योगिक": 6753,
      "्वतंत्रता": 6754,
      "archive\\_template": 6755,
      "ubram": 6756,
      "ritsch": 6757,
      "▁International": 6758,
      "406]](https://en.wikipedia.org/wiki/India#cite_note-": 6759,
      "▁\"Cambridge": 6760,
      "▁व्य": 6761,
      "ndhra": 6762,
      "harkhand": 6763,
      "▁Languages": 6764,
      "ott": 6765,
      "270": 6766,
      "▁before": 6767,
      "▁[Cambridge": 6768,
      "▁[978-0-521": 6769,
      "▁original](http://www.": 6770,
      "▁[↑](https://en.wikipedia.org/wiki/India#cite_ref-FOOTNOTEStein2010": 6771,
      "](https://en.wikipedia.org/wiki/South_Asian": 6772,
      "olitical": 6773,
      "▁संसद": 6774,
      "lative": 6775,
      "ियार": 6776,
      "aith": 6777,
      "_Mah": 6778,
      "48)": 6779,
      "](https://en.wikipedia.org/wiki/British": 6780,
      "arden": 6781,
      "▁लोक": 6782,
      "iley": 6783,
      "▁राज्य\")": 6784,
      "aking": 6785,
      "akistani": 6786,
      "▁range": 6787,
      "ureau": 6788,
      "vention": 6789,
      "हाय": 6790,
      "परमाणु": 6791,
      "ोलन": 6792,
      "onstitution_of_India": 6793,
      "o-operation": 6794,
      "ambridge_University_Press": 6795,
      "▁(2014).": 6796,
      "on-Alig": 6797,
      "▁जाती": 6798,
      "▁राजवंश": 6799,
      "▁स्था": 6800,
      "▁स्थान": 6801,
      "troduction": 6802,
      "aceu": 6803,
      "ज्ज": 6804,
      "▁vill": 6805,
      "▁coast": 6806,
      "-factbook": 6807,
      "▁2007](https://en.wikipedia.org/wiki/India#CITEREF": 6808,
      "▁population\"))": 6809,
      "1947)": 6810,
      "▁प्राचीन": 6811,
      "4/4": 6812,
      "ollingham": 6813,
      "▁था।": 6814,
      "▁धर्म\")": 6815,
      "▁2024.": 6816,
      "c=0&": 6817,
      ".nlm": 6818,
      "▁[Office": 6819,
      "▁political": 6820,
      "ांग्लादेश": 6821,
      "attle": 6822,
      "▁capita\"))": 6823,
      "▁[India](https://en.wikipedia.org/wiki/India": 6824,
      "olkata": 6825,
      "▁house\")": 6826,
      "Convert": 6827,
      "tiger": 6828,
      "ilgrim": 6829,
      "langoff-1": 6830,
      "vatsyayan-lord-4": 6831,
      "vatsyayan-lord_43": 6832,
      "महाद्वीप": 6833,
      "cheduled": 6834,
      "▁\"हिन्दी\")": 6835,
      "▁including": 6836,
      "Hindustan": 6837,
      "Human_Development_Index": 6838,
      "issile": 6839,
      "▁mi)": 6840,
      "merican": 6841,
      "owever,": 6842,
      "Pages\\_using\\_infobox\\_country\\_with\\_": 6843,
      "▁पहले": 6844,
      "harmaceu": 6845,
      "Webarchive\\_template": 6846,
      "do-Pakistani": 6847,
      ".nih": 6848,
      ".net/": 6849,
      "▁[हिन्दी](https://hi.wikipedia.org/wiki/हिन्दी": 6850,
      "arliest": 6851,
      "hmedabad": 6852,
      "▁चुनावों": 6853,
      "-language\\_sources\\_(en)\r\n": 6854,
      "kZVuDwAAQBAJ&pg=PA": 6855,
      "▁सैन्य": 6856,
      "▁Press](https://en.wikipedia.org/wiki/Cambridge_University_Press": 6857,
      "urasian": 6858,
      "▁product\")": 6859,
      "ethnologue.com/": 6860,
      "hutan": 6861,
      "ncbi.nlm": 6862,
      "inancial": 6863,
      "the-world-factbook": 6864,
      "406]](https://en.wikipedia.org/wiki/India#cite_note-vatsyayan-lord-4": 6865,
      "on-Aligned": 6866,
      "Pages\\_using\\_infobox\\_country\\_with\\_unknown\\_parameters#": 6867,
      "Webarchive\\_template\\_": 6868,
      "ncbi.nlm.nih": 6869,
      "\"](https://web.archive.org/web/20": 6870,
      ".t": 6871,
      "1.\r\n": 6872,
      ":IN": 6873,
      "BE": 6874,
      "national_": 6875,
      "▁₹": 6876,
      "▁4.": 6877,
      "kil": 6878,
      "▁[28": 6879,
      "indicator": 6880,
      "ricity": 6881,
      "▁India\"](https://": 6882,
      "ital": 6883,
      "21,0": 6884,
      "▁Bengali": 6885,
      "108": 6886,
      "2221": 6887,
      "ritten": 6888,
      "▁original](http://": 6889,
      "▁\"New": 6890,
      "1,93,": 6891,
      "\")*\r\n": 6892,
      "data.worldbank.org/": 6893,
      ".php?": 6894,
      "ublications/": 6895,
      "▁adopted": 6896,
      "21,01,93,": 6897,
      "data.worldbank.org/indicator": 6898,
      "21,01,93,422": 6899,
      "%3": 6900,
      ",85": 6901,
      "-F": 6902,
      "-India": 6903,
      "-the": 6904,
      "-ex": 6905,
      ".c": 6906,
      "5]](https://en.wikipedia.org/wiki/India#cite_note-": 6907,
      "9]](https://en.wikipedia.org/wiki/India#cite_note-FOOTNOTE": 6908,
      "Col": 6909,
      "Chennai": 6910,
      "Collingham": 6911,
      "F)": 6912,
      "Language": 6913,
      "M50th": 6914,
      "NCL": 6915,
      "Pakistan": 6916,
      "Pradesh": 6917,
      "S$": 6918,
      "Sanskrit": 6919,
      "TO": 6920,
      "Template": 6921,
      "Tarlo": 6922,
      "Un": 6923,
      "_घ": 6924,
      "_द": 6925,
      "_con": 6926,
      "_14": 6927,
      "_వి": 6928,
      "_to": 6929,
      "_కాశ్మీ": 6930,
      "atp": 6931,
      "business": 6932,
      "bhasha": 6933,
      "d=": 6934,
      "gu": 6935,
      "ges": 6936,
      "jpg": 6937,
      "mit": 6938,
      "mill": 6939,
      "odia": 6940,
      "ren": 6941,
      "ral": 6942,
      "rune": 6943,
      "round": 6944,
      "tw": 6945,
      "yth": 6946,
      "yer": 6947,
      "zer": 6948,
      "ंत": 6949,
      "अभि": 6950,
      "क्": 6951,
      "खन": 6952,
      "गान": 6953,
      "ग्व": 6954,
      "च्": 6955,
      "जं": 6956,
      "टान": 6957,
      "थिल": 6958,
      "दार": 6959,
      "फोर्ड": 6960,
      "ब्ल": 6961,
      "बेट": 6962,
      "भु": 6963,
      "मु": 6964,
      "यत": 6965,
      "यर": 6966,
      "रत": 6967,
      "लंग": 6968,
      "लयाल": 6969,
      "वास": 6970,
      "ेड": 6971,
      "ैंक": 6972,
      "ैथिल": 6973,
      "ॉल": 6974,
      "ॉंग्रेस": 6975,
      "ोस": 6976,
      "ौसेना": 6977,
      "१८": 6978,
      "२००": 6979,
      "ంస్కృ": 6980,
      "ఉత్తరా": 6981,
      "ఖో": 6982,
      "ఘాలయ": 6983,
      "చ్": 6984,
      "టై": 6985,
      "టర్": 6986,
      "డమ్": 6987,
      "డఖ్": 6988,
      "ణే": 6989,
      "ణంగా": 6990,
      "తే": 6991,
      "తెల": 6992,
      "దరంగ": 6993,
      "నో": 6994,
      "నంద": 6995,
      "బర్": 6996,
      "బార్": 6997,
      "యె": 6998,
      "రె": 6999,
      "లడఖ్": 7000,
      "ళా": 7001,
      "ళి": 7002,
      "శు": 7003,
      "హించ": 7004,
      "ుకు": 7005,
      "ెన్న": 7006,
      "ెట్రో": 7007,
      "ేతి": 7008,
      "ేఘాలయ": 7009,
      "ైనిక": 7010,
      "ొగలు": 7011,
      "ోళ": 7012,
      "‌కా": 7013,
      "‌మహ": 7014,
      "▁°": 7015,
      "▁ఐ": 7016,
      "▁ఖ": 7017,
      "▁–సా.శ.": 7018,
      "▁భారతీయ": 7019,
      "▁38": 7020,
      "▁46": 7021,
      "▁eng": 7022,
      "▁old": 7023,
      "▁ईसा": 7024,
      "▁kingdom": 7025,
      "▁[Y": 7026,
      "▁[n": 7027,
      "▁[ड": 7028,
      "▁[ल": 7029,
      "▁[Re": 7030,
      "▁[రాష్ట్ర": 7031,
      "▁[జన": 7032,
      "▁[గో": 7033,
      "▁[दक्षिण": 7034,
      "▁[पाकिस्तान": 7035,
      "▁\"పా": 7036,
      "▁\"జన": 7037,
      "▁\"గో": 7038,
      "▁\"दक्षिण": 7039,
      "▁\"మూస:": 7040,
      "▁\"पाकिस्तान": 7041,
      "ino-": 7042,
      "anat": 7043,
      "anchi": 7044,
      "ont": 7045,
      "tile": 7046,
      "ties/": 7047,
      "eri": 7048,
      "arth": 7049,
      "arsh": 7050,
      "cip": 7051,
      "ofker": 7052,
      "omo": 7053,
      "](https://hi.wikipedia.org/wiki/न": 7054,
      "](https://hi.wikipedia.org/wiki/पाकिस्तान": 7055,
      "and_Census_Commissioner": 7056,
      "](https://te.wikipedia.org/wiki/B": 7057,
      "](https://te.wikipedia.org/wiki/G": 7058,
      "](https://te.wikipedia.org/wiki/భారతదేశ": 7059,
      "](https://te.wikipedia.org/wiki/గో": 7060,
      "](https://te.wikipedia.org/wiki/మూస:": 7061,
      "asthan": 7062,
      "ారస్వ": 7063,
      "भारत)": 7064,
      "▁साल": 7065,
      "aten": 7066,
      "acmill": 7067,
      "liance": 7068,
      "am,": 7069,
      "atna": 7070,
      "ataraj": 7071,
      "ets": 7072,
      "▁pan": 7073,
      "▁sty": 7074,
      "▁school": 7075,
      "ాలె": 7076,
      "▁can": 7077,
      "ager": 7078,
      "▁मो": 7079,
      "▁मौ": 7080,
      "-1\").\r\n": 7081,
      "ingap": 7082,
      "▁fe": 7083,
      "▁four": 7084,
      "▁fol": 7085,
      "▁Society": 7086,
      "స్ట": 7087,
      "స్వాతంత్ర్య": 7088,
      "राम": 7089,
      "angered": 7090,
      "▁పర": 7091,
      "▁పండు": 7092,
      "lock": 7093,
      "ical_": 7094,
      "▁17.": 7095,
      "urk": 7096,
      "urry": 7097,
      "▁man": 7098,
      "▁main": 7099,
      "fir": 7100,
      "well": 7101,
      "_of_Congress": 7102,
      "ratic": 7103,
      "](https://hi.wikipedia.org/wiki/भारत_के": 7104,
      "FOOTNOTENational_Informatics_Centre2005": 7105,
      "uni": 7106,
      "▁would": 7107,
      "లు](https://te.wikipedia.org/wiki/": 7108,
      "▁Temple": 7109,
      "▁Routledge": 7110,
      "రాన్": 7111,
      "రాస్య": 7112,
      "▁Minister": 7113,
      "▁Machine": 7114,
      "▁కే": 7115,
      "▁కోర్": 7116,
      "▁B.": 7117,
      "▁B.;": 7118,
      "త్రిక": 7119,
      "క్స్": 7120,
      "క్కి": 7121,
      "▁వె": 7122,
      "▁వంట": 7123,
      "▁\"Sanskrit": 7124,
      "▁1962": 7125,
      "▁*India": 7126,
      "_की_": 7127,
      "ంగో": 7128,
      "▁సముద్ర": 7129,
      "▁సూచ": 7130,
      "▁సౌక": 7131,
      "269,": 7132,
      "▁Greek": 7133,
      "bert": 7134,
      "▁N.": 7135,
      "▁Nicobar": 7136,
      "్రామ": 7137,
      "▁Health": 7138,
      "287,": 7139,
      "_in_New": 7140,
      "ండా": 7141,
      "ండీ": 7142,
      "ండ్య": 7143,
      "-459": 7144,
      "ngineering": 7145,
      "▁भारत\")": 7146,
      "▁ge": 7147,
      "22)": 7148,
      "abha": 7149,
      "_Ar": 7150,
      "_A7C": 7151,
      "తాజ్": 7152,
      "▁third": 7153,
      "నాథ": 7154,
      "aph": 7155,
      "▁relations": 7156,
      "త్వా": 7157,
      "1991": 7158,
      "▁[SAARC": 7159,
      "▁dynasty": 7160,
      "▁(సా.శ.16": 7161,
      "▁(సా.శ.17": 7162,
      "ులు?action=edit&redlink=1": 7163,
      "–సా.శ.19": 7164,
      "▁అభి": 7165,
      "▁\"Chin": 7166,
      "▁ప్రజా": 7167,
      "▁Organization": 7168,
      "తం?action=edit&redlink=1": 7169,
      "▁आर्थिक": 7170,
      "పూర్": 7171,
      "▁[Ch": 7172,
      "ప్రిల్": 7173,
      "▁[978-81": 7174,
      "hailand": 7175,
      "▁ఉంట": 7176,
      "▁ఉత్తర": 7177,
      "](https://books.google.com/books?id=3TRtDwAAQBAJ&pg=PA": 7178,
      "▁dem": 7179,
      "▁deci": 7180,
      "ड़ियाँ": 7181,
      "▁సామా": 7182,
      "వాద": 7183,
      "▁उन": 7184,
      "_and_union_territ": 7185,
      "విధ": 7186,
      "2011religion": 7187,
      "ార్ఖండ్": 7188,
      "క్షరాస్య": 7189,
      "▁\"Special:BookSources/978-81": 7190,
      "](Special:BookSources/978-81": 7191,
      "olicy": 7192,
      "ogri": 7193,
      "-53": 7194,
      "काता": 7195,
      "](https://en.wikipedia.org/wiki/Ch": 7196,
      "▁इंडिया": 7197,
      "ी](https://hi.wikipedia.org/wiki/द": 7198,
      "](https://en.wikipedia.org/wiki/Mughal_": 7199,
      "▁now": 7200,
      "_March": 7201,
      "పుర": 7202,
      "▁నడి": 7203,
      "▁ఇండియా": 7204,
      "▁areas": 7205,
      "ंडोन": 7206,
      "▁contin": 7207,
      "ambodia": 7208,
      "ameez": 7209,
      "▁राज्यक्षेत्र": 7210,
      "%2C_India": 7211,
      "▁Ved": 7212,
      "▁विस्त": 7213,
      "▁विदेश": 7214,
      "33-7": 7215,
      "గుప్": 7216,
      "డుకు": 7217,
      "నేషియా": 7218,
      "articles/": 7219,
      "▁[![The": 7220,
      "49-2": 7221,
      "clar": 7222,
      "ంగాణ": 7223,
      "▁జన": 7224,
      "లియా": 7225,
      "▁ప్రాచ": 7226,
      "▁విభ": 7227,
      "▁వివిధ": 7228,
      "ंग्रेजी": 7229,
      "eccan": 7230,
      "ोलकाता": 7231,
      "▁సంఘ": 7232,
      "ports": 7233,
      "ंध्र": 7234,
      "▁अन्त": 7235,
      "_Goa": 7236,
      "▁क्षेत्रों": 7237,
      "▁like": 7238,
      "feb": 7239,
      "ండిచ్చేరి": 7240,
      "▁नेतृत": 7241,
      "_River": 7242,
      "ody": 7243,
      "amese": 7244,
      "केन्द्र": 7245,
      "तेलंग": 7246,
      "Asher2006": 7247,
      "AsherAsher2006": 7248,
      "▁\"अंग्रेज़ी": 7249,
      "▁[Kulke": 7250,
      "▁led": 7251,
      "▁lead": 7252,
      "_128": 7253,
      "జీరియా": 7254,
      "do-G": 7255,
      "_Force": 7256,
      "ంకేతి": 7257,
      "▁देश\")": 7258,
      "▁जनवरी": 7259,
      "వేలీ": 7260,
      "हरिया": 7261,
      "ूर्वी": 7262,
      "alaysia": 7263,
      "DwAAQBAJ": 7264,
      "national-language": 7265,
      "पुरम": 7266,
      "▁मेला\"),": 7267,
      "ंग्रेज़ी_भाषा": 7268,
      "–సా.శ.పూ.3": 7269,
      "िशा": 7270,
      "ological": 7271,
      "బియా": 7272,
      "ukesh": 7273,
      "▁coefficient": 7274,
      "ynth": 7275,
      "డామన్": 7276,
      "▁రాష్ట్రపతి": 7277,
      "oney": 7278,
      "▁२०१": 7279,
      "▁agriculture": 7280,
      "త్రిపుర": 7281,
      "_కాల": 7282,
      "समिया": 7283,
      "▁plain": 7284,
      "▁change": 7285,
      "athematics": 7286,
      "hattis": 7287,
      "ographical": 7288,
      "▁రైల్వే": 7289,
      "ज्ञाप": 7290,
      "య్యూ": 7291,
      "▁Pradesh\")": 7292,
      "न्नई": 7293,
      "త్తీస్": 7294,
      "▁ప్రదేశ్](https://te.wikipedia.org/wiki/": 7295,
      "▁[Archived](https://web.archive.org/web/20210": 7296,
      "बंधन": 7297,
      "నాగాలా": 7298,
      "indhi": 7299,
      "▁पुरालेखित।,": 7300,
      "▁\"జమ్మూ": 7301,
      "▁1,210": 7302,
      "▁Chinese": 7303,
      ".png)\r\n": 7304,
      "–123": 7305,
      "▁పాకిస్తాన్": 7306,
      "▁These": 7307,
      "▁subcontinent\")": 7308,
      "కోవ": 7309,
      "కోబార్": 7310,
      "](https://te.wikipedia.org/wiki/జమ్మూ": 7311,
      "ల్లవ": 7312,
      "▁2020.": 7313,
      "rishna": 7314,
      "▁मानसून": 7315,
      "_और_संघ": 7316,
      "nergy": 7317,
      "▁Force": 7318,
      "local_": 7319,
      "▁युग": 7320,
      "रक्षा": 7321,
      "वादी": 7322,
      "▁species": 7323,
      "▁स्वतंत्रता": 7324,
      "_के_आधार_पर_भारत_के_राज्यों_की_सूची": 7325,
      "రేబియా": 7326,
      "_from": 7327,
      "f/f": 7328,
      "▁rock": 7329,
      "▁\"Registrar": 7330,
      "▁2025.": 7331,
      "టాక్": 7332,
      "▁People": 7333,
      "▁మాత్ర": 7334,
      "్రిటిష్": 7335,
      "चेन्नई": 7336,
      "▁बहुत": 7337,
      "వెను": 7338,
      "ూచి": 7339,
      "sites/": 7340,
      "భారతదేశ_రాష్ట్రాలు,_కేంద్రపాలిత_ప్రాంత": 7341,
      "▁contrib": 7342,
      "पीठ": 7343,
      "_of_South_Asia": 7344,
      "chedule": 7345,
      "...]": 7346,
      "ప్పటిక": 7347,
      ".htm)": 7348,
      "culpture": 7349,
      "▁emerg": 7350,
      "▁(1,269,": 7351,
      "al_in_March": 7352,
      "/articleshow/5": 7353,
      "లేషియా": 7354,
      "ominion": 7355,
      "▁majority": 7356,
      "▁మొదల": 7357,
      "Spear199024": 7358,
      "Taj_Mah": 7359,
      "क्सफोर्ड": 7360,
      "▁medium": 7361,
      "▁निर्माण": 7362,
      "▁occup": 7363,
      "Report.pdf)": 7364,
      "Sharma2007": 7365,
      "ద్యు": 7366,
      "त्रिपुरा": 7367,
      "▁చిత్ర": 7368,
      "ద్వీప్": 7369,
      "▁ఉపఖండ": 7370,
      "▁దేశంలోని": 7371,
      "▁కాంగ్రెసు": 7372,
      "ఆగష్టు": 7373,
      "లక్షద్వీప్": 7374,
      "హాయం:": 7375,
      "ీకరణ": 7376,
      "ోల్‌కా": 7377,
      "మిజోరా": 7378,
      "तेलुगू": 7379,
      "lurton1993": 7380,
      "ravidian": 7381,
      "▁3,287,": 7382,
      "भीमबेट": 7383,
      "▁employed": 7384,
      "झारखंड": 7385,
      "ర్యానా": 7386,
      "▁[ఢిల్లీ](https://te.wikipedia.org/wiki/ఢిల్లీ": 7387,
      "razil": 7388,
      "టిబెట్": 7389,
      "మెరికా": 7390,
      "nclm.nic.in/shared/linkimages/NCL": 7391,
      "Census2011religion": 7392,
      "छत्तीसगढ़": 7393,
      "िंधु": 7394,
      "▁मुख्य": 7395,
      "lothing": 7396,
      "parliamentofindia": 7397,
      "ब्बत": 7398,
      "▁widely": 7399,
      "▁[अंग्रेज़ी](https://hi.wikipedia.org/wiki/अंग्रेज़ी_भाषा": 7400,
      "Home_Affairs": 7401,
      "IFT": 7402,
      "బడ్డీ": 7403,
      "ేరళ": 7404,
      "▁ओर": 7405,
      "reedom": 7406,
      "▁कुछ": 7407,
      "్రైస్త": 7408,
      "ండమాన్": 7409,
      "_Lanka": 7410,
      "gistrar_General_and_Census_Commissioner": 7411,
      "ెలవుదిన": 7412,
      "olnar": 7413,
      "M50thReport.pdf)": 7414,
      "Tarlo1996": 7415,
      "runei": 7416,
      "अभिज्ञाप": 7417,
      "च्छ": 7418,
      "తెలంగాణ": 7419,
      "ెన్నై": 7420,
      "‌మహల్": 7421,
      "acmillan": 7422,
      "ingapore": 7423,
      "_in_New_Delhi": 7424,
      "తాజ్‌మహల్": 7425,
      "_and_union_territories": 7426,
      "క్షరాస్యత": 7427,
      "तेलंगाना": 7428,
      "నాగాలాండ్": 7429,
      "](https://te.wikipedia.org/wiki/జమ్మూ_కాశ్మీ": 7430,
      "al_in_March_2004": 7431,
      "Taj_Mahal_in_March_2004": 7432,
      "ోల్‌కాతా": 7433,
      "भीमबेटका": 7434,
      "nclm.nic.in/shared/linkimages/NCLM50thReport.pdf)": 7435,
      "gistrar_General_and_Census_Commissioner_of_India": 7436,
      "अभिज्ञापक": 7437,
      ",24": 7438,
      "/3": 7439,
      "430": 7440,
      "5/5": 7441,
      "English": 7442,
      "Flag": 7443,
      "LD": 7444,
      "Monetary": 7445,
      "bate": 7446,
      "orse": 7447,
      "▁\"ISO": 7448,
      "es.": 7449,
      "▁script": 7450,
      "\\_in": 7451,
      "▁Studies": 7452,
      "▁1971": 7453,
      "▁lists": 7454,
      "former": 7455,
      "▁growing": 7456,
      "▁[\"World": 7457,
      "27.": 7458,
      "ternet": 7459,
      "censusindia": 7460,
      "_power": 7461,
      "urrency": 7462,
      "_Organisation": 7463,
      "loc.gov/": 7464,
      "documents/": 7465,
      "ternational_Monetary": 7466,
      "entral_In": 7467,
      "ognised": 7468,
      "ternational_Monetary_Fund": 7469,
      ",_India": 7470,
      "-w": 7471,
      "-no": 7472,
      "-II": 7473,
      "-logo": 7474,
      ".edu": 7475,
      "0/0": 7476,
      "1]](https://en.wikipedia.org/wiki/India#cite_note-": 7477,
      "2),": 7478,
      "226": 7479,
      "3–": 7480,
      "418": 7481,
      "5-3": 7482,
      "58)": 7483,
      "6.\r\n": 7484,
      "6)\r\n": 7485,
      "7-8": 7486,
      "96": 7487,
      "Al": 7488,
      "Allchin": 7489,
      "Countries": 7490,
      "Constituent": 7491,
      "EN": 7492,
      "Forest": 7493,
      "Jha": 7494,
      "Mumbai": 7495,
      "Petraglia": 7496,
      "Ram": 7497,
      "States": 7498,
      "Th": 7499,
      "Wright": 7500,
      "\\*": 7501,
      "_0": 7502,
      "_इ": 7503,
      "_श": 7504,
      "_धर्म": 7505,
      "aci": 7506,
      "cu": 7507,
      "cet": 7508,
      "dy": 7509,
      "g)": 7510,
      "ij": 7511,
      "ix": 7512,
      "ield": 7513,
      "janta": 7514,
      "lation": 7515,
      "men": 7516,
      "mall": 7517,
      "tou": 7518,
      "tation": 7519,
      "u,": 7520,
      "ui": 7521,
      "uries": 7522,
      "vil": 7523,
      "wan": 7524,
      "ँची": 7525,
      "अंग्रेज़ी": 7526,
      "उप": 7527,
      "एन": 7528,
      "गलु": 7529,
      "टना": 7530,
      "तन": 7531,
      "द्वार": 7532,
      "पार": 7533,
      "भग": 7534,
      "मरी": 7535,
      "रि": 7536,
      "स्व": 7537,
      "ेद": 7538,
      "ेल": 7539,
      "ोला": 7540,
      "▁औ": 7541,
      "▁ve": 7542,
      "▁भा": 7543,
      "▁40": 7544,
      "▁7.": 7545,
      "▁ले": 7546,
      "▁ob": 7547,
      "▁known": 7548,
      "▁भाग": 7549,
      "dira": 7550,
      "digen": 7551,
      "orb": 7552,
      "orm": 7553,
      "](https://id": 7554,
      "▁[य": 7555,
      "▁[ह": 7556,
      "enj": 7557,
      "▁\"य": 7558,
      "\")+": 7559,
      "in-": 7560,
      "onk": 7561,
      "tification": 7562,
      "alace": 7563,
      "alk:": 7564,
      "ester": 7565,
      "reen": 7566,
      "official": 7567,
      "](https://hi.wikipedia.org/wiki/दक्षिण": 7568,
      "](https://hi.wikipedia.org/wiki/तमिल": 7569,
      "▁काल": 7570,
      "▁कॉंग्रेस": 7571,
      "anda": 7572,
      "▁(b": 7573,
      "▁(2007": 7574,
      "▁(India)": 7575,
      "riy": 7576,
      "rian": 7577,
      "ries/": 7578,
      "्रय": 7579,
      "asht": 7580,
      "2013": 7581,
      "भारतीय": 7582,
      "▁India](https://en.wikipedia.org/wiki/S": 7583,
      "▁India\").[[": 7584,
      "▁सभा": 7585,
      "▁सित": 7586,
      "▁समाज": 7587,
      "▁inter": 7588,
      "▁independence": 7589,
      "sider": 7590,
      "acred": 7591,
      "etwork": 7592,
      "▁prac": 7593,
      "-0\").\r\n": 7594,
      "▁cal": 7595,
      "▁cre": 7596,
      "▁मई": 7597,
      "▁मन": 7598,
      "▁मह": 7599,
      "▁मिल": 7600,
      "▁मशीन": 7601,
      "-138": 7602,
      "▁based": 7603,
      "▁buil": 7604,
      "lose": 7605,
      "▁talk:": 7606,
      "▁men": 7607,
      "▁milk": 7608,
      "▁military": 7609,
      "▁millennium": 7610,
      "field": 7611,
      "ेंगलु": 7612,
      "roco": 7613,
      "itation": 7614,
      "र्ध": 7615,
      "heel": 7616,
      "](https://hi.wikipedia.org/wiki/भारत_के_राज्य": 7617,
      "▁[↑](https://en.wikipedia.org/wiki/India#cite_": 7618,
      "FOOTNOTEWolpert2003": 7619,
      "्तु": 7620,
      "▁Te": 7621,
      "▁Trade": 7622,
      "▁Ram": 7623,
      "](https://en.wikipedia.org/wiki/India#cite_ref-vatsyayan-lord_43": 7624,
      "▁Michael": 7625,
      "dem": 7626,
      "ilbert": 7627,
      "▁में,": 7628,
      "india.com/": 7629,
      "age.": 7630,
      "▁अभ": 7631,
      "▁Dance": 7632,
      "oung": 7633,
      "107": 7634,
      "_(भारत)": 7635,
      "igration": 7636,
      "▁\"Special:EditPage/Template:": 7637,
      "▁last": 7638,
      "aylight": 7639,
      "▁जब": 7640,
      "lymp": 7641,
      "▁[↑](https://en.wikipedia.org/wiki/India#cite_ref-3": 7642,
      "▁east": 7643,
      "▁Economy": 7644,
      "▁Emer": 7645,
      "▁द्वीप": 7646,
      "▁Ganges": 7647,
      "▁Gujarat": 7648,
      "beral": 7649,
      "opland": 7650,
      "ountries/": 7651,
      "-4\").\r\n": 7652,
      "▁gar": 7653,
      "▁नव": 7654,
      "ablish": 7655,
      "▁2007.": 7656,
      "1857": 7657,
      "tual": 7658,
      "▁Franci": 7659,
      ".[[4": 7660,
      "akers": 7661,
      "▁reg": 7662,
      "_से": 7663,
      "_साम": 7664,
      "](https://en.wikipedia.org/wiki/India#CITEREFM": 7665,
      "ell": 7666,
      "1999": 7667,
      "▁[Singh": 7668,
      "40px-": 7669,
      "▁\"Climate": 7670,
      "▁व्या": 7671,
      "a](https://en.wikipedia.org/wiki/M": 7672,
      "▁become": 7673,
      "a_M": 7674,
      "s](https://en.wikipedia.org/wiki/B": 7675,
      "s](https://en.wikipedia.org/wiki/C": 7676,
      "▁\"Ministry": 7677,
      "▁Univers": 7678,
      ")[[3": 7679,
      "](Special:EditPage/Template:": 7680,
      "▁गई": 7681,
      "rchitecture": 7682,
      "ड़िया": 7683,
      "▁[Mughal": 7684,
      "anathan": 7685,
      "▁शहर": 7686,
      "▁\"Special:BookSources/978-0-521": 7687,
      "](Special:BookSources/978-0-521": 7688,
      "▁[मध्य": 7689,
      "ogni": 7690,
      "]](https://hi.wikipedia.org/wiki/भारत#cite_note-pib": 7691,
      "म्भ": 7692,
      "398": 7693,
      "_के_अन": 7694,
      "▁direct": 7695,
      "ismatch": 7696,
      "संधान": 7697,
      "▁\"Template": 7698,
      "त्तरी": 7699,
      "▁ancient": 7700,
      "▁\"En": 7701,
      "▁2011](https://en.wikipedia.org/wiki/India#CITEREF": 7702,
      "▁\"Delhi": 7703,
      "▁लिये": 7704,
      "_Times": 7705,
      "▁Hindus": 7706,
      "▁Vedic": 7707,
      "▁यूनिवर्सिट": 7708,
      "1):": 7709,
      "](https://en.wikipedia.org/wiki/Delhi": 7710,
      "](https://en.wikipedia.org/wiki/Template_": 7711,
      "_Games": 7712,
      "▁[Tamil": 7713,
      "angetic": 7714,
      "_Economic": 7715,
      "▁[Routledge": 7716,
      "▁leg": 7717,
      "▁2014](https://en.wikipedia.org/wiki/India#CITEREF": 7718,
      "▁\"Routledge": 7719,
      "▁Urdu": 7720,
      "▁US$": 7721,
      "▁जनजाति": 7722,
      "▁(2017).": 7723,
      "ronom": 7724,
      "▁sever": 7725,
      "▁राजधान": 7726,
      "▁centuries": 7727,
      "_Union": 7728,
      "](https://en.wikipedia.org/wiki/Routledge": 7729,
      "ctorate": 7730,
      "▁[History": 7731,
      "▁2022.": 7732,
      "▁parliament": 7733,
      "talk:": 7734,
      "रुणा": 7735,
      "▁[Fisher": 7736,
      "▁[UTC": 7737,
      "▁[t](https://en.wikipedia.org/wiki/Template_": 7738,
      "a/a": 7739,
      "hola": 7740,
      ",977": 7741,
      "ustralia": 7742,
      "▁[e](Special:EditPage/Template:": 7743,
      "▁[v](Template:": 7744,
      "ोर्ट": 7745,
      "▁capita": 7746,
      "Environment": 7747,
      "Fisher2018),": 7748,
      "▁upper": 7749,
      "▁2025.\r\n": 7750,
      "-language\\_text": 7751,
      "cms).": 7752,
      "▁Policy": 7753,
      "a](https://en.wikipedia.org/wiki/China": 7754,
      "▁2018](https://en.wikipedia.org/wiki/India#CITEREFFisher2018),": 7755,
      "▁साम्राज्य\")": 7756,
      "arliamentary": 7757,
      "Hindustani": 7758,
      "iteracy": 7759,
      "धुनिक": 7760,
      "business/india-": 7761,
      "ूर्ण": 7762,
      "▁(2018),": 7763,
      "default": 7764,
      "rishnan": 7765,
      "ockey": 7766,
      "onial": 7767,
      "▁Conservation": 7768,
      "▁republic": 7769,
      "ibetan": 7770,
      "aranth": 7771,
      "struction": 7772,
      "forcement": 7773,
      "imachal": 7774,
      "_and_Development": 7775,
      "▁India](https://en.wikipedia.org/wiki/Government_of_India": 7776,
      "▁appro": 7777,
      "cia.gov/the-world-factbook": 7778,
      "estival": 7779,
      "▁[China](https://en.wikipedia.org/wiki/China": 7780,
      "_देशों_की_सूची": 7781,
      "ताजमह": 7782,
      "▁1994](https://en.wikipedia.org/wiki/India#CITEREF": 7783,
      "adhya": 7784,
      "▁Games\")": 7785,
      "क्षरता": 7786,
      "limate_": 7787,
      "▁स्थाप": 7788,
      "▁village": 7789,
      "harmaceutical": 7790,
      "▁engineering": 7791,
      "▁[पाकिस्तान](https://hi.wikipedia.org/wiki/पाकिस्तान": 7792,
      "▁democ": 7793,
      "PetragliaAllchin": 7794,
      "Wright2010": 7795,
      "touch": 7796,
      "▁(2007).": 7797,
      "ेंगलुरु": 7798,
      "rocodi": 7799,
      "_साम्राज्य": 7800,
      "▁Universal": 7801,
      "_के_अनुसार": 7802,
      "▁यूनिवर्सिटी": 7803,
      "▁[Routledge](https://en.wikipedia.org/wiki/Routledge": 7804,
      "▁\"Routledge\").": 7805,
      "▁[t](https://en.wikipedia.org/wiki/Template_talk:": 7806,
      ".ರ": 7807,
      ".und": 7808,
      "122": 7809,
      "3%": 7810,
      "3+": 7811,
      "97": 7812,
      "AD": 7813,
      "_ವ": 7814,
      "_ಭಾರತದ_": 7815,
      "_ಸಾ": 7816,
      "gad": 7817,
      "āgar": 7818,
      "ಂಕ": 7819,
      "ಂಖ": 7820,
      "ಂಚ": 7821,
      "ಂ\")\r\n": 7822,
      "ಂಕಾ": 7823,
      "ಅರು": 7824,
      "ಅಂಡ": 7825,
      "ಆಂಧ": 7826,
      "ಆರ್ಕ": 7827,
      "ಆಂಗ್ಲ": 7828,
      "ಇಂದಿ": 7829,
      "ಇತಿಹಾಸ": 7830,
      "ಇಸ್ಲಾ": 7831,
      "ಉರ್": 7832,
      "ಎನ್.": 7833,
      "ಒಡಿ": 7834,
      "ಒರಿಯಾ": 7835,
      "ಕೀ": 7836,
      "ಕೊಂಡಿ": 7837,
      "ಖನ್": 7838,
      "ಗ್ರಿ": 7839,
      "ಗಂಗಾ": 7840,
      "ಘಲ್": 7841,
      "ಘಾಲಯ": 7842,
      "ಚೇ": 7843,
      "ಛತ್ತ": 7844,
      "ಜ್": 7845,
      "ಞಾನ": 7846,
      "ಟಕ": 7847,
      "ಠಿ": 7848,
      "ಡಾ": 7849,
      "ಡೀ": 7850,
      "ಡೊ": 7851,
      "ಡೋ": 7852,
      "ತಾನ": 7853,
      "ತ್ವ": 7854,
      "ತ್ರಿ": 7855,
      "ತರಂ": 7856,
      "ತಟದ": 7857,
      "ತಾಂಶ": 7858,
      "ಥಮ": 7859,
      "ಥಾರ್": 7860,
      "ಥಿಲಿ": 7861,
      "ದ್ಯ": 7862,
      "ದೀಯ": 7863,
      "ದಖನ್": 7864,
      "ಧೀ": 7865,
      "ಧಂಖ": 7866,
      "ನ:": 7867,
      "ನು": 7868,
      "ನ\\_": 7869,
      "ಪ್ತ": 7870,
      "ಪದಿ": 7871,
      "ಪಟ್ಟ": 7872,
      "ಪಶ್ಚಿಮ": 7873,
      "ಬಾರ್": 7874,
      "ಭರತ": 7875,
      "ಮಾರ್": 7876,
      "ಮೇವ": 7877,
      "ಯಮು": 7878,
      "ಯತೆ": 7879,
      "ರದ": 7880,
      "ರ\")\r\n": 7881,
      "ರೆಯ": 7882,
      "ರಷ್ಯಾ": 7883,
      "ರೋಕ್": 7884,
      "ಲೇ": 7885,
      "ಲಾರ": 7886,
      "ಲಯಾ": 7887,
      "ಲಂಕಾ": 7888,
      "ಲಡಾ": 7889,
      "ಳಂ": 7890,
      "ಳಗ": 7891,
      "ಳೆಯ": 7892,
      "ಳುನಾ": 7893,
      "ವಂದ": 7894,
      "ವದೆಹಲಿ": 7895,
      "ಶ್ರೀ": 7896,
      "ಸಂತ": 7897,
      "ಸಭಾ": 7898,
      "ಸಾರ್ವತ್ರಿಕ": 7899,
      "ಸಲಾಗಿ": 7900,
      "ಹರಿಯಾ": 7901,
      "ಾಲಿ": 7902,
      "ಾಂಧ": 7903,
      "ಾಚಲ": 7904,
      "ಿನ": 7905,
      "ಿಹಾರ": 7906,
      "ಿಸಿದ": 7907,
      "ೀಗಢ": 7908,
      "ುಶ": 7909,
      "ು.\r\n": 7910,
      "ುಗು": 7911,
      "ೃಷ್": 7912,
      "ೆಂಗಾ": 7913,
      "ೆಂಗಳೂರು": 7914,
      "ೆರಿಕ": 7915,
      "ೇಘಾಲಯ": 7916,
      "ೈವ್": 7917,
      "ೈಥಿಲಿ": 7918,
      "ೊಂಕ": 7919,
      "ೊಘಲ್": 7920,
      "ೋಡೊ": 7921,
      "ೋಬಾರ್": 7922,
      "ೌರ್ಯ": 7923,
      "ೌಪದಿ": 7924,
      "್ಲೇ": 7925,
      "೦.": 7926,
      "೩೦": 7927,
      "‌ಡ": 7928,
      "‌ವೆ": 7929,
      "‌ಗಢ": 7930,
      "▁versi": 7931,
      "▁43": 7932,
      "▁ಭಾಷ": 7933,
      "▁ದೆಹಲಿ": 7934,
      "▁ರಿಂದ": 7935,
      "direct": 7936,
      ".org/s": 7937,
      "▁[ಚ": 7938,
      "▁[ಪ್ರ": 7939,
      "▁[Hindi": 7940,
      "▁[ವೇಬ್ಯಾಕ್": 7941,
      "▁[ಜೈನ": 7942,
      "▁[ಸಿಖ್": 7943,
      "▁[ಸಿಂಧೂ": 7944,
      "te,": 7945,
      "enter": 7946,
      "▁\"ಜ": 7947,
      "▁\"ವೇಬ್ಯಾಕ್": 7948,
      "▁\"ಜೈನ": 7949,
      "▁\"ಸಿಖ್": 7950,
      "▁\"ಸಿಂಧೂ": 7951,
      "▁\"ಸಂಸ್ಕೃತ": 7952,
      "▁\"ಇಂಡ": 7953,
      "\")ಯ": 7954,
      "arity": 7955,
      "the\\_": 7956,
      "-03": 7957,
      "\\_Wiki": 7958,
      "\\_ಟೆ": 7959,
      "\\_ಆರ್ಕ": 7960,
      "\\_ಕೊಂಡಿ": 7961,
      "](https://kn.wikipedia.org/wiki/ಜ": 7962,
      "](https://kn.wikipedia.org/wiki/ವೇಬ್ಯಾಕ್": 7963,
      "](https://kn.wikipedia.org/wiki/ಜೈನ": 7964,
      "](https://kn.wikipedia.org/wiki/ಸಿಖ್": 7965,
      "](https://kn.wikipedia.org/wiki/ಸಿಂಧೂ": 7966,
      "](https://kn.wikipedia.org/wiki/ಸಂಸ್ಕೃತ": 7967,
      "ಾರೆ.": 7968,
      "್ರಹ್ಮ": 7969,
      "\"),[": 7970,
      "links\r\n": 7971,
      "▁Rec": 7972,
      "▁25.": 7973,
      "23%": 7974,
      "235": 7975,
      "ರ್ನಾ": 7976,
      "ಲಿನ": 7977,
      "ಲಿತಾಂಶ": 7978,
      "▁जय": 7979,
      "▁*ಮುಖ್ಯ": 7980,
      "▁ಮೇ": 7981,
      "▁ಮಂತ್ರಿ": 7982,
      "▁ಪರಿ": 7983,
      "▁ಪಟ್ಟ": 7984,
      "forge": 7985,
      "ರಾಖಂಡ": 7986,
      "ರಾಠಿ": 7987,
      "ಭಾರತದಲ್ಲಿ": 7988,
      "168": 7989,
      "29.": 7990,
      "▁Out": 7991,
      "ಲ್ಲಿ.\r\n": 7992,
      "ಕ್ಸ್": 7993,
      "▁ಕಾಲ": 7994,
      "▁ನ್ಯಾ": 7995,
      "▁ನಡೆ": 7996,
      "▁ನಾಲ್": 7997,
      "▁ನಲ್ಲಿ.\r\n": 7998,
      "ರಿ](https://kn.wikipedia.org/wiki/": 7999,
      "ರಿಕೆ": 8000,
      "▁originally": 8001,
      "▁ಬಂಗಾಳ": 8002,
      "▁ಬಳಗ": 8003,
      "ದೇಶಿಕ": 8004,
      "ರುಭೂಮಿ": 8005,
      "ಾಗಾಲ": 8006,
      "ಿಕೆ": 8007,
      "ಿಕೋಬಾರ್": 8008,
      "ಂಡಲ": 8009,
      "ಂಡ್": 8010,
      "ಂಡಿಯಾ": 8011,
      "ಂಡೀಗಢ": 8012,
      "ಸಿತ": 8013,
      "ಸಿಕ್ಕಿ": 8014,
      "▁31": 8015,
      "್ಯಾಂಡ್": 8016,
      "▁Dec": 8017,
      "ಜನಗಣತಿ": 8018,
      "ೆಯಲ್ಲಿ": 8019,
      "ೆಯನ್ನು": 8020,
      "ೆಯಿತು.": 8021,
      "ame=": 8022,
      "ರ್ಮು": 8023,
      "ರ್ಮದಾ": 8024,
      "ಸ್ತಭೂಮಿ": 8025,
      "ಿಯು": 8026,
      "ಿಯನ್": 8027,
      "▁79.": 8028,
      "▁ಇಂಡಿಯಾ": 8029,
      "್ರಿಕ್ಸ್": 8030,
      "ವಿಡ": 8031,
      "ವಿ.ರ": 8032,
      "▁ಸಂಖ್ಯ": 8033,
      "▁ಸಂಘಟನೆ": 8034,
      "ವರ್ಷ": 8035,
      "ಮುಸ್ಲಿಮ್": 8036,
      "▁ಭಾರತಕ್ಕೆ": 8037,
      "ವೇದ": 8038,
      "ವೇಲಿ": 8039,
      "ಗಣತಂತ್ರ": 8040,
      "▁ದ್ವೀಪ": 8041,
      "▁ದಕ್ಷಿಣ": 8042,
      "ಟಿನ\\_": 8043,
      "▁ಎಂದು": 8044,
      "▁ಸಾಲಿನ": 8045,
      "▁ಚಳುವಳಿ": 8046,
      "▁./ವರ್ಗ:ವೆ": 8047,
      "umbered": 8048,
      "_ಮೆಷಿನ್": 8049,
      "ಪಾಕಿಸ್ತಾನ": 8050,
      "ಂಗ್‌ಡ": 8051,
      "ದುಚೇ": 8052,
      "ಾಲರ್‌": 8053,
      "▁ಉತ್ತ": 8054,
      "▁ಉತ್": 8055,
      "▁ಭಾಷೆ\")•": 8056,
      "ಾರ್ಖಂಡ": 8057,
      "ಸ್ತಾನಗಳ": 8058,
      "%E0%B2%": 8059,
      "ವಾಗಿದೆ.": 8060,
      "▁[Wolpert": 8061,
      "ಕಾವೇ": 8062,
      "ಕಾಮನ್": 8063,
      "ಪುತ್ರ": 8064,
      "ಪುದುಚೇ": 8065,
      "ಯುನೈ": 8066,
      "ವೆಂದರೆ": 8067,
      "ದಾಯ": 8068,
      "ದಾದ್ರಾ": 8069,
      "ದಾವರಿ": 8070,
      "ೈನ್ಯ": 8071,
      "ೊಂದಿಗೆ": 8072,
      "▁ಲೋಕ": 8073,
      "▁ಲೇಖ": 8074,
      "ಂಗಾಣ": 8075,
      "ಗುಪ್ತ": 8076,
      "ಯಾಧೀ": 8077,
      "oolforge": 8078,
      "ಟೆಡ್": 8079,
      "ಭೂಗೋಳ": 8080,
      "ಭೂತಾನ": 8081,
      "ಸಿಂಧಿ": 8082,
      "ವೇಬ್ಯಾಕ್\\_ಕೊಂಡಿ": 8083,
      ".gov.in/)\r\n": 8084,
      "article/": 8085,
      "ಕ್ತಿಯ": 8086,
      "ಗೋವಾ": 8087,
      "ಗೋದಾವರಿ": 8088,
      "ಧ್ಯಪ್ರದೇಶ": 8089,
      "ೀಪ್": 8090,
      "▁[ಬೌದ್ಧ": 8091,
      "▁\"ಬೌದ್ಧ": 8092,
      "](https://kn.wikipedia.org/wiki/ಬೌದ್ಧ": 8093,
      "▁ಕೋಟಿ)": 8094,
      "-report": 8095,
      "telligence_Agency": 8096,
      "ಗ್ರಾಮ": 8097,
      "ಣಾಚಲ": 8098,
      "ಮ್ಮು": 8099,
      "▁ಹೋದ": 8100,
      "▁ಹೋಲಿ": 8101,
      "▁ಹೆಸರಿ": 8102,
      "ಸಂಸ್ಕೃತ](https://kn.wikipedia.org/wiki/ಸಂಸ್ಕೃತ": 8103,
      "ಬ್\\_ಆರ್ಕ": 8104,
      "ರಾಜಸ್ಥಾನ": 8105,
      "▁ಸಾಮ್ರಾಜ್ಯ\")": 8106,
      "▁ಜನಸಂಖ್ಯೆಯನ್ನು": 8107,
      "evanāgar": 8108,
      "▁6.6": 8109,
      "2nd](https://kn.wikipedia.org/wiki/": 8110,
      "ಯನ್ಮಾರ್": 8111,
      "ಾಲ್ಡೀ": 8112,
      "▁ಸುಮಾರು": 8113,
      "▁ಮಾಹಿ": 8114,
      "▁ಸಂಪತ್ತು": 8115,
      "ದ್ದು.": 8116,
      "▁ರೂ.": 8117,
      "▁ರೂಪಾಯಿ": 8118,
      "▁ಬೆಳವಣಿಗೆ": 8119,
      "india.gov.in/knowindia/national_": 8120,
      "_ಚುನಾವಣೆ": 8121,
      "ಉತ್ತರ": 8122,
      "ಉತ್ತರಾಖಂಡ": 8123,
      "ತಮಿಳು": 8124,
      "ತಮಿಳುನಾ": 8125,
      "ದ್ರಾವಿಡ": 8126,
      "ರ್ಯನ್": 8127,
      "ವ್ಸ್": 8128,
      "ಹಿಮಾಲಯ": 8129,
      "ಹಿಮಾಚಲ": 8130,
      "▁ಮೆಷಿನ್\")": 8131,
      "▁ಮೆಷಿನ್](https://kn.wikipedia.org/wiki/ವೇಬ್ಯಾಕ್": 8132,
      "ನೇಪಾಳ": 8133,
      "ನೇಪಾಳಿ": 8134,
      "ಮುಂಬೈ": 8135,
      "ಮುಂಬಯಿ": 8136,
      "ಣಿಪುರಿ": 8137,
      "೨೦೦೯ರ": 8138,
      "ತೆಲುಗು": 8139,
      "ತೆಲಂಗಾಣ": 8140,
      "ಗುಜರಾತಿ": 8141,
      "ಗುಜರಾತ್": 8142,
      "ಪಂಜಾಬ್": 8143,
      "ಪಂಜಾಬಿ": 8144,
      "ಅಸ್ಸಾಮಿ": 8145,
      "_Programme": 8146,
      "hdr.und": 8147,
      "Atlas": 8148,
      "library": 8149,
      "ಂಪ್ಲೇ": 8150,
      "ಧಿಪತಿ": 8151,
      "▁ಗಣರಾಜ್ಯದ": 8152,
      "▁ಕ್ರಿ.ಪ": 8153,
      "ಸಂಸದೀಯ": 8154,
      "ಹಾರಾಷ್ಟ್ರ": 8155,
      "](https://kn.wikipedia.org/wiki/ಚಿತ್ರ:India": 8156,
      "▁ಮೊದಲ": 8157,
      "ಂಭಿಸಿದ": 8158,
      "ಗದೀಪ್": 8159,
      "ದ್ರೌಪದಿ": 8160,
      "ಲಕ್ಷದ್ವೀಪ": 8161,
      "ಸತ್ಯಮೇವ": 8162,
      "ೀಸ್‌ಗಢ": 8163,
      "ೇರಳ": 8164,
      "ೊಳ್": 8165,
      "▁ಏರಿಕೆ": 8166,
      "▁ಡಾಲರ್‌": 8167,
      "▁ಮೂರನೇ": 8168,
      "▁ಅಮೆರಿಕ": 8169,
      "ಮಿಝೋರಂ": 8170,
      "▁ಉಗಮ": 8171,
      "▁ಬ್ರಿಟಿಷ್": 8172,
      "▁ಕೆಲವೆಂದರೆ": 8173,
      "▁ಆರಂಭವಾಗಿ": 8174,
      ".toolforge": 8175,
      "data.worldbank.org/indicator/S": 8176,
      "entral_Intelligence_Agency": 8177,
      "_ಸಾಮ್ರಾಜ್ಯ": 8178,
      "ಅರುಣಾಚಲ": 8179,
      "ಅಂಡಮಾನ್": 8180,
      "ಆಂಧ್ರ": 8181,
      "ಇಂದಿರಾ": 8182,
      "ಉರ್ದು": 8183,
      "ಎನ್.ವಿ.ರ": 8184,
      "ಒಡಿಶಾ": 8185,
      "ಕೀಸ್ತಾನಗಳ": 8186,
      "ಛತ್ತೀಸ್‌ಗಢ": 8187,
      "ಜ್ಞಾನ": 8188,
      "ಡೋಗ್ರಿ": 8189,
      "ತ್ರಿಪು": 8190,
      "ಧಂಖರ್": 8191,
      "ಭರತವರ್ಷ": 8192,
      "ಯಮುನಾ": 8193,
      "ಲಾರಂಭಿಸಿದ": 8194,
      "ಲಯಾಳಂ": 8195,
      "ಲಡಾಖ್": 8196,
      "ವಂದೇ": 8197,
      "ಶ್ರೀಲಂಕಾ": 8198,
      "ಸಂತಾಲಿ": 8199,
      "ಹರಿಯಾಣ": 8200,
      "ಾಂಧಿ": 8201,
      "ೃಷ್ಣಾ": 8202,
      "ೆಂಗಾಲಿ": 8203,
      "ೈವ್\\_ಟೆ": 8204,
      "ೊಂಕಣಿ": 8205,
      "‌ವೆಲ್ತ್‌": 8206,
      "▁version": 8207,
      "▁ಭಾಷಾ": 8208,
      "್ರಹ್ಮಪುತ್ರ": 8209,
      "ರ್ನಾಟಕ": 8210,
      "▁ಪಟ್ಟಿಯಲ್ಲಿ": 8211,
      "▁ನಾಲ್ಕ": 8212,
      "ಾಗಾಲ್ಯಾಂಡ್": 8213,
      "ಟಿನ\\_ವೇಬ್ಯಾಕ್\\_ಕೊಂಡಿ": 8214,
      "▁./ವರ್ಗ:ವೆಬ್\\_ಆರ್ಕ": 8215,
      "ಾರ್ಖಂಡ್": 8216,
      "ಕಾಮನ್‌ವೆಲ್ತ್‌": 8217,
      "ಯುನೈಟೆಡ್": 8218,
      "▁ಲೇಖನ:": 8219,
      "ಯಾಧೀಶ": 8220,
      "evanāgarī": 8221,
      "ಾಲ್ಡೀವ್ಸ್": 8222,
      "▁ಮಾಹಿತಿ": 8223,
      "ತಮಿಳುನಾಡು": 8224,
      "▁ಮೆಷಿನ್](https://kn.wikipedia.org/wiki/ವೇಬ್ಯಾಕ್_ಮೆಷಿನ್": 8225,
      "hdr.undp": 8226,
      "ಂಪ್ಲೇಟಿನ\\_ವೇಬ್ಯಾಕ್\\_ಕೊಂಡಿ": 8227,
      "▁ಕ್ರಿ.ಪೂ": 8228,
      ".toolforge.org/": 8229,
      "ಎನ್.ವಿ.ರಮಣ": 8230,
      "ೈವ್\\_ಟೆಂಪ್ಲೇಟಿನ\\_ವೇಬ್ಯಾಕ್\\_ಕೊಂಡಿ": 8231,
      "▁./ವರ್ಗ:ವೆಬ್\\_ಆರ್ಕೈವ್\\_ಟೆಂಪ್ಲೇಟಿನ\\_ವೇಬ್ಯಾಕ್\\_ಕೊಂಡಿ": 8232,
      "▁./ವರ್ಗ:ವೆಬ್\\_ಆರ್ಕೈವ್\\_ಟೆಂಪ್ಲೇಟಿನ\\_ವೇಬ್ಯಾಕ್\\_ಕೊಂಡಿಗಳು\r\n": 8233,
      "*](http://": 8234,
      "*](https://web.archive.org/web/201": 8235,
      ",PPP": 8236,
      "-H": 8237,
      "-T": 8238,
      "-th": 8239,
      "-li": 8240,
      "-27": 8241,
      "-asia": 8242,
      ".**": 8243,
      "/).": 8244,
      "0-0)": 8245,
      "2-10": 8246,
      "4_": 8247,
      "4-3": 8248,
      "528": 8249,
      "623": 8250,
      "82": 8251,
      "8]](https://en.wikipedia.org/wiki/India#cite_note-FOOTNOTE": 8252,
      "Ag": 8253,
      "C)": 8254,
      "CCN": 8255,
      "DD": 8256,
      "David": 8257,
      "Ge": 8258,
      "KI": 8259,
      "MD": 8260,
      "MAAJ": 8261,
      "Republic": 8262,
      "SN": 8263,
      "South_Asian": 8264,
      "YS": 8265,
      "Ze": 8266,
      "_v": 8267,
      "_అ": 8268,
      "_ఎ": 8269,
      "_ర": 8270,
      "_10": 8271,
      "_राज्य": 8272,
      "_45": 8273,
      "_యు": 8274,
      "_రాజ": 8275,
      "_एशिया": 8276,
      "_శాస్త్ర": 8277,
      "aha": 8278,
      "ded": 8279,
      "dat": 8280,
      "dministrative": 8281,
      "fun": 8282,
      "government": 8283,
      "hl": 8284,
      "ip": 8285,
      "iti": 8286,
      "mas": 8287,
      "more": 8288,
      "music": 8289,
      "ns": 8290,
      "oz": 8291,
      "pro": 8292,
      "rince": 8293,
      "tances": 8294,
      "uin": 8295,
      "vin": 8296,
      "voy": 8297,
      "wa": 8298,
      "xim": 8299,
      "ंतर": 8300,
      "ईल": 8301,
      "ख्य": 8302,
      "घर": 8303,
      "चें": 8304,
      "जें": 8305,
      "तम": 8306,
      "तुल": 8307,
      "थियार": 8308,
      "फा": 8309,
      "बा": 8310,
      "मर": 8311,
      "मार": 8312,
      "वेश": 8313,
      "वैद": 8314,
      "शन": 8315,
      "िबंध": 8316,
      "ृष": 8317,
      "ृष्ण": 8318,
      "्लेट": 8319,
      "ఒలి": 8320,
      "కూ": 8321,
      "క్ర": 8322,
      "గే": 8323,
      "గ్ర": 8324,
      "గతి": 8325,
      "జు": 8326,
      "ఞాన": 8327,
      "టం": 8328,
      "టన్": 8329,
      "పం": 8330,
      "పో": 8331,
      "పచ్చ": 8332,
      "మ్య": 8333,
      "యాలో": 8334,
      "లె": 8335,
      "వై": 8336,
      "వ్": 8337,
      "వత్స": 8338,
      "వృద్ధి": 8339,
      "శ్రమ": 8340,
      "సీ": 8341,
      "స్రా": 8342,
      "హక": 8343,
      "హన": 8344,
      "ాంగ": 8345,
      "ీఠ": 8346,
      "ువు": 8347,
      "ూపా": 8348,
      "ృష్": 8349,
      "ెహ": 8350,
      "ెట్": 8351,
      "ేన": 8352,
      "ైద": 8353,
      "ైగా": 8354,
      "ొయ": 8355,
      "–4": 8356,
      "▁,": 8357,
      "▁X": 8358,
      "▁५": 8359,
      "▁ఘ": 8360,
      "▁edi": 8361,
      "▁web": 8362,
      "▁ला": 8363,
      "▁జా": 8364,
      "▁vi": 8365,
      "▁education": 8366,
      "dis": 8367,
      "ora": 8368,
      "orpor": 8369,
      "▁[గ": 8370,
      "▁[కు": 8371,
      "▁[प्र": 8372,
      "▁[పా": 8373,
      "▁[దక్షిణ": 8374,
      "▁[హిందూ": 8375,
      "▁[तमिल": 8376,
      "▁[పాకిస్తాన్": 8377,
      "▁[ముంబై": 8378,
      "▁[गुजरात": 8379,
      "teg": 8380,
      "teri": 8381,
      "ene": 8382,
      "▁\"ड": 8383,
      "▁\"ह": 8384,
      "▁\"గ": 8385,
      "▁\"రాష్ట్ర": 8386,
      "▁\"దక్షిణ": 8387,
      "▁\"మూస": 8388,
      "▁\"హిందూ": 8389,
      "▁\"పాకిస్తాన్": 8390,
      "▁\"ప్రపంచ": 8391,
      "▁\"ముంబై": 8392,
      "▁\"వర్గం:Harv": 8393,
      "▁\"ప్రత్యేక:EditPage/మూస:": 8394,
      "\")1": 8395,
      "onomet": 8396,
      "till": 8397,
      "th-largest": 8398,
      "India_Goa": 8399,
      "](https://en.wikipedia.org/wiki/List_of_countries_by_": 8400,
      "erm": 8401,
      "eries": 8402,
      "arrow": 8403,
      "rec": 8404,
      "reater": 8405,
      "cir": 8406,
      "ारो": 8407,
      "ारम्भ": 8408,
      "ising": 8409,
      "isted": 8410,
      "omic": 8411,
      "](https://hi.wikipedia.org/wiki/ग": 8412,
      "](https://hi.wikipedia.org/wiki/द": 8413,
      "▁कम": 8414,
      "▁किन": 8415,
      "▁often": 8416,
      "▁(c": 8417,
      "▁(भारत": 8418,
      "्रह": 8419,
      "](https://te.wikipedia.org/wiki/మూస": 8420,
      "](https://te.wikipedia.org/wiki/జన": 8421,
      "](https://te.wikipedia.org/wiki/వర్గం:Harv": 8422,
      "](https://te.wikipedia.org/wiki/ప్రత్యేక:EditPage/మూస:": 8423,
      "▁India\r\n": 8424,
      "▁सह": 8425,
      "▁स्तर": 8426,
      "▁सभ्यता": 8427,
      "**,": 8428,
      "side": 8429,
      "▁poll": 8430,
      "▁su": 8431,
      "▁set": 8432,
      "\\_n": 8433,
      "\\_क": 8434,
      "▁central": 8435,
      "▁Comm": 8436,
      "▁Court": 8437,
      "id-": 8438,
      "▁Asher": 8439,
      "▁After": 8440,
      "్యాలె": 8441,
      "ad-": 8442,
      "adakh": 8443,
      "▁fl": 8444,
      "[[18": 8445,
      "స్వా": 8446,
      "velo": 8447,
      "▁पू": 8448,
      "▁పొ": 8449,
      "▁పద్ధ": 8450,
      "▁పైగా": 8451,
      "ices": 8452,
      "▁trade": 8453,
      "▁116": 8454,
      "ume": 8455,
      "ర్ద": 8456,
      "ర్ష": 8457,
      "▁middle": 8458,
      "▁marri": 8459,
      "▁market": 8460,
      "fied": 8461,
      "న్ను": 8462,
      "comp": 8463,
      "compar": 8464,
      "rove": 8465,
      "र्ट": 8466,
      "rak": 8467,
      "्त्र": 8468,
      "unle": 8469,
      "▁where": 8470,
      "రాజ్యం": 8471,
      "]](https://en.wikipedia.org/wiki/India#cite_note-1": 8472,
      "ola": 8473,
      "లోయ": 8474,
      "del": 8475,
      "ily": 8476,
      "▁26.": 8477,
      "▁కేంద్ర": 8478,
      "▁కంపెనీ": 8479,
      "▁अमेर": 8480,
      "▁अलग": 8481,
      "▁अर्थव्यवस्था": 8482,
      "▁Day": 8483,
      "▁Book": 8484,
      "ాలు\")\r\n": 8485,
      "ాలుగా": 8486,
      "ounding": 8487,
      "క్తి": 8488,
      "emen": 8489,
      "emic": 8490,
      "▁వై": 8491,
      "igved": 8492,
      "▁19.": 8493,
      "वियत": 8494,
      "ayashi": 8495,
      "▁जिन": 8496,
      "ldlife": 8497,
      "భారతదేశం\r\n": 8498,
      "▁[↑](https://en.wikipedia.org/wiki/India#cite_ref-4": 8499,
      "ाले": 8500,
      "ालैंड": 8501,
      "▁even": 8502,
      "▁epic": 8503,
      "▁early": 8504,
      "▁సమా": 8505,
      "▁సర్వ": 8506,
      "▁సుల్తాన": 8507,
      "263": 8508,
      "▁देव": 8509,
      "▁दोन": 8510,
      "bercu": 8511,
      "opal": 8512,
      ".in)\r\n": 8513,
      "▁Ne": 8514,
      "▁Nuclear": 8515,
      "न्ध": 8516,
      "▁Home": 8517,
      "_in_the": 8518,
      "▁बंगाल": 8519,
      "▁बड़े": 8520,
      "-345": 8521,
      "-349": 8522,
      "-45": 8523,
      "-405": 8524,
      "▁प्रधानमंत्री": 8525,
      "भाजन": 8526,
      "▁చర్చ:": 8527,
      "▁सेवा": 8528,
      "abel": 8529,
      "_Air": 8530,
      "_Arm": 8531,
      "తాక": 8532,
      "▁John": 8533,
      "నాట": 8534,
      "తి](https://te.wikipedia.org/wiki/": 8535,
      "▁religions": 8536,
      "▁काम": 8537,
      "▁ne": 8538,
      "▁names": 8539,
      "establish": 8540,
      "సింది.": 8541,
      "sey": 8542,
      "15/": 8543,
      "▁do": 8544,
      "astronom": 8545,
      "132": 8546,
      "135": 8547,
      "163": 8548,
      "–సా.శ.14": 8549,
      "–సా.శ.1947)": 8550,
      "▁అను": 8551,
      "29)": 8552,
      "▁\"Coordinated": 8553,
      "▁व्यवस्था": 8554,
      "ిక,": 8555,
      "a](https://en.wikipedia.org/wiki/T": 8556,
      "▁On": 8557,
      "AAMAAJ": 8558,
      "▁आक": 8559,
      "▁आद": 8560,
      "▁Indians": 8561,
      "▁Law": 8562,
      "otto": 8563,
      "కుపచ్చ": 8564,
      "lated": 8565,
      "▁being": 8566,
      "](https://te.wikipedia.org/wiki/భారతదేశం#CITEREF": 8567,
      "▁West": 8568,
      "▁Wiley": 8569,
      "▁[Craven": 8570,
      "▁Kore": 8571,
      "haw": 8572,
      "▁ఆకుపచ్చ": 8573,
      "▁develo": 8574,
      "ajasthan": 8575,
      "logy": 8576,
      "▁రే": 8577,
      "-2\").": 8578,
      "మాతర": 8579,
      "మాబాద్": 8580,
      "▁परि": 8581,
      "రుపు": 8582,
      "రుగు": 8583,
      "_and_N": 8584,
      "▁शा": 8585,
      "rupee": 8586,
      "ommaraj": 8587,
      "▁संस्थान": 8588,
      "-7mar": 8589,
      "allav": 8590,
      "](https://hi.wikipedia.org/wiki/भारत#cite_ref-pib": 8591,
      "](https://hi.wikipedia.org/wiki/भारत#cite_ref-langoff": 8592,
      "]](https://hi.wikipedia.org/wiki/भारत#cite_note-langoff-1": 8593,
      "earning": 8594,
      "ियन": 8595,
      "▁Asia:": 8596,
      "ी](https://hi.wikipedia.org/wiki/म": 8597,
      "▁\"Ge": 8598,
      "संबर": 8599,
      "सां": 8600,
      "▁\"Tamil": 8601,
      "▁నది": 8602,
      "त्ति": 8603,
      "మించ": 8604,
      "▁रक्षा": 8605,
      "▁[Pakistan": 8606,
      "▁తన": 8607,
      "orities/": 8608,
      "▁any": 8609,
      "▁expectancy": 8610,
      "▁consider": 8611,
      "ం](https://te.wikipedia.org/wiki/అ": 8612,
      "ం](https://te.wikipedia.org/wiki/క": 8613,
      "जापान": 8614,
      "ంబంధ": 8615,
      "▁\"मध्य": 8616,
      "▁V.": 8617,
      "▁Vol": 8618,
      "kee": 8619,
      "గువ": 8620,
      "ultur": 8621,
      "general": 8622,
      "ompany": 8623,
      "▁[Delhi": 8624,
      "▁rural": 8625,
      "▁rise": 8626,
      "हाँ": 8627,
      ".nic.in)\r\n": 8628,
      "ोली": 8629,
      "▁uni": 8630,
      "▁సంస్థ": 8631,
      "▁సంవత్స": 8632,
      "ants": 8633,
      "డియా": 8634,
      "](https://hi.wikipedia.org/wiki/मध्य": 8635,
      "853": 8636,
      "astest": 8637,
      "▁1997": 8638,
      "\"](https://web.archive.org/web/20140": 8639,
      "ట్లు": 8640,
      "_చర్చ:": 8641,
      "▁\"మధ్య": 8642,
      "▁\"Indus": 8643,
      "120]](https://hi.wikipedia.org/wiki/भारत#cite_note-langoff-1": 8644,
      "▁ఎన్నిక": 8645,
      "▁ఎన్ను": 8646,
      "▁[మధ్య": 8647,
      "▁(సా.శ.పూ.1200": 8648,
      "rigonomet": 8649,
      "hock": 8650,
      "▁గణ": 8651,
      "](https://te.wikipedia.org/wiki/మధ్య": 8652,
      "ohenj": 8653,
      "द्यालय": 8654,
      "gional": 8655,
      "▁./వర్గం:Harv\\_and\\_Sfn\\_no-target\\_errors\r\n": 8656,
      "▁tea": 8657,
      "]](https://te.wikipedia.org/wiki/భారతదేశం#cite_note-india.gov.in": 8658,
      "▁[Ludden": 8659,
      "_సంగీతం": 8660,
      "ారిగా": 8661,
      "34238": 8662,
      "गुप्त": 8663,
      "_Univers": 8664,
      "నాయక": 8665,
      "oorkee": 8666,
      "▁notation": 8667,
      "%E0%B0%": 8668,
      "హాస": 8669,
      "▁([help](https://te.wikipedia.org/wiki/వర్గం:Harv": 8670,
      "india.gov.in_3": 8671,
      "దావరి": 8672,
      "2014-p": 8673,
      "▁కూడిన": 8674,
      "ortal:": 8675,
      "▁CITEREFStein1998": 8676,
      "▁CITEREFSingh2009": 8677,
      "▁నిర్వ": 8678,
      "▁స్థా": 8679,
      "](https://hi.wikipedia.org/wiki/पंजाब": 8680,
      "](https://hi.wikipedia.org/wiki/पश्चिम": 8681,
      "684": 8682,
      "raditional": 8683,
      "Stein1998),": 8684,
      "Singh2009),": 8685,
      "ों_की_सूची?action=edit&redlink=1": 8686,
      "ోర్చు": 8687,
      "▁निभा": 8688,
      "son2014-p": 8689,
      "శాఖ": 8690,
      "▁China": 8691,
      "unjabi": 8692,
      "KulkeRothermund200": 8693,
      "▁2009](https://hi.wikipedia.org/wiki/भारत#CITEREF": 8694,
      "▁[t](https://te.wikipedia.org/wiki/మూస": 8695,
      "▁[జమ్మూ": 8696,
      "▁పాత్ర": 8697,
      "](https://hi.wikipedia.org/wiki/भारत#CITEREFStein1998),": 8698,
      "_dance": 8699,
      "▁rupee": 8700,
      "▁\"చైనా": 8701,
      "▁Short": 8702,
      "▁Shankar": 8703,
      "▁century,": 8704,
      "▁ఉన్నాయి.\r\n": 8705,
      "▁ఒకటి": 8706,
      "_War": 8707,
      "▁whose": 8708,
      "▁numbers": 8709,
      "జ్ఞాన": 8710,
      "▁थे": 8711,
      "▁पाकिस्तान": 8712,
      "ustralian": 8713,
      "▁[e](https://te.wikipedia.org/wiki/ప్రత్యేక:EditPage/మూస:": 8714,
      "▁[v](https://te.wikipedia.org/wiki/మూస:": 8715,
      "2001),": 8716,
      "▁Art": 8717,
      "ropped": 8718,
      "▁उपमहाद्वीप": 8719,
      "_1960": 8720,
      "कालीन": 8721,
      "▁speakers": 8722,
      "▁मंदिर\")": 8723,
      "नागालैंड": 8724,
      "▁మార్గాలు": 8725,
      "धीरे": 8726,
      "Wikipedia:": 8727,
      "▁2008](https://en.wikipedia.org/wiki/India#CITEREF": 8728,
      "రోపా": 8729,
      "leges": 8730,
      "IAF": 8731,
      "cms)": 8732,
      "izo": 8733,
      "▁భారతదేశానికి": 8734,
      "▁మతము\")": 8735,
      "▁మతము\"),": 8736,
      "athakali": 8737,
      "रोहर": 8738,
      "▁वर्षों": 8739,
      "ీనంలో": 8740,
      "▁జాబితా\")\r\n": 8741,
      "▁include": 8742,
      "▁According": 8743,
      "▁longer": 8744,
      "▁ప్రపంచంలో": 8745,
      "▁ప్రభుత్వ": 8746,
      "▁ప్రభుత్వం": 8747,
      "%20%20%20%20%20%20%20%20": 8748,
      "▁Environmental": 8749,
      "11934238": 8750,
      "-economy": 8751,
      "Ludden2014": 8752,
      "issions": 8753,
      "/articleshow/": 8754,
      "d/d": 8755,
      "▁major": 8756,
      "▁మొదటి": 8757,
      "arnataka": 8758,
      "union_territory": 8759,
      "▁cities": 8760,
      "▁(2018).": 8761,
      "▁देख": 8762,
      "Library_of_Congress": 8763,
      "స్లామాబాద్": 8764,
      "▁पार्टी": 8765,
      "▁పాలన": 8766,
      "▁కార్య": 8767,
      "▁కారణంగా": 8768,
      "▁కలిగి": 8769,
      "emocracy": 8770,
      "ంటుంది.": 8771,
      "oordinated_Univers": 8772,
      "▁1998](https://hi.wikipedia.org/wiki/भारत#CITEREFStein1998),": 8773,
      "ांति": 8774,
      "▁served": 8775,
      "losis": 8776,
      "▁सिनेमा\"),": 8777,
      "▁Time\")+": 8778,
      "ांधी": 8779,
      "శోకుడు": 8780,
      "itzel": 8781,
      "▁दृश्य": 8782,
      "▁జరిగిన": 8783,
      "rajbhasha": 8784,
      "▁Index\")": 8785,
      "▁local": 8786,
      "▁Before": 8787,
      "Encyclop": 8788,
      "o-daro": 8789,
      "▁[భారతదేశంలో": 8790,
      "▁(2006).": 8791,
      "▁होती": 8792,
      "▁అనేక": 8793,
      "undamental": 8794,
      "ecutive": 8795,
      "▁ఎక్కువగా": 8796,
      "▁भूमिका": 8797,
      "awaharlal": 8798,
      "▁<http://": 8799,
      "▁caused": 8800,
      "▁दिसंबर": 8801,
      "प्राचीन": 8802,
      "AGE": 8803,
      "▁వారసత్వ": 8804,
      "▁ప్రస్తుతం": 8805,
      "a_dynasty": 8806,
      "▁రోడ్": 8807,
      "▁different": 8808,
      "▁తరువాత": 8809,
      "▁బెంగాల్": 8810,
      "ంపిక్": 8811,
      "▁Minorities,": 8812,
      "हित्य": 8813,
      "ेघालय": 8814,
      "arlung": 8815,
      "al_Time": 8816,
      "▁[India](https://en.wikipedia.org/wiki/India)": 8817,
      "ంస్కృతం": 8818,
      "▁oldest": 8819,
      "▁\"पाकिस्तान\")": 8820,
      "▁వెబ్": 8821,
      "▁సౌకర్య": 8822,
      "ండీగఢ్": 8823,
      "▁అభివృద్ధి": 8824,
      "▁నడిపించ": 8825,
      "గుప్త": 8826,
      "▁नेतृत्व": 8827,
      "hattisgarh": 8828,
      "sites/default": 8829,
      "భారతదేశ_రాష్ట్రాలు,_కేంద్రపాలిత_ప్రాంతాలు": 8830,
      "▁contribu": 8831,
      "Tarlo1996-26": 8832,
      "_and_union_territories_of_India": 8833,
      "digenous": 8834,
      "onkani": 8835,
      "▁[↑](https://en.wikipedia.org/wiki/India#cite_ref-1": 8836,
      "beralisation": 8837,
      "रुणाचल": 8838,
      "Davidson2014-p": 8839,
      "चेंज": 8840,
      "वैदिक": 8841,
      "िबंधीय": 8842,
      "ృష్ణా": 8843,
      "▁Asher,": 8844,
      "comparison": 8845,
      "berculosis": 8846,
      "-7mar2011": 8847,
      "](https://hi.wikipedia.org/wiki/भारत#cite_ref-langoff_128": 8848,
      "120]](https://hi.wikipedia.org/wiki/भारत#cite_note-langoff-128)": 8849,
      "▁(సా.శ.పూ.1200–సా.శ.పూ.": 8850,
      "ohenjo-daro": 8851,
      "▁([help](https://te.wikipedia.org/wiki/వర్గం:Harv_and_Sfn_template_errors": 8852,
      "ోర్చుగ": 8853,
      "▁2009](https://hi.wikipedia.org/wiki/भारत#CITEREFSingh2009),": 8854,
      "▁[t](https://te.wikipedia.org/wiki/మూస_చర్చ:": 8855,
      "11934238p": 8856,
      "oordinated_Universal_Time": 8857,
      "sites/default/files/": 8858,
      "\"](https://web.archive.org/web/200": 8859,
      "-[": 8860,
      ".P": 8861,
      "/)": 8862,
      "4121": 8863,
      "68.": 8864,
      "Emb": 8865,
      "Jana": 8866,
      "Shanghai": 8867,
      "_time": 8868,
      "eci": 8869,
      "global": 8870,
      "°N": 8871,
      "°E﻿": 8872,
      "▁78": 8873,
      "▁\".in": 8874,
      "▁Country": 8875,
      "agore": 8876,
      "▁Summer": 8877,
      "▁brief": 8878,
      "▁written": 8879,
      "_(orthographic_projection": 8880,
      "▁Human": 8881,
      "-4)": 8882,
      "▁[\"Population": 8883,
      "_Cooperation": 8884,
      "▁contain": 8885,
      "html)\r\n": 8886,
      "1,7": 8887,
      "▁1999": 8888,
      "_language?action=edit&redlink=1": 8889,
      "▁\"Human": 8890,
      "_region": 8891,
      "lobe": 8892,
      "Wolpert2003),": 8893,
      "_domain": 8894,
      "▁14.2%": 8895,
      "▁Recognised": 8896,
      "▁79.8%": 8897,
      "-report-": 8898,
      "_(orthographic_projection).": 8899,
[...]
