{"merges": [["à", "°"], ["à", "²"], ["à", "±"], ["à", "³"], ["Ġ", "à°"], ["à", "¤"], ["Ġ", "à²"], ["à±", "į"], ["à°", "¾"], ["à³", "į"], ["à±į", "à°"], ["à³į", "à²"], ["à°¾", "à°"], ["à²", "¿"], ["à°", "¿"], ["à²", "¾"], ["à±", "ģ"], ["Ġ", "t"], ["à²¿", "à²"], ["a", "n"], ["à°", "Ĥ"], ["h", "e"], ["à", "¥"], ["à²¾", "à²"], ["i", "n"], ["à°¿", "à°"], ["Ġt", "he"], ["à³", "ģ"], ["o", "n"], ["à°Ĥ", "à°"], ["e", "r"], ["Ĥ", "à²"], ["à°", "¤"], ["r", "e"], ["Ġ", "a"], ["à°", "¨"], ["à³", "Ĩ"], ["Ġ", "o"], ["Ġ", "à¤"], ["e", "n"], ["à°", "²"], ["s", "t"], ["à²", "°"], ["à°", "°"], ["a", "l"], ["d", "i"], ["à²", "¤"], ["à±", "ĩ"], ["a", "t"], ["Ġà°", "ª"], ["Ġ", "c"], ["à²", "Ĥà²"], ["Ġ", "I"], ["à±", "ĭ"], ["an", "d"], ["à²", "¦"], ["e", "d"], ["à±įà°", "°"], ["à²", "¨"], ["a", "r"], ["à°¾à°", "°"], ["i", "t"], ["à²", "²"], ["ĠI", "n"], ["à°", "ķ"], ["à¤", "¾"], ["Ġ", "w"], ["à²", "Ĺ"], ["à°¾à°", "²"], ["Ġo", "f"], ["à²¾à²", "°"], ["Ġ", "in"], ["à±", "Ģ"], ["Ġ", "s"], ["à³įà²", "°"], ["à°", "¦"], ["Ġ", "and"], ["à²", "³"], ["Ġà°", "¸"], ["Ġ", "b"], ["à¤", "°"], ["à²", "µ"], ["o", "r"], ["Ġà°", "ķ"], ["i", "on"], ["Ġà²", "¸"], ["à±ĩ", "à°"], ["Ġ", "p"], ["Ġà²", "Ń"], ["Ġà°", "µ"], ["ĠIn", "di"], ["à±įà°", "¯"], ["e", "s"], ["à³įà²", "¯"], ["à¥", "į"], ["Ġ", "m"], ["à°", "®"], ["Ġà²", "®"], ["Ġ", "f"], ["Ġà°", "®"], ["Ġà²", "ª"], ["i", "c"], ["Ġà°", "Ń"], ["i", "s"], ["à³įà²", "¤"], ["à°", "µ"], ["in", "g"], ["à¥", "ĩ"], ["à³įà²", "²"], ["à°Ĥà°", "¦"], ["a", "s"], ["en", "t"], ["à±ĩà°", "¶"], ["à³", "ĩ"], ["Ġ", "l"], ["à°¿à°", "ķ"], ["à²¾à²°", "à²¤"], ["o", "m"], ["à±", "Ĩ"], ["ĠIndi", "a"], ["Ġà²Ń", "à²¾à²°à²¤"], ["à¤¾", "à¤"], ["Ġà°", "°"], ["Ġ", "e"], ["Ġà²", "¹"], ["o", "u"], ["à°", "¡"], ["Ġt", "o"], ["à²", "¸"], ["à°²", "à±ģ"], ["l", "y"], ["Ġ", "h"], ["Ġà°ª", "à±įà°°"], ["à²²", "à³įà²²"], ["Ġ", "T"], ["à¥į", "à¤"], ["à°¾à°°", "à°¤"], ["Ġ", "d"], ["Ġà²", "ķ"], ["e", "c"], ["à±įà°", "¨"], ["à²", "ķ"], ["u", "r"], ["à°", "ª"], ["Ġ", "re"], ["Ġà²", "µ"], ["Ġ", "1"], ["Ġ", "n"], ["Ġà°Ń", "à°¾à°°à°¤"], ["Ġ", "g"], ["à²²à³įà²²", "à²¿"], ["à¤", "¿"], ["Ġà°", "ħ"], ["i", "l"], ["t", "h"], ["à²Ĺ", "à²³"], ["²", "à±ĭ"], ["Ġ", "A"], ["v", "er"], ["à²", "¯"], ["¸", "à±įà°"], ["u", "l"], ["o", "l"], ["Ġà²", "¬"], ["à±", "Ĥ"], ["r", "i"], ["Ġà¤", "ķ"], ["ĠT", "he"], ["à³", "ĭ"], ["à°¾à°²", "à±ģ"], ["Ġ", "C"], ["r", "a"], ["Ġà²", "ħ"], ["Ġ", "B"], ["à±", "Ī"], ["at", "ion"], ["à³", "Ĭ"], ["a", "m"], ["à°", "Ł"], ["Ġ", "S"], ["à²¿à²", "¯"], ["v", "e"], ["à¤", "Ĥ"], ["à°¿à°", "¨"], ["r", "o"], ["à²", "®"], ["l", "e"], ["à°", "¯"], ["Ġ", "is"], ["à²¿à²", "¦"], ["c", "e"], ["u", "t"], ["à°¾à°", "¨"], ["à²¾à²", "Ĺ"], ["Ġb", "y"], ["ĠIndi", "an"], ["à°°", "à±įà°"], ["i", "st"], ["à²¤", "à³įà²¤"], ["e", "t"], ["à¥", "Ģ"], ["Ġà°", "¦"], ["a", "st"], ["à²Ĥà²", "¦"], ["Ġ", "2"], ["u", "s"], ["à°", "Ĺ"], ["a", "d"], ["à²¿à²", "Ĥà²"], ["i", "m"], ["à°¨", "à±įà°¨"], ["i", "g"], ["Ġt", "h"], ["Ġà²", "¨"], ["e", "st"], ["Ġà°", "ī"], ["o", "w"], ["à²", "Ł"], ["i", "d"], ["à¤¿", "à¤"], ["à°Ĥà°¦", "à°¿"], ["Ġ1", "9"], ["u", "n"], ["à²", "¶"], ["it", "h"], ["Ġà°", "ľ"], ["Ġf", "or"], ["i", "r"], ["Ġà²", "°"], ["à°¾à°", "¯"], ["u", "c"], ["Ġ", "r"], ["Ġ", "M"], ["à°Ĥà°", "ļ"], ["à²¿à²", "¸"], ["m", "ent"], ["Ġb", "e"], ["à°¾à°", "¤"], ["à²¾à²", "¨"], ["à¤", "¤"], ["at", "e"], ["Ġc", "on"], ["à°¦", "à±ĩà°¶"], ["Ġw", "ith"], ["à²Ĥà²", "¤"], ["i", "es"], ["Ġw", "as"], ["Ġà°", "¨"], ["0", "0"], ["t", "ion"], ["à²¿à²", "¤"], ["o", "p"], ["à°Ĥà°", "Ĺ"], ["Ġa", "s"], ["Ġ", "P"], ["Ġà¤", "¸"], ["à²°", "à³įà²"], ["Ġà°", "ļ"], ["t", "er"], ["re", "s"], ["à±įà°", "µ"], ["Ġà²Ńà²¾à²°à²¤", "à²¦"], ["Ġw", "h"], ["Ġ", "st"], ["e", "m"], ["à°", "§"], ["Ġ", "à³"], ["Ġm", "o"], ["on", "g"], ["à±įà°", "Ł"], ["à¤", "¨"], ["Ġ", "E"], ["à²", "¡"], ["r", "om"], ["à°Ĥà°", "²à±ĭ"], ["an", "g"], ["à³", "¦"], ["a", "in"], ["t", "s"], ["Ġà°", "ĩ"], ["Ġ", "it"], ["Ġà²", "¦"], ["ic", "al"], ["à°²", "à±ĭ"], ["Ġe", "x"], ["à¥", "ĭ"], ["a", "g"], ["à³įà²", "Ł"], ["à°ķ", "à±įà°"], ["Ġ", "di"], ["Ġ", "an"], ["he", "r"], ["à±Ģ", "à°¯"], ["à³įà²", "¨"], ["Ġ", "G"], ["d", "er"], ["Ġà°Ńà°¾à°°à°¤", "à°¦à±ĩà°¶"], ["a", "b"], ["à²¿à²", "ķ"], ["a", "c"], ["s", "e"], ["à±įà°", "²"], ["Ġà¤", "®"], ["Ġo", "r"], ["à³", "Ģ"], ["Ġf", "rom"], ["à°Ĥà°", "¡"], ["ic", "h"], ["Ġh", "as"], ["à²¿à²Ĥà²", "¦"], ["à°¨", "à±ģ"], ["Ġ", "D"], ["g", "h"], ["i", "al"], ["à°¿", "à°Ĥà°ļ"], ["à³Ĩ", "à²¯"], ["Ġ", "H"], ["Ġà¤", "¹"], ["Ġ", "on"], ["à°", "¸à±įà°"], ["u", "m"], ["à²¨", "à³įà²¨"], ["il", "l"], ["à±", "Ĭ"], ["Ġ", "N"], ["a", "y"], ["à³", "Ĥà²"], ["l", "d"], ["à°", "¸"], ["u", "p"], ["à¤", "ķ"], ["Ġa", "r"], ["à°", "¹"], ["Ġwh", "ich"], ["à³įà²", "µ"], ["Ġ", "un"], ["u", "d"], ["à°ķ", "à±ģ"], ["à²¨à³įà²¨", "à³ģ"], ["i", "ve"], ["it", "y"], ["â", "Ģ"], ["c", "on"], ["Ġa", "re"], ["Ġà°", "Ĩ"], ["Ġà²", "Ĩ"], ["Ġp", "ar"], ["à¤¾", "à¤°"], ["u", "b"], ["à°¾à°", "Ĥ"], ["u", "re"], ["Ġà²", "ľ"], ["ul", "t"], ["Ġ2", "0"], ["Ġà°¦", "à±ĩà°¶"], ["Ġ", "("], ["a", "k"], ["r", "it"], ["t", "ed"], ["Ġà°", "¤"], ["o", "c"], ["à²¿à²", "°"], ["Ġin", "c"], ["Ġà¤", "ª"], ["à°", "£"], ["l", "i"], ["o", "ver"], ["à²¤à³įà²¤", "à³ģ"], ["er", "e"], ["à±ģ", "à°²à±ģ"], ["Ġit", "s"], ["Ġa", "l"], ["ĸ", "à³įà²¯"], ["Ġc", "om"], ["Ġà°°", "à°¾à°"], ["d", "u"], ["ar", "g"], ["à°¿à°", "¤"], ["ou", "n"], ["à³", "Ĥ"], ["à¥į", "à¤°"], ["Ġ", "v"], ["en", "d"], ["Ġà°", "Ĺ"], ["ar", "y"], ["à²ķ", "à³įà²"], ["Ġw", "ere"], ["e", "l"], ["à°¿", "à°Ĥà°¦à°¿"], ["i", "v"], ["t", "her"], ["à²", "ª"], ["à°", "ļ"], ["an", "s"], ["er", "s"], ["Ġà¤ķ", "à¥ĩ"], ["at", "ed"], ["à°", "Ń"], ["Ġà²ª", "à³įà²°"], ["e", "ar"], ["o", "s"], ["Ġà°", "¬"], ["Ġc", "ent"], ["à²Ĺà²³", "à³ģ"], ["Ġd", "e"], ["c", "h"], ["à±ģ", "à°¤"], ["o", "d"], ["p", "or"], ["à²¿à²¦", "à³Ĩ"], ["is", "m"], ["à°Ĥà°", "Ł"], ["à¤", "¸"], ["Ġw", "or"], ["ou", "s"], ["Ġà°µ", "à°¿à°"], ["ou", "gh"], ["à²¨", "à³ĩ"], ["ĠA", "s"], ["over", "n"], ["à°¾à°¯", "à°¿"], ["Ġ", "W"], ["f", "ter"], ["à²", "¹"], ["m", "p"], ["à±Ī", "à°¨"], ["o", "g"], ["Ġc", "h"], ["à¥", "ģ"], ["à²¾à²", "ľ"], ["Ġc", "o"], ["à°°", "à±ģ"], ["Ġin", "t"], ["Ġp", "ro"], ["ou", "r"], ["à°¦", "à±įà°"], ["Ġà²®", "à²¤à³įà²¤à³ģ"], ["Ġcon", "t"], ["Ġ", "U"], ["à±Ĥ", "à°¡"], ["ion", "s"], ["ou", "th"], ["à³ĩ", "à²¶"], ["ĠH", "in"], ["Ġà°¸", "à°Ĥà°"], ["à¥", "Ī"], ["con", "om"], ["o", "t"], ["§", "à³"], ["an", "t"], ["à°®", "à±ģ"], ["Ġa", "t"], ["al", "ly"], ["Ġà°", "İ"], ["as", "s"], ["à²", "£"], ["am", "e"], ["ag", "e"], ["Ġà°", "¶"], ["overn", "ment"], ["à²¿à²", "Ĺ"], ["a", "v"], ["i", "f"], ["à°Ĥà°Ĺ", "à°¾"], ["à¥ĩ", "à¤Ĥ"], ["l", "ow"], ["r", "y"], ["à²¦", "à²²à³įà²²à²¿"], ["an", "ce"], ["âĢ", "Į"], ["Ġb", "ec"], ["ur", "ing"], ["à°Ĥà°", "¤"], ["Ġn", "or"], ["Ġpar", "t"], ["Ġ", "R"], ["Ġà²ľ", "à²¨"], ["à°¨", "à°¿"], ["Ġs", "p"], ["is", "h"], ["Ġà¤", "Ń"], ["Ġl", "arg"], ["¸à±įà°", "¤"], ["Ġe", "conom"], ["Ġà²", "ĩ"], ["Ġfor", "m"], ["à°¿à°", "Ĺ"], ["res", "s"], ["Ġint", "o"], ["à²¿à²", "¨"], ["a", "j"], ["à°¾à°°", "à±ģ"], ["a", "p"], ["c", "t"], ["an", "y"], ["Ġà°ī", "à°¨à±įà°¨"], ["à³ģ", "à²µ"], ["er", "n"], ["Ġre", "g"], ["à¥", "¤"], ["à°ķà±įà°", "·"], ["ĠC", "h"], ["ill", "ion"], ["à²°", "à³Ĩ"], ["Ġ", "J"], ["à°Ĺ", "à°¾"], ["Ġ", "k"], ["o", "re"], ["Ġa", "d"], ["à±įà°", "ļ"], ["à²Ĥà²", "ĸà³įà²¯"], ["st", "it"], ["at", "es"], ["Ġc", "l"], ["à°", "¬"], ["Ġs", "e"], ["à³įà²", "ļ"], ["Ġà¤®", "à¥ĩà¤Ĥ"], ["Ġs", "ub"], ["à±į", "âĢĮ"], ["Ġp", "l"], ["Ġl", "e"], ["Ġre", "l"], ["à°¾à°", "¦"], ["Ġà²¸", "à²¾à²"], ["ang", "u"], ["Ġcent", "ur"], ["à°¿à°", "ª"], ["Ġ", "y"], ["c", "es"], ["Ġà²ª", "à²¾à²"], ["i", "a"], ["à°¾à°", "®"], ["m", "e"], ["in", "ist"], ["à¤", "®"], ["er", "al"], ["·", "à±įà°Ł"], ["Ġà²¹", "à³Ĩ"], ["Ġa", "g"], ["Ġp", "er"], ["Ġà°", "¹"], ["Ġp", "op"], ["Ġm", "ar"], ["à³ĭ", "à²Ł"], ["Ġe", "l"], ["à°¦", "à°¿"], ["ut", "ion"], ["Ġ20", "1"], ["à°¿à°", "¯"], ["Ġ", "K"], ["h", "i"], ["Ġà¤¹", "à¥Ī"], ["m", "er"], ["Ġà°ķ", "à±Ĥà°¡"], ["à²Ĥà²", "¡"], ["en", "ce"], ["Ġl", "angu"], ["à°§", "à°¿à°ķ"], ["Ġg", "overnment"], ["i", "re"], ["à²µ", "à²¾à²Ĺ"], ["l", "ud"], ["à±įà°", "¤"], ["q", "u"], ["re", "as"], ["à°¾à°", "ķ"], ["Ġp", "ri"], ["Ġà²", "ī"], ["Ġd", "ec"], ["à¥įà¤", "¯"], ["Ġwor", "ld"], ["à±", "ĥ"], ["Ġpop", "ul"], ["Ġà²", "¶"], ["Ġ", "F"], ["Ġà°", "Ī"], ["Ġ", "V"], ["a", "ve"], ["c", "c"], ["à±ģ", "à°²"], ["d", "uc"], ["à³įà²", "¥"], ["Ġt", "ra"], ["à°¿à°", "²"], ["re", "at"], ["ĠIn", "d"], ["à¤", "²"], ["à²°", "à³ģ"], ["Ġs", "y"], ["à°Ł", "à±įà°Ł"], ["Ġf", "ir"], ["om", "e"], ["Ġà°ľ", "à°¾à°¤"], ["Ġg", "en"], ["à³įà²¤", "à²¾à²¨"], ["Ġcom", "p"], ["ĠHin", "du"], ["à°", "ĸ"], ["Ġy", "ear"], ["Ġfir", "st"], ["à²¸", "à²Ĥà²ĸà³įà²¯"], ["Ġà°", "Ĵ"], ["Ġ", "end"], ["Ġà¤", "ħ"], ["f", "f"], ["o", "th"], ["Ġà°ª", "à°°"], ["p", "p"], ["Ġà²ķ", "à³ĭà²Ł"], ["s", "o"], ["Ġà°Ńà°¾à°°à°¤", "à±Ģà°¯"], ["v", "ed"], ["in", "e"], ["re", "d"], ["Ġà°°à°¾à°", "ľ"], ["Ġà²ľà²¨", "à²¸à²Ĥà²ĸà³įà²¯"], ["al", "l"], ["di", "tion"], ["à°¾à°", "¬"], ["Ġs", "h"], ["à¤Ĥ", "à¤"], ["ec", "tion"], ["à²¾à²", "¦"], ["uc", "h"], ["à°¿à°", "¸à±įà°¤"], ["der", "n"], ["Ġar", "t"], ["à°¤", "à°¿"], ["Ġinc", "lud"], ["à²¾à²", "·"], ["b", "er"], ["à°¾à°°", "à±įà°"], ["g", "an"], ["i", "an"], ["o", "k"], ["Ġà²¸", "à²Ĥà²"], ["Ġà°Ń", "à°¾à°"], ["w", "e"], ["à¤", "¹"], ["Ġo", "ver"], ["st", "em"], ["à°¿à°ķ", "à°¿"], ["Ġd", "uring"], ["Ġà²®", "à³ģ"], ["ec", "t"], ["Ġà°°", "à±Ī"], ["Ġre", "s"], ["ro", "w"], ["us", "ed"], ["à°ļ", "à±įà°ļ"], ["à³Ĭ", "à²Ĥà²¦"], ["ig", "h"], ["ig", "n"], ["Ġà°", "²"], ["id", "e"], ["à¤", "¯"], ["Ġbec", "ame"], ["à²Ł", "à³įà²Ł"], ["stit", "ution"], ["à±ģ", "à°µ"], ["Ġsy", "stem"], ["Ġ", "5"], ["à°¿à°", "°"], ["Ġ", "ri"], ["Ġà³", "§à³"], ["e", "w"], ["h", "ar"], ["à±įà°°", "à±Ģ"], ["Ġb", "ut"], ["Ġh", "ad"], ["Ġà°®", "à±Ĭ"], ["Ġh", "ave"], ["à³Ĥà²", "°"], ["à¤¾à¤°", "à¤¤"], ["ation", "al"], ["est", "ern"], ["Ġà°ľ", "à°¨"], ["Ġbe", "en"], ["Ġal", "so"], ["à²", "·"], ["à°ķà±įà°", "ķ"], ["mp", "ire"], ["aj", "or"], ["Ġ", "3"], ["Ġà°Ńà°¾à°°à°¤à°¦à±ĩà°¶", "à°Ĥ"], ["Ġ", "O"], ["d", "h"], ["Ġà²", "Ī"], ["r", "al"], ["·à±įà°Ł", "à±įà°°"], ["Ġà¤Ń", "à¤¾à¤°à¤¤"], ["r", "ic"], ["Ġin", "f"], ["à°", "ľ"], ["Ġs", "up"], ["Ġà²", "İ"], ["Ġm", "e"], ["ic", "s"], ["à°", "³"], ["ur", "al"], ["Ġcon", "s"], ["à³įà²", "¦"], ["à±įà°", "®"], ["Ġmo", "re"], ["ong", "ress"], ["ag", "es"], ["Ġà°°à°¾à°", "·à±įà°Łà±įà°°"], ["ther", "n"], ["Ġà¤", "ľ"], ["à²¨", "à³į"], ["Ġrel", "ig"], ["Ġ", "7"], ["à°¦à±įà°", "¦"], ["Ġ", "L"], ["t", "y"], ["à²¾à²ľ", "à³įà²¯"], ["w", "o"], ["à±", "Į"], ["Ġa", "fter"], ["Ġs", "uch"], ["or", "d"], ["à±įà°", "ª"], ["Ġà²ªà²¾à²", "ķ"], ["Ġp", "e"], ["Ġp", "ol"], ["à°¿", "à°Ĥà°¦"], ["Ġm", "illion"], ["Ġà¤", "¨"], ["Ġm", "inist"], ["Ġl", "at"], ["Ġà²", "Ĺ"], ["Ġà°ª", "à±ĩ"], ["Ġl", "ong"], ["Ġn", "um"], ["Ġà°µ", "à±įà°¯"], ["ver", "s"], ["ĠS", "outh"], ["Ġà²", "ļ"], ["Ġth", "at"], ["à°®", "à±Īà°¨"], ["ow", "er"], ["Ġmo", "st"], ["Ġà°ħ", "à°§à°¿à°ķ"], ["Ġmo", "dern"], ["à²¿à²", "®"], ["Ġinc", "reas"], ["Ġà¤", "¬"], ["oun", "d"], ["à°¸à±įà°", "¥"], ["Ġcl", "ass"], ["Ġcentur", "y"], ["à²¿à²", "µ"], ["à°Ĥà°¤", "à±įà°°"], ["Ġyear", "s"], ["Ġ", "\""], ["Ġ", "4"], ["Ġ", "he"], ["Ġà°ľà°¾à°¤", "à±Ģà°¯"], ["Ġ", "im"], ["m", "ong"], ["à²¤", "à²¿"], ["p", "t"], ["Ġà°", "²à±ĭ"], ["t", "in"], ["à¤°", "à¥įà¤"], ["u", "res"], ["à°¿à°", "®"], ["Ġt", "wo"], ["en", "s"], ["à²¿à²¸", "à³įà²¤à²¾à²¨"], ["Ġc", "a"], ["Ġà°®", "à±ģ"], ["Ġb", "oth"], ["ĠC", "ongress"], ["à°¸à±įà°", "¤"], ["Ġ2", "00"], ["à²ķà³įà²", "·"], ["im", "al"], ["Ġr", "ul"], ["Ġdi", "s"], ["à±įà°", "¥"], ["Ġreg", "ion"], ["Ġà²ªà²¾à²ķ", "à²¿à²¸à³įà²¤à²¾à²¨"], ["Ġpri", "me"], ["Ġà¤", "µ"], ["à°¾à°", "Ł"], ["Ġtra", "dition"], ["C", "E"], ["b", "an"], ["à°¤", "à±įà°¤"], ["à³", "Ī"], ["l", "es"], ["p", "h"], ["à°¨", "à±ĩ"], ["u", "st"], ["re", "n"], ["Ġà²", "Ĵ"], ["Ġc", "ast"], ["Ġà°¸", "à±įà°¥"], ["Ġs", "c"], ["Ġs", "er"], ["Ġà°ī", "à°Ĥà°¦à°¿"], ["Ġs", "oc"], ["Ġà²¹", "à³Ĭà²Ĥà²¦"], ["Ġm", "ajor"], ["à¤", "ª"], ["ur", "ban"], ["Ġà°īà°¨à±įà°¨", "à°¾à°¯à°¿"], ["ĠB", "CE"], ["ist", "an"], ["Ġà°Ĵ", "à°ķ"], ["à²Ĥà²¤", "à²°"], ["et", "we"], ["Ġ19", "5"], ["Ġun", "der"], ["Ġà°", "ı"], ["âĢ", "ĵ"], ["âĢ", "Ķ"], ["à²ķà³įà²", "ķ"], ["ult", "ure"], ["Ġ20", "2"], ["ĠAs", "ia"], ["à°¾à°", "¸"], ["ĠU", "n"], ["à²", "§"], ["Ġà¤", "¦"], ["Ġlarg", "e"], ["à±ģ", "à°ķà±ģ"], ["etwe", "en"], ["Ġ", "urban"], ["à²", "Ń"], ["e", "p"], ["à°¤", "à°°"], ["i", "k"], ["l", "ic"], ["o", "se"], ["Ġà°®", "à°¾à°°à±įà°"], ["Ġà²", "²"], ["r", "ough"], ["t", "ing"], ["à°µ", "à°¸à±įà°¥"], ["he", "d"], ["in", "ce"], ["à²¾à²", "²"], ["Ġthe", "ir"], ["à¥ĭ", "à¤Ĥ"], ["Ġà°Ńà°¾à°°à°¤à°¦à±ĩà°¶", "à°Ĥà°²à±ĭ"], ["en", "g"], ["Ġc", "oun"], ["Ġà°İ", "à°¨à±įà°¨"], ["Ġof", "f"], ["à²Ĥà²¤", "à³įà²°"], ["is", "ation"], ["Ġn", "ot"], ["à°¾à°", "£"], ["Ġg", "row"], ["ĠB", "ud"], ["à±ģ", "à°ķ"], ["à³¦", "à³¦"], ["ĠB", "rit"], ["am", "ent"], ["à°¿à°", "µ"], ["ve", "l"], ["à²¿à²°", "à³ģà²µ"], ["le", "ar"], ["à¤¿à¤", "¯"], ["Ġth", "is"], ["à°¤", "à±ĭ"], ["Ġ19", "6"], ["uc", "lear"], ["ĠE", "mpire"], ["Ġà°ª", "à°¾à°°"], ["ļ", "à³įà²ļ"], ["Ġel", "ection"], ["Ġlangu", "age"], ["à±įà°°", "à°®"], ["Ġpopul", "ation"], ["à²", "ļà³įà²ļ"], ["Ġminist", "er"], ["Ġà°¸", "à±įà°µ"], ["Ġcast", "e"], ["ĠBud", "dh"], ["ĠBrit", "ish"], ["Ġà°ķ", "à°²"], ["à³", "ĥ"], ["e", "f"], ["à¤¿à¤", "ķ"], ["l", "o"], ["Ġà°µ", "à°ļà±įà°ļ"], ["Ġt", "er"], ["on", "d"], ["Ġà²", "§"], ["re", "e"], ["à±įà°¯", "à°Ĥ"], ["ar", "i"], ["Ġs", "outh"], ["à±Ĩ", "à°Ĥà°¡"], ["à²Ĥà²", "ļ"], ["Ġb", "etween"], ["or", "y"], ["Ġm", "any"], ["à°¿à°¨", "à±įà°¨"], ["Ġf", "ol"], ["Ġà²¸", "à³įà²µ"], ["Ġl", "and"], ["à°¾à°¨", "à°¿à°ķà°¿"], ["Ġà¤", "Ķ"], ["Ġe", "ar"], ["ou", "t"], ["Ġd", "ance"], ["Ġà²¹", "à³ĭ"], ["à°¦à±įà°", "§"], ["Ġre", "c"], ["ĠA", "n"], ["ol", "og"], ["Ġà°¹", "à°¿à°Ĥà°¦"], ["ri", "b"], ["Ġà²¬", "à³Ĩ"], ["ĠC", "on"], ["Ġà°®à°¾à°°à±įà°", "Ĺ"], ["ation", "s"], ["Ġ19", "9"], ["Ġbe", "gan"], ["à²¿à²¤", "à³ģ"], ["ang", "es"], ["à°", "·"], ["Ġà¤", "°"], ["ical", "ly"], ["ial", "ly"], ["à°¾à°", "Ĺ"], ["à²°à³įà²", "®"], ["con", "tin"], ["ak", "istan"], ["à°¾à°", "µ"], ["el", "l"], ["low", "ing"], ["Ġà²¦", "à³ĩà²¶"], ["Ġnor", "th"], ["Ġà°ķ", "à±ĭ"], ["mer", "g"], ["contin", "ent"], ["Ġà°®", "à°¤"], ["Ġ", "j"], ["Ġà²¹à³Ĩ", "à²ļà³įà²ļ"], ["Ġ", "en"], ["Ġ", "ra"], ["à°Ł", "à°¿"], ["Ġà¤Ķ", "à¤°"], ["Ġ", "up"], ["c", "i"], ["Ġà²ķà³ĭà²Ł", "à²¿"], ["Ġà°ļ", "à±Ĩ"], ["l", "u"], ["n", "i"], ["s", "h"], ["à°§", "à±įà°¯"], ["v", "i"], ["à²ķà³įà²ķ", "à³Ĩ"], ["Ġt", "im"], ["à°§", "à°¾à°¨"], ["Ġa", "pp"], ["al", "s"], ["at", "ic"], ["à°¿à°¯", "à°¾"], ["Ġà²", "¤"], ["ĠI", "t"], ["it", "e"], ["à¤", "¦"], ["Ġà°ķà±Ĥà°¡", "à°¾"], ["it", "ed"], ["it", "ion"], ["à³į", "âĢĮ"], ["Ġf", "ore"], ["Ġà°ħà°§à°¿à°ķ", "à°¾à°°"], ["Ġe", "ast"], ["Ġre", "p"], ["il", "it"], ["à°¾à°", "ľ"], ["à³įà²", "¡"], ["ad", "e"], ["ĠP", "akistan"], ["à°¾à°", "Ń"], ["Ġex", "p"], ["à²¿à²", "²"], ["por", "t"], ["Ġnor", "thern"], ["à±ģ", "à°¨à±įà°¨"], ["Ġeconom", "y"], ["à¥", "Ĥ"], ["Ġlat", "er"], ["à°Ĥà°", "¬"], ["à³Ĩ", "à²²"], ["vers", "ity"], ["a", "w"], ["à°°", "à±į"], ["a", "ce"], ["c", "y"], ["à²Ĥà²", "¬"], ["k", "et"], ["Ġà°®", "à°§à±įà°¯"], ["m", "on"], ["u", "gh"], ["in", "s"], ["à±Ĩ", "à°²"], ["à²Ĺ", "à³Ĩ"], ["Ġthe", "re"], ["er", "ed"], ["Ġà°ªà±įà°°", "à°ª"], ["Ġa", "b"], ["à¤¾à¤", "¨"], ["di", "c"], ["Ġà²¹", "à²¿à²Ĥà²¦"], ["ar", "d"], ["Ġà°ªà±įà°°", "à°¾à°Ĥ"], ["it", "er"], ["Ġw", "estern"], ["Ġà°ªà±įà°°", "à°§à°¾à°¨"], ["Ġs", "ec"], ["Ġà²ħ", "à²¨à³ĩ"], ["Ġs", "ince"], ["ic", "e"], ["à°ª", "à±ģ"], ["om", "in"], ["Ġe", "merg"], ["Ġà²ħ", "à²¤à²¿"], ["à°°à±įà°", "µ"], ["Ġh", "um"], ["Ġ1", "8"], ["Ġn", "on"], ["ĠA", "l"], ["Ġà°¦", "à°ķà±įà°·"], ["à¥įà¤", "¤"], ["à²¿à²¯", "à²¨à³į"], ["ĠA", "fter"], ["ul", "ar"], ["Ġà°¦à±ĩà°¶", "à°¾à°²"], ["ĠC", "E"], ["ra", "ph"], ["à²¿à²¦", "à³įà²¦"], ["ĠB", "y"], ["à°¿à°¤", "à±įà°°"], ["Ġr", "ate"], ["00", "0"], ["Ġex", "t"], ["ub", "lic"], ["à°¿à°²", "à±įà°²"], ["Ġsp", "ec"], ["Ġà²¨", "à²Ĥà²¤à²°"], ["Ġeconom", "ic"], ["Ġà°°à±Ī", "à°²à±ģ"], ["Ġsub", "continent"], ["à¤", "¶"], ["Ġ201", "1"], ["Ġinf", "lu"], ["Ġà°ªà±įà°°à°ª", "à°Ĥà°ļ"], ["Ġpe", "op"], ["Ġincreas", "ed"], ["Ġà³", "¨"], ["Ġclass", "ical"], ["Ġà°ªà±įà°°à°¾à°Ĥ", "à°¤"], ["Ġcoun", "t"], ["vel", "op"], ["à°", "¶"], ["Ġ", "6"], ["c", "ed"], ["e", "x"], ["à±įà°", "¡"], ["e", "ver"], ["à³įà²Ł", "à³įà²°"], ["h", "m"], ["i", "od"], ["à±įà°", "²à±ĭ"], ["à¤", "µ"], ["k", "s"], ["l", "im"], ["à³Ģ", "à²¯"], ["r", "ol"], ["à°¾à°", "§"], ["t", "a"], ["v", "ent"], ["à°¿à°", "£"], ["he", "m"], ["Ġa", "mong"], ["à²µà²¾à²Ĺ", "à²¿"], ["Ġo", "cc"], ["à°¿à°", "²à±ĭ"], ["at", "ive"], ["Ġc", "our"], ["Ġà°ª", "à°¾à°ķ"], ["Ġw", "ar"], ["à²¾à²·", "à³įà²Łà³įà²°"], ["Ġp", "ower"], ["es", "p"], ["Ġà¤ķ", "à¥Ģ"], ["Ġà°ķ", "à±įà°°à±Ģ"], ["Ġm", "at"], ["Ġm", "us"], ["Ġà²§", "à²°à³įà²®"], ["Ġm", "id"], ["à°µ", "à°¿"], ["Ġm", "ilit"], ["is", "e"], ["Ġà°ħ", "à°¤"], ["is", "ed"], ["Ġl", "if"], ["Ġà²ħà²¨à³ĩ", "à²ķ"], ["Ġl", "iter"], ["à°¾à°¨", "à±į"], ["om", "p"], ["Ġh", "ist"], ["à±įà°Ł", "à±Ģ"], ["ĠT", "h"], ["à²", "ľ"], ["ec", "h"], ["Ġà¤", "¤"], ["ec", "ted"], ["à°¬", "à°¡"], ["Ġn", "ew"], ["Ġn", "uclear"], ["à³įà²", "ķ"], ["am", "il"], ["Ġà°°à°¾à°ľ", "à±įà°¯"], ["Ġth", "an"], ["ow", "n"], ["Ġà°ªà±ĩ", "à°°à±ģ"], ["à²¾à²", "¤"], ["Ġ19", "4"], ["ĠM", "o"], ["ĠM", "ugh"], ["ate", "ly"], ["Ġà°µà±įà°¯", "à°µà°¸à±įà°¥"], ["ter", "n"], ["Ġst", "ate"], ["Ġà¤ª", "à¥įà¤°"], ["Ġà°ªà°¾à°°", "à±įà°Łà±Ģ"], ["à²¾à²", "µ"], ["ain", "s"], ["ab", "le"], ["Ġpar", "li"], ["Ġà°¦à°ķà±įà°·", "à°¿à°£"], ["Ġde", "velop"], ["à²¾à²", "¸"], ["Ġlarg", "est"], ["ĠCh", "in"], ["ķ", "à±ĥ"], ["Ġper", "iod"], ["Ġgen", "eral"], ["à²¾à²", "Ĥà²"], ["à°¿à°", "§"], ["Ġnum", "ber"], ["ci", "ent"], ["à°¤", "à±įà°µ"], ["Ġspec", "ies"], ["Ġpeop", "le"], ["à³Ĩ", "à²Ĥà²¦"], ["à¥ģ", "à¤"], ["Ġlif", "e"], ["à°°", "à°£"], ["Ġparli", "ament"], ["f", "e"], ["à±įà°°", "à°Ĥ"], ["à²Ĥà²", "Ń"], ["f", "or"], ["g", "en"], ["j", "ab"], ["à±Ģ", "à°¨"], ["k", "rit"], ["p", "er"], ["à²¦", "à³ĩà²¶"], ["Ġà°¸", "à°®"], ["p", "le"], ["r", "on"], ["s", "l"], ["Ġà°ķ", "à±ģ"], ["t", "en"], ["à³įà²°", "à²¿à²"], ["à¤", "¼"], ["y", "a"], ["he", "n"], ["Ġà°ķ", "à°¾à°²"], ["Ġthe", "m"], ["en", "ni"], ["à²µ", "à³ģ"], ["Ġà°ªà±įà°°", "à°Ń"], ["it", "ies"], ["Ġs", "et"], ["Ġb", "as"], ["Ġà°ªà±įà°°", "à°ľ"], ["Ġe", "st"], ["à²µ", "à²¨à³įà²¨à³ģ"], ["ur", "op"], ["à°ª", "à±įà°ª"], ["ri", "g"], ["ĠB", "eng"], ["Ġà¤¸", "à¥ĩ"], ["ĠS", "ans"], ["Ġà°ħ", "à°¯"], ["Ġà²¸", "à³ģ"], ["ve", "ment"], ["Ġth", "ough"], ["Ġth", "rough"], ["Ġà°ĩ", "à°¤à°°"], ["un", "jab"], ["Ġà²®", "à³Ĭ"], ["ĠM", "a"], ["à°¿à°Ĥà°ļ", "à°¿à°Ĥà°¦à°¿"], ["Ġcon", "stitution"], ["ĠP", "l"], ["ĠP", "unjab"], ["Ġà°Ĩ", "à°°à±įà°"], ["ĠE", "ast"], ["Ġà²ª", "à²¶"], ["ill", "enni"], ["ult", "an"], ["à°¾à°Ĥ", "à°Ĺ"], ["à¤¾à¤", "ľ"], ["og", "raph"], ["ĠU", "S"], ["Ġà²ª", "à³Ĥà²°"], ["Ġà°¦à±ĩà°¶", "à°Ĥà°²à±ĭ"], ["Ġle", "ad"], ["Ġlangu", "ages"], ["ĠInd", "o"], ["à±ģà°¤", "à±įà°µ"], ["Ġinclud", "ing"], ["Ġà²°", "à²²à³įà²²à²¿"], ["Ġca", "used"], ["Ġà°¶", "à°¾à°"], ["Ġrul", "e"], ["Ġsoc", "ial"], ["Ġ195", "0"], ["à²°à³įà²", "¥"], ["Ġcount", "ry"], ["à°ĸ", "à±įà°¯"], ["Ġà¤ķ", "à¤¾"], ["Ġmilit", "ary"], ["ĠMugh", "al"], ["Ġà°Ńà°¾à°", "·"], ["ĠChin", "a"], ["à²¿à²ķ", "à³Ĩ"], ["urop", "e"], ["ĠBeng", "al"], ["Ġà°®à±Ĭ", "à°¦"], ["ĠSans", "krit"], ["illenni", "um"], ["à²¿à²Ĺ", "à³Ĩ"], ["Ġà°ľà°¨", "à°¾à°Ń"], ["Ġ", "9"], ["2", "0"], ["a", "i"], ["a", "red"], ["à°ķà±įà°ķ", "à±ģà°µ"], ["i", "b"], ["à¤¾à¤", "²"], ["à²¿à²Ĺ", "à²³"], ["i", "ed"], ["i", "ans"], ["Ġà°¹à°¿à°Ĥà°¦", "à±Ĥ"], ["l", "arg"], ["o", "od"], ["Ä", "ģ"], ["Ġà°ªà±įà°°à°Ń", "à±ģà°¤à±įà°µ"], ["à³įà²ļ", "à²¿à²®"], ["Ġt", "r"], ["he", "s"], ["he", "ast"], ["Ġà°", "¯"], ["re", "w"], ["re", "ad"], ["Ġà²¹à³Ĩ", "à²¸"], ["à±įà°", "¸"], ["Ġo", "ther"], ["à¥Ģ", "à¤¯"], ["at", "i"], ["Ġc", "r"], ["à°¿", "à°Ĥà°"], ["Ġs", "ome"], ["Ġà²¶", "à²¤"], ["Ġs", "ign"], ["Ġb", "illion"], ["à°¿à°", "Ł"], ["or", "ld"], ["Ġp", "re"], ["Ġm", "ain"], ["à°¿à°", "¸à±įà°"], ["Ġà²ľà²¨à²¸à²Ĥà²ĸà³įà²¯", "à³Ĩ"], ["Ġm", "illennium"], ["Ġf", "ar"], ["à°°", "à±įà°¯"], ["ent", "ral"], ["à¤", "Ĺ"], ["Ġl", "ed"], ["Ġe", "mp"], ["Ġà²¸à²Ĥà²", "ª"], ["Ġà°ª", "à±ģ"], ["Ġg", "r"], ["Ġg", "ra"], ["à±Ģ", "à°¤"], ["il", "d"], ["ĠC", "omp"], ["Ġà³§à³", "¯"], ["ĠS", "t"], ["à°¦", "à°¾à°¯"], ["ĠS", "ik"], ["ro", "c"], ["us", "lim"], ["Ġà°¸", "à°¾à°Ĥ"], ["ow", "ever"], ["Ġà²¹à³Ĩà²ļà³įà²ļ", "à³ģ"], ["Ġà¤", "Ĺ"], ["id", "ent"], ["Ġà°¸", "à°Ń"], ["Ġ19", "8"], ["ir", "d"], ["Ġr", "ural"], ["à±Ĩ", "à°¸"], ["à³Ĩà²Ĥà²¦", "à²°à³Ĩ"], ["ment", "s"], ["Ġwh", "o"], ["Ġst", "y"], ["à±Ĩ", "à°¦à±įà°¦"], ["Ġex", "por"], ["Ġdi", "re"], ["Ġà²ªà²¶", "à³įà²ļà²¿à²®"], ["Ġà°°", "à±Ĩà°Ĥà°¡"], ["ĠH", "imal"], ["Ġon", "e"], ["Ġal", "l"], ["Ġà¤", "Ĩ"], ["à°°à±įà°", "ª"], ["iv", "il"], ["ĠW", "orld"], ["Ġà²ªà³Ĥà²°", "à³įà²µ"], ["Ġcentur", "ies"], ["à°Ĺ", "à±ģ"], ["duc", "ed"], ["ĠInd", "us"], ["Ġri", "ver"], ["Ġà°ļ", "à±ĩà°"], ["Ġ", "%"], ["Ġrelig", "i"], ["ord", "ing"], ["à°Ĥà°¡", "à°¿"], ["Ġpol", "it"], ["Ġser", "ved"], [")", ","], ["Ġfore", "st"], ["Ġ", "à¥"], ["Ġmat", "hem"], ["à°¿à°Ĥà°ļ", "à°¿à°¨"], ["Ġmus", "ic"], ["à³", "Į"], ["larg", "est"], ["ĠHimal", "ay"], ["Ġà°¦à±ĩà°¶", "à°Ĥ"], ["Ġ", "us"], ["Ġ", "used"], ["à³", "ª"], ["Ġà°¸à°Ĥà°", "¸à±įà°"], ["%", "."], ["c", "ri"], ["d", "le"], ["d", "ay"], ["à°¿à°Ĺ", "à°¾"], ["e", "h"], ["à³", "Ń"], ["Ġà¤", "ī"], ["e", "at"], ["g", "l"], ["Ġà°¸à±įà°¥", "à°¾à°¨"], ["k", "ed"], ["l", "ed"], ["à³įà²", "ª"], ["m", "it"], ["à±ģà°ķ", "à±ĭ"], ["o", "di"], ["p", "l"], ["p", "ut"], ["Ġà°µà°ļà±įà°ļ", "à°¿à°Ĥà°¦à°¿"], ["r", "u"], ["à²¤", "à³įà²°"], ["t", "il"], ["Ġt", "ech"], ["à°¾à°", "ļ"], ["an", "u"], ["à¥įà¤", "·"], ["an", "ts"], ["à²Ĥà²", "Ĺ"], ["à°¾à°", "ª"], ["an", "ces"], ["Ġa", "c"], ["Ġo", "ut"], ["à°¾à°", "¹"], ["at", "a"], ["at", "s"], ["à²¦", "à²²"], ["Ġc", "ol"], ["à±ģ", "à°Ĥà°¦à°¿"], ["Ġc", "ulture"], ["ĠI", "sl"], ["à°¿à°", "ļ"], ["and", "s"], ["à²²", "à²¸"], ["and", "hi"], ["Ġà¤", "²"], ["ar", "n"], ["à°¿à°", "³"], ["ar", "s"], ["Ġw", "e"], ["à²³", "à²¿à²¤"], ["Ġw", "om"], ["à°¿à°", "¶"], ["Ġw", "ide"], ["Ġs", "ur"], ["à°¿à°", "¹"], ["or", "s"], ["or", "ies"], ["à²µ", "à²°"], ["Ġm", "ade"], ["à°°", "à°¿à°Ĺ"], ["Ġf", "ound"], ["Ġl", "oc"], ["à¤", "§"], ["om", "et"], ["à±ĩ", "à°Ĥà°¦"], ["Ġà²Ń", "à²¾à²·"], ["Ġh", "igh"], ["Ġ1", "2"], ["Ġ1", "5"], ["Ġà°ª", "à°Łà±įà°Ł"], ["Ġn", "o"], ["Ġg", "reat"], ["Ġà²®", "à²¿à²²"], ["ver", "y"], ["à°¾à°°", "à°Ĥ"], ["ĠC", "entral"], ["ĠS", "h"], ["ĠIndian", "s"], ["Ġà°ķ", "à±Ĭ"], ["Ġth", "ird"], ["Ġà²ķ", "à³įà²°"], ["Ġà¤", "ĩ"], ["ĠM", "uslim"], ["Ġà°ķ", "à±ĩà°Ĥà°¦"], ["Ġas", "s"], ["ĠE", "n"], ["ang", "e"], ["à°µ", "à°¾à°¤"], ["Ġà²µ", "à²¿à²"], ["ĠG", "andhi"], ["ac", "y"], ["ĠD", "el"], ["à°µ", "à°¾à°£"], ["Ġare", "as"], ["du", "st"], ["Ġà²µ", "à³įà²¯"], ["à°°à±įà°", "£"], ["iv", "es"], ["Ġà¤", "¶"], ["Ġcent", "ral"], ["Ġco", "al"], ["Ġà°¦", "à±įà°µ"], ["Ġco", "ast"], ["Ġà²µ", "à²²à²¸"], ["Ġco", "ok"], ["Ġcont", "rib"], ["Ġà°ī", "à°Ĥà°Ł"], ["Ġcont", "rol"], ["Ġag", "ric"], ["cc", "ording"], ["Ġà°ľ", "à°°à°¿à°Ĺ"], ["Ġà²¬", "à³įà²°à²¿à²"], ["ĠHindu", "ism"], ["Ġinclud", "e"], ["Ġà°¨", "à°¿à°°"], ["ens", "us"], ["Ġà¤ª", "à¤°"], ["Ġgrow", "th"], ["à³Ĭ", "à²Ĥà²¡"], ["Ġter", "rit"], ["Ġà°ĩ", "à°Ĥà°¡"], ["Ġfol", "lowing"], ["Ġtim", "e"], ["Ġemerg", "ed"], ["Ġà°¤", "à°°à±ģ"], ["Ġhum", "an"], ["à²®", "à²¾à²¨"], ["Ġinflu", "en"], ["Ġà°®à°¾à°°à±įà°Ĺ", "à°¾à°²à±ģ"], ["Ġ194", "7"], ["ĠPl", "ate"], ["ultan", "ate"], ["Ġtr", "ans"], ["¥", "à¤¾"], ["Ġà°ķà±įà°°à±Ģ", "à°¡"], ["ĠComp", "any"], ["ĠSik", "h"], ["à²Ĥà²¦", "à³ģ"], ["Ġreligi", "ous"], ["Ġà°ħà°¯", "à°¿à°¨"], ["Ġpolit", "ical"], ["Ġwom", "en"], ["à°µà°¾à°£", "à°¾"], ["ĠDel", "hi"], ["Ġà²°", "à²¾à²ľà³įà²¯"], ["Ġ", "8"], ["Ġ", "ent"], ["Ġ", "her"], ["Ġ", "esp"], ["Ġà¤ķ", "à¥ĭ"], ["Ġà°¤à°°à±ģ", "à°µà°¾à°¤"], ["%", ","], [")", "."], ["1", "9"], ["J", "P"], ["a", "u"], ["a", "re"], ["00", "00"], ["ĸ", "à±įà°¯"], ["f", "ore"], ["i", "z"], ["à²¡", "à³Ĩ"], ["m", "ain"], ["Ġà°", "Ł"], ["m", "inist"], ["n", "olog"], ["o", "in"], ["à±įà°", "¦"], ["à¤", "¡"], ["o", "st"], ["à³Ĩà²¯", "à²¨à³įà²¨à³ģ"], ["u", "ally"], ["à°Ĥà°", "ª"], ["v", "ing"], ["v", "ol"], ["v", "id"], ["à°°", "à°¾à°²à±ģ"], ["w", "or"], ["Ġà²Ĩ", "à²°à³įà²¥"], ["w", "est"], ["in", "es"], ["Ġà°ª", "à°¾à°²"], ["Ġthe", "y"], ["on", "s"], ["er", "ation"], ["Ġà°ª", "à±Ĩà°¦à±įà°¦"], ["à¤", "¬"], ["à²ª", "à²Ĥà²ļ"], ["re", "ated"], ["Ġo", "rig"], ["à±įà°°", "à°¦à°¾à°¯"], ["al", "le"], ["Ġc", "ult"], ["Ġc", "ap"], ["à±įà°°", "à±Ĩà°¸"], ["Ġc", "ensus"], ["Ġà²ªà³įà²°", "à²¦à³ĩà²¶"], ["ĠI", "ts"], ["it", "es"], ["à°ķ", "à±Ģà°¯"], ["Ġin", "dust"], ["Ġb", "i"], ["Ġb", "ir"], ["à°¾à°²", "à°²à±ĭ"], ["Ġà²ªà³įà²°", "à²ªà²Ĥà²ļ"], ["à¤¿à¤¯", "à¤¾"], ["or", "t"], ["Ġp", "ain"], ["à°¾à°²", "à°¨à±ģ"], ["es", "s"], ["Ġf", "ed"], ["Ġf", "ig"], ["à²£", "à³Ĩ"], ["à°¦", "à±ģ"], ["Ġf", "eat"], ["ic", "ial"], ["Ġl", "ast"], ["Ġà°¸", "à°°"], ["om", "s"], ["Ġd", "ra"], ["Ġà²¸à²¾à²", "®"], ["Ġà°¸", "à°Ĥà°Ĺ"], ["ec", "ially"], ["Ġà¤", "ı"], ["Ġre", "main"], ["Ġ1", "7"], ["Ġn", "e"], ["Ġà°¸", "à°¾à°®"], ["Ġg", "rew"], ["à³įà²¥", "à²¾à²¨"], ["ver", "se"], ["Ġà°¸", "à°¾à°§"], ["ul", "pt"], ["ĠThe", "re"], ["ist", "s"], ["Ġà°ķ", "à°¾à°Ĥà°Ĺ"], ["ist", "ic"], ["à²Łà³įà²Ł", "à³ģ"], ["Ġ2", "6"], ["ad", "es"], ["à¤¾à¤", "¤"], ["Ġ19", "7"], ["un", "d"], ["Ġà°µ", "à°Ĥà°Ł"], ["Ġr", "ates"], ["Ġà²¹à³Ĭà²Ĥà²¦", "à²¿à²¦à³Ĩ"], ["Ġst", "ates"], ["em", "oc"], ["à°Ĥà°¦", "à°¿à°¨"], ["Ġmo", "vement"], ["ĠE", "urope"], ["Ġdi", "ff"], ["à±Ĩ", "à°²à±ģ"], ["Ġà²²", "à²ķà³įà²·"], ["Ġdi", "versity"], ["Ġan", "imal"], ["Ġan", "cient"], ["Ġà°°", "à°µà°¾à°£à°¾"], ["à¥įà¤", "µ"], ["ĠG", "anges"], ["ab", "l"], ["Ġà²¬à³Ĩ", "à²³"], ["Ġà°ªà±įà°°", "à°¤"], ["ac", "h"], ["ac", "k"], ["ĠN", "eh"], ["Ġar", "m"], ["à±įà°¨", "à°¿"], ["Ġar", "ch"], ["Ġà²µà²²à²¸", "à³Ĩ"], ["Ġde", "v"], ["Ġà°ħ", "à°¨à±ĩ"], ["ĠHin", "di"], ["if", "ic"], ["Ġpart", "y"], ["Ġà¤¹à¥Ī", "à¤Ĥ"], ["à±Ĥ", "à°ª"], ["Ġreg", "ions"], ["Ġà²¬à³įà²°à²¿à²", "Ł"], ["ĠJ", "ain"], ["Ġle", "g"], ["à°¾à°¨", "à±įà°¨à°¿"], ["ces", "s"], ["Ġag", "o"], ["Ġmar", "ri"], ["à°°à±įà°", "¤"], ["Ġà²Ĩà²°à³įà²¥", "à²¿à²ķ"], ["Ġri", "gh"], ["Ġrelig", "ions"], ["Ġà°ī", "à°ª"], ["Ġsc", "ulpt"], ["Ġmajor", "ity"], ["ĠUn", "ited"], ["Ġà¤µ", "à¤¿à¤"], ["Ġà°¨", "à±ģ"], ["¯", "à³ģ"], ["Ġear", "ly"], ["ĠCon", "stitution"], ["Ġsec", "ond"], ["Ġà°ĩ", "à°¦à°¿"], ["Ġocc", "up"], ["Ġliter", "acy"], ["µ", "à²¿à²°"], ["Ġparliament", "ary"], ["Ġà°¬", "à±įà°°"], ["for", "m"], ["Ġdire", "ct"], ["Ġà°¬", "à°¹"], ["Ġmathem", "at"], ["à²", "ĸ"], ["gl", "ish"], ["Ġà¤", "¯"], ["Ġloc", "al"], ["Ġà°µà°¿à°", "µ"], ["ĠEn", "glish"], ["Ġcontrib", "ut"], ["à²", "¥"], ["Ġesp", "ecially"], ["Ġà°İ", "à°ķà±įà°ķà±ģà°µ"], ["Ġpain", "ting"], ["ĠNeh", "ru"], ["à±Į", "à°ķ"], ["Ġ", "ed"], ["Ġ", "roc"], ["à²", "ĸà³įà²¯"], ["D", "P"], ["b", "al"], ["Ġà°®à±ģ", "à°ĸà±įà°¯"], ["c", "ent"], ["à¤", "£"], ["d", "e"], ["à³", "§à³"], ["d", "am"], ["à°¸à±įà°¤", "à±ģà°¤"], ["e", "ograph"], ["f", "t"], ["i", "x"], ["Ġà°ı", "à°°à±įà°ª"], ["i", "et"], ["à³įà²", "§"], ["m", "in"], ["m", "ar"], ["Ġà°İà°¨à±įà°¨", "à±ĭ"], ["n", "ed"], ["n", "ing"], ["p", "ed"], ["à³įà²", "®"], ["Ġà°ľà°¨à°¾à°Ń", "à°¾"], ["p", "ro"], ["à¤¿à¤", "¤"], ["r", "ation"], ["u", "al"], ["v", "en"], ["Ġà°ķà±ĩà°Ĥà°¦", "à±įà°°"], ["w", "n"], ["à²¾à²", "¹"], ["w", "an"], ["y", "an"], ["Ġà°ķà°¾à°Ĥà°Ĺ", "à±įà°°à±Ĩà°¸"], ["Â", "°"], ["an", "k"], ["er", "t"], ["Ġ", "âĢĵ"], ["à³ģ", "à²¨"], ["Ġa", "ir"], ["en", "ins"], ["st", "r"], ["§", "à°¿à°ķ"], ["Ġà¤¨", "à¥ĩ"], ["al", "th"], ["di", "an"], ["à³Ĩ", "à²°"], ["à°", "¥"], ["at", "ing"], ["Ġc", "ar"], ["Ġc", "ities"], ["à°¾à°", "¡"], ["Ġc", "reated"], ["ar", "at"], ["à²°", "à²¿"], ["Ġw", "on"], ["à°¿à°", "ľ"], ["Ġw", "ell"], ["Ġof", "ten"], ["Ġin", "d"], ["à°Ĥà°", "ķ"], ["Ġà¤ķ", "à¤°"], ["Ġin", "ter"], ["à²¦", "à³įà²§"], ["Ġs", "m"], ["à°²", "à°²à±ĭ"], ["Ġs", "ou"], ["Ġs", "ultanate"], ["Ġp", "res"], ["à°°", "à°¿"], ["Ġp", "rom"], ["à²Ĺ", "à²®"], ["Ġp", "enins"], ["is", "hed"], ["à°°", "à±ĭ"], ["ing", "d"], ["Ġl", "ow"], ["Ġl", "ower"], ["à²Ĺ", "à²¿à²¨"], ["à±ĭ", "à°°"], ["à¤¾à¤", "®"], ["ou", "p"], ["ou", "ld"], ["ĠT", "amil"], ["à°ķ", "à°¾à°²"], ["ec", "ut"], ["ur", "ther"], ["à²¾à²°", "à³ģ"], ["à°ķ", "à±įà°°à°®"], ["Ġre", "f"], ["Ġn", "ational"], ["ĠA", "ct"], ["à°¾à°²", "à±ĭ"], ["ĠA", "mong"], ["ĠA", "ccording"], ["à³įà²°", "à²¾à²"], ["ĠThe", "se"], ["Ġà°¸", "à°¿à°¨"], ["à¤¤", "à¥įà¤°"], ["ra", "ct"], ["ĠB", "JP"], ["am", "m"], ["Ġà°¸", "à°¿à°Ĥà°"], ["ĠS", "e"], ["à³įà²°", "à²¾à²ľà³įà²¯"], ["le", "g"], ["et", "ic"], ["Ġà°ķ", "à°¾à°°"], ["uc", "ation"], ["tion", "s"], ["à±įà°¯", "à°§à°¿à°ķ"], ["Ġà²¸", "à²¿à²°"], ["ĠP", "ers"], ["Ġwh", "ose"], ["Ġst", "at"], ["à¤¾à¤", "¸"], ["Ġà°®", "à°¾à°¤"], ["Ġex", "ecut"], ["ĠG", "overnment"], ["Ġà²¹", "à²¾à²Ĺ"], ["der", "s"], ["Ġà°®", "à°¹"], ["ac", "t"], ["se", "qu"], ["ĠD", "uring"], ["à°¡", "à±ģ"], ["ĠN", "ational"], ["à²ķ", "à³įà²¤"], ["Ġun", "ion"], ["ive", "ly"], ["à°¡", "à±įà°¡"], ["Ġcom", "mer"], ["à¤¿à¤", "¨"], ["Ġcom", "mon"], ["iv", "ed"], ["Ġà°ªà±įà°°", "à°¾à°ļ"], ["os", "ed"], ["Ġà²µ", "à²°à³įà²"], ["od", "y"], ["ĠW", "estern"], ["Ġà°ªà±įà°°", "à°¸à±įà°¤à±ģà°¤"], ["Ġcont", "in"], ["Ġbec", "ome"], ["Ġform", "s"], ["à±Ī", "à°Ł"], ["à²Ĺà²³", "à²¨à³įà²¨à³ģ"], ["Ġad", "minist"], ["Ġse", "ver"], ["Ġmar", "ket"], ["à°Ł", "à°¿à°ķ"], ["à¤", "ľ"], ["Ġdec", "l"], ["Ġpopul", "ar"], ["à³Ĭ", "à²¡"], ["Ġgen", "er"], ["à°°à±įà°", "Ł"], ["Ġend", "em"], ["all", "ed"], ["à°°à±įà°", "²"], ["igh", "t"], ["Ġlong", "er"], ["à²¿à²¯", "à²²à³įà²²à²¿"], ["Ġ200", "1"], ["Ġà°ī", "à°¤à±įà°¤"], ["Ġregion", "al"], ["Ġelection", "s"], ["Ġà¤", "ļ"], ["ĠBuddh", "ism"], ["à°¦à±ĩà°¶", "à°Ĥ"], ["Ġear", "li"], ["à²¿à²¯", "à²¿à²Ĥà²¦"], ["out", "heast"], ["ĠAn", "dam"], ["à°Ĥà°Ĺ", "à°¾à°²"], ["Ġ199", "1"], ["Ġeast", "ern"], ["Ġrep", "ublic"], ["Ġà²¨", "à²Ĺ"], ["à°Ĥà°Ĺ", "à±įà°²"], ["Ġhist", "or"], ["tern", "al"], ["Ġbas", "ed"], ["à¥ĩ", "à¤¶"], ["Ġà°ļ", "à°¿à°¨à±įà°¨"], ["ĠSt", "ates"], ["Ġsty", "les"], ["Ġà²°", "à²¾à²·à³įà²Łà³įà²°"], ["ĠHimalay", "as"], ["à±įà°²", "à±ģ"], ["Ġtech", "nolog"], ["Ġwide", "ly"], ["Ġorig", "in"], ["à°Ĥà°¡", "à±ģ"], ["alle", "y"], ["à²¿à²¸", "à²¿à²¦"], ["Ġfed", "eral"], ["Ġà°Ĺ", "à°²"], ["ific", "ant"], ["Ġed", "ucation"], ["Ġà¤°", "à¤¾à¤ľ"], ["Ġsou", "thern"], ["Ġà°°à°¾à°ľ", "à°ķà±Ģà°¯"], ["sequ", "ent"], ["Ġà²ĩ", "à²¦"], ["ĠAndam", "an"], ["Ġ", "z"], ["à°¾à°¬", "à±įà°¦"], ["3", "5"], ["a", "h"], ["a", "x"], ["a", "di"], ["à°¿à°¸à±įà°¤", "à°¾à°°à±ģ"], ["b", "ar"], ["b", "ers"], ["à²°à³Ĩ", "à²Ĺà³Ĩ"], ["c", "an"], ["à¤¾à¤", "¦"], ["Ġà°Ńà°¾à°", "Ĺ"], ["c", "ial"], ["d", "ed"], ["d", "ra"], ["e", "ak"], ["à±ģà°ķà±ģ", "à°Ĥà°Ł"], ["m", "b"], ["Ġà²¸à²¾à²", "µà²¿à²°"], ["m", "ary"], ["n", "own"], ["à°¿à°²à±įà°²", "à±Ģ"], ["o", "ol"], ["p", "ical"], ["s", "c"], ["Ġà°ħà°¤", "à±įà°¯à°§à°¿à°ķ"], ["s", "s"], ["Ġà²®à³ģ", "à²ĸà³įà²¯"], ["à¤¤", "à¤¾"], ["t", "le"], ["u", "e"], ["v", "al"], ["ķà±ĥ", "à°¤"], ["á", "¹"], ["Ġt", "em"], ["à²·", "à³įà²Ł"], ["Ġt", "rib"], ["Ġà°ķà°¾à°²", "à°Ĥà°²à±ĭ"], ["Ġt", "ex"], ["in", "ed"], ["re", "di"], ["Ġa", "ff"], ["Ġà°Ĩà°°à±įà°", "§à°¿à°ķ"], ["Ġo", "b"], ["Ġà²İ", "à²Ĥà²¬"], ["à¤¨", "à¥ĩ"], ["Ġo", "ld"], ["al", "e"], ["Ġà°¶à°¾à°", "¸à±įà°¤"], ["al", "es"], ["al", "ity"], ["at", "her"], ["à°¿à°¹", "à°¦à±įà°¦"], ["at", "ure"], ["à²¿à²µ", "à³Ĩ"], ["Ġc", "ur"], ["Ġc", "ivil"], ["Ġw", "in"], ["Ġà°¸à°°", "à°¿à°¹à°¦à±įà°¦"], ["Ġw", "est"], ["Ġin", "di"], ["Ġs", "a"], ["à¥įà¤", "Ł"], ["Ġà°¸à°Ĥà°Ĺ", "à±Ģà°¤"], ["à³Ī", "à²¨"], ["Ġs", "ing"], ["Ġs", "ch"], ["Ġb", "l"], ["Ġà°¸à°¿à°¨", "à°¿à°®"], ["Ġm", "en"], ["Ġm", "em"], ["Ġm", "ak"], ["Ġà²Ĵ", "à²Łà³įà²Łà³ģ"], ["Ġf", "l"], ["Ġà°īà°¤à±įà°¤", "à°°"], ["Ġf", "ast"], ["Ġf", "ive"], ["Ġf", "our"], ["Ġ", "âĢĶ"], ["Ġf", "amil"], ["à¤", "ļ"], ["Ġf", "urther"], ["à²Ĥà²¤à³įà²°", "à³įà²¯"], ["ic", "es"], ["¢", "à°¿à°²à±įà°²à±Ģ"], ["is", "l"], ["is", "s"], ["is", "ing"], ["µ", "à°¤"], ["ing", "ly"], ["as", "hm"], ["Ġà²¸à³įà²µ", "à²¾à²¤"], ["Ġe", "th"], ["à°", "«"], ["Ġe", "mpire"], ["Ġe", "very"], ["ou", "se"], ["à°¾à°", "³"], ["à¤ķ", "à¥įà¤·"], ["Ġh", "owever"], ["Ġd", "omin"], ["Ġà²®à³Ĭ", "à²¦à²²"], ["à±ģ", "à°¨"], ["Ġd", "ances"], ["Ġre", "n"], ["Ġ1", "0"], ["Ġ1", "3"], ["Ġn", "ow"], ["à°¿à°", "¦"], ["Ġg", "ar"], ["Ġg", "lo"], ["Ġà²¶à²¤", "à²®à²¾à²¨"], ["il", "ity"], ["à°¿à°", "¸"], ["th", "ough"], ["ĠA", "f"], ["à¤", "Ł"], ["à°¤", "à°Ĥà°¤à±įà°°"], ["ĠA", "ra"], ["ra", "hm"], ["ĠB", "i"], ["Ġ%", "),"], ["à°²", "à±įà°µ"], ["ĠB", "har"], ["ĠB", "rahm"], ["am", "p"], ["à°²", "à±įà°²"], ["ĠS", "outheast"], ["ro", "ss"], ["Ġth", "ree"], ["Ġà²®à²¿à²²", "à²¿à²¯à²¨à³į"], ["à°²", "à°¨à±ģ"], ["Ġr", "ise"], ["Ġcon", "duc"], ["§", "à¥"], ["Ġst", "r"], ["à°°", "à°¿à°ķ"], ["ang", "ered"], ["Ġdi", "st"], ["Ġan", "n"], ["à±ĩ", "à°¨"], ["Ġà²¸à²¾à²®", "à³įà²°à²¾à²ľà³įà²¯"], ["ĠG", "DP"], ["ay", "s"], ["Ġar", "ound"], ["Ġà°ª", "à°¤"], ["Ġun", "til"], ["li", "ef"], ["Ġal", "ong"], ["Ġà°ª", "à±Ĥ"], ["Ġà²¸à²¿à²°", "à²¿à²µ"], ["Ġv", "ast"], ["à¥", "ĥ"], ["Ġv", "ill"], ["à°¾à°°", "à±ģà°²à±ģ"], ["Ġv", "ari"], ["os", "s"], ["Ġde", "f"], ["à°ķ", "à°¾à°²à±ģ"], ["Ġwor", "n"], ["Ġà²¹à²¾à²Ĺ", "à³Ĥ"], ["Ġch", "ar"], ["Ġch", "anges"], ["à±Ģ", "à°ª"], ["Ġpro", "t"], ["ĠR", "aj"], ["Ġsp", "read"], ["à°¦", "à°¾à°°à±ģà°²à±ģ"], ["à¤¿à¤", "¸"], ["Ġform", "ed"], ["à³Ĭà²¡", "à³įà²¡"], ["ĠJ", "anu"], ["Ġk", "ingd"], ["Ġà°¸", "à±Įà°ķ"], ["Ġsub", "sequent"], ["Ġpl", "ain"], ["Ġle", "ft"], ["Ġà°µ", "à°¾à°°"], ["ĠK", "ashm"], ["Ġà²¸à³įà²µà²¾à²¤", "à²Ĥà²¤à³įà²°à³įà²¯"], ["Ġcomp", "le"], ["Ġend", "angered"], ["à±įà°¯", "à°¾à°¯"], ["Ġres", "p"], ["Ġ5", "0"], ["Ġà¤¸", "à¤Ĥà¤"], ["Ġcons", "id"], ["Ġà°®", "à°¨"], ["Ġpol", "ic"], ["Ġhe", "ld"], ["Ġ", ":"], ["Ġim", "port"], ["Ġà°®", "à±Ĥà°¡"], ["Ġca", "us"], ["Ġtradition", "s"], ["Ġtradition", "al"], ["à±Ĩ", "à°Ł"], ["Ń", "à²ľ"], ["ĠUn", "ion"], ["ep", "end"], ["à±Ĩ", "à°¬"], ["Ġoff", "icial"], ["Ġ196", "5"], ["ĠBuddh", "ist"], ["à¤", "Ń"], ["à²", "¬"], ["lo", "y"], ["Ġà°°", "à°¹"], ["Ġter", "m"], ["Ġrec", "ord"], ["Ġtim", "es"], ["à°¡", "à°¿à°ª"], ["ard", "s"], ["à³", "®"], ["ĠAl", "though"], ["Ġcour", "t"], ["Ġà°ªà±įà°°", "à°®à±ģ"], ["Ġcour", "ts"], ["Ġmid", "dle"], ["Ġà°Ńà°¾à°°à°¤", "à±į"], ["ĠTh", "is"], ["Ġà²", "«"], ["à¤¾à¤", "·"], ["Ġdevelop", "ed"], ["Ġest", "im"], ["à°Ĺ", "à°²à±ģ"], ["Ġest", "abl"], ["Ġthough", "t"], ["à³įà²", "Ĺ"], ["Ġlead", "ing"], ["à°¨à±įà°¨", "à°¿"], ["Ġsign", "ificant"], ["Ġemp", "loy"], ["Ġgr", "oup"], ["à°¾à°¤", "à±įà°°"], ["ĠIsl", "am"], ["à²¿à²", "£"], ["Ġsur", "v"], ["Ġcoal", "ition"], ["à¥įà¤", "¦"], ["Ġà°¨", "à°¡à°¿à°ª"], ["Ġterrit", "ories"], ["Ġinfluen", "ced"], ["wor", "k"], ["à°¿à°Ĥà°ļ", "à°¿"], ["à²¿à²", "ª"], ["Ġindust", "ry"], ["Ġbir", "th"], ["Ġfig", "ures"], ["Ġà°Ĩ", "à°§"], ["Ġdiff", "er"], ["ĠJain", "ism"], ["à²¿à²", "·"], ["Ġà°¬", "à±Ĩ"], ["Ġleg", "isl"], ["Ġsculpt", "ure"], ["à¤¡", "à¤¼"], ["Ġroc", "k"], ["à°Ĥà°¤", "à±ĭ"], ["Ġind", "epend"], ["à²¿à²", "¹"], ["Ġpenins", "ular"], ["ĠPers", "ian"], ["à±įâĢĮ", "à°¸"], ["Ġexecut", "ive"], ["Ġearli", "est"], ["Ġtechnolog", "y"], ["à²¾à²", "£"], ["à°¾à°¬", "à°¾à°¦"], ["Ġfamil", "ies"], ["ĠJanu", "ary"], ["Ġkingd", "oms"], ["Ġà°°à°¾à°·à±įà°Łà±įà°°", "à°ª"], ["Ġ", "Y"], ["Ġà¤Ńà¤¾à¤°à¤¤", "à¥Ģà¤¯"], ["Ġ", "er"], ["à²¾à²", "ª"], ["Ġ", "ve"], ["Ġà°°à°¾à°·à±įà°Łà±įà°°", "à°¾à°²à±ģ"], ["Ġ", "qu"], ["3", "0"], ["4", "2"], ["a", "il"], ["a", "ist"], ["b", "ian"], ["à³ģ", "à²¤à³įà²¤"], ["c", "ast"], ["Ġà°ªà±įà°°à°¾à°Ĥà°¤", "à°¾à°²à±ģ"], ["e", "b"], ["e", "ly"], ["e", "qu"], ["Ġà¤ĩ", "à¤¸"], ["g", "u"], ["à°ªà±įà°ª", "à°Łà°¿à°ķ"], ["g", "y"], ["h", "an"], ["h", "as"], ["à³Ĩ", "à²¹"], ["Ġà°¦à±ĩà°¶à°Ĥà°²à±ĭ", "à°¨à°¿"], ["h", "ats"], ["i", "e"], ["l", "ine"], ["m", "as"], ["Ġà°®à±Ĭà°¦", "à°²"], ["m", "ace"], ["m", "iss"], ["à²°", "à²¤"], ["o", "tion"], ["à±ģà°ķà±ĭ", "à°µ"], ["o", "ts"], ["r", "an"], ["Ġà¤¸", "à¤®"], ["r", "atic"], ["t", "e"], ["Ġà°ªà°Łà±įà°Ł", "à°£"], ["t", "i"], ["à²°", "à²¡"], ["t", "al"], ["t", "ic"], ["Ġà°ĩà°Ĥà°¡", "à°¿à°¯à°¾"], ["t", "ou"], ["t", "ain"], ["t", "ure"], ["u", "j"], ["à²°", "à³įâĢĮ"], ["Ġà°¬à±įà°°", "à°¿à°Ł"], ["u", "ed"], ["u", "es"], ["v", "es"], ["x", "im"], ["à¥", "¦"], ["Ġà°¬à°¹", "à±ģ"], ["Ġt", "ur"], ["Ġt", "ax"], ["à²°", "à²Ĥà²Ń"], ["an", "i"], ["Ġà°µà°¿à°µ", "à°¿à°§"], ["an", "ted"], ["he", "re"], ["in", "c"], ["in", "ing"], ["Ġà°¸à°¿à°Ĥà°", "§"], ["à²¤", "à³įà²¯"], ["on", "es"], ["er", "c"], ["er", "ing"], ["Ġà°¸à±Įà°ķ", "à°°à±įà°¯"], ["er", "gy"], ["re", "me"], ["à¤¾à¤", "¯"], ["Ġa", "cc"], ["à²¤", "à²¿à²¯"], ["al", "i"], ["Ġà°ªà±įà°°à°®à±ģ", "à°ĸ"], ["di", "s"], ["Ġc", "an"], ["Ġc", "he"], [".", "."], ["Ġc", "reat"], ["Ġc", "alled"], ["¥", "à°¿à°ķ"], ["à²¦", "à²¿à²Ĥà²¦"], ["ar", "a"], ["ar", "ies"], ["it", "ect"], ["§", "à°¿"], ["Ġw", "rit"], ["Ġw", "ear"], ["à¤¨", "à¤¾"], ["Ġw", "hen"], ["µ", "à°¾à°®"], ["à²¨", "à²¾"], ["Ġw", "ild"], ["Ġw", "aist"], ["Ġin", "vol"], ["à°", "·à±įà°Ł"], ["Ġs", "o"], ["Ġs", "um"], ["Ġs", "ari"], ["à²¨", "à³Ĩà²¯"], ["Ġà°", "Ĳ"], ["Ġb", "or"], ["Ġb", "ody"], ["Ġp", "har"], ["Ġà°", "ĸ"], ["Ġp", "ublic"], ["Ġp", "ract"], ["à¤", "¥à¤¾"], ["Ġm", "an"], ["à²²", "à²¿"], ["à±įà°", "ķ"], ["Ġm", "on"], ["Ġm", "ult"], ["Ġf", "am"], ["à±ģ", "à°ª"], ["Ġf", "low"], ["Ġf", "und"], ["ing", "h"], ["à²²", "à²¾à²Ĺ"], ["à°¿à°", "¡"], ["as", "h"], ["Ġl", "o"], ["Ġl", "ay"], ["à°¿à°", "·"], ["om", "mon"], ["à¤¾à¤", "Ĥ"], ["Ġe", "qu"], ["ou", "l"], ["à²µ", "à²¾"], ["à°¤", "à°¾à°¬à±įà°¦"], ["Ġto", "ok"], ["Ġh", "is"], ["Ġd", "er"], ["à°¨", "à±į"], ["Ġd", "emoc"], ["Ġre", "t"], ["Ġre", "duced"], ["à²µ", "à²¸"], ["à°²", "à±į"], ["Ġre", "form"], ["Ġ1", "4"], ["Ġ1", "6"], ["à°²", "à°¤à±ĭ"], ["Ġn", "at"], ["Ġà¥", "§à¥"], ["Ġn", "ear"], ["ĠA", "r"], ["ol", "d"], ["à°°", "à°Ĥ"], ["ol", "e"], ["ol", "id"], ["ol", "ence"], ["à°°", "à°¤"], ["Ġà²¸", "à²¾à²°"], ["ri", "al"], ["ĠThe", "ir"], ["ĠC", "ivil"], ["à°°", "à°¿à°¤à±įà°°"], ["ra", "vi"], ["ĠS", "ingh"], ["ro", "pical"], ["Ġà¤ħ", "à¤¨"], ["à±ĩ", "à°¦"], ["Ġà²¸", "à²¿à²Ĥà²"], ["ro", "xim"], ["ut", "ical"], ["ast", "ri"], ["Ġà°ª", "à±ĭ"], ["Ġ2", "1"], ["ĠM", "any"], ["Ġbe", "low"], ["Ġà²¸", "à³įà²¥à²¾à²¨"], ["Ġà°ª", "à°¦à±įà°§"], ["Ġbe", "fore"], ["Ġwith", "in"], ["op", "eration"], ["Ġà°ª", "à°Ĥà°¡à±ģ"], ["ĠP", "ar"], ["Ġst", "e"], ["Ġà¤¤", "à¤¥à¤¾"], ["Ġex", "c"], ["Ġà²Ń", "à²¾à²Ĺ"], ["à°ķ", "à°¾à°°à°Ĥ"], ["Ġex", "ch"], ["Ġex", "ternal"], ["Ġdi", "verse"], ["à°¾à°²", "à°ķà±ģ"], ["ĠG", "up"], ["ĠG", "ree"], ["ĠG", "hats"], ["à²¸", "à³įà²²"], ["à°¾à°²", "à°¤à±ĭ"], ["ĠG", "uj"], ["ab", "ly"], ["ab", "ility"], ["à°¾à°²", "à±įà°²à±ĭ"], ["ac", "ted"], ["ĠD", "e"], ["Ġà¤ı", "à¤ķ"], ["ĠD", "es"], ["à²¸", "à²Ń"], ["à±Ģ", "à°Ł"], ["ĠD", "ec"], ["ĠD", "ravi"], ["ĠH", "owever"], ["à±Ģ", "à°°à±įà°£"], ["ĠN", "uclear"], ["âĢ", "²"], ["ure", "d"], ["Ġà²ķ", "à³ĩ"], ["Ġà°¸", "à°¾à°°"], ["ult", "ing"], ["ult", "ural"], ["ak", "sh"], ["Ġà°¸", "à°°à±įà°µ"], ["oc", "i"], ["Ġà¤¹", "à¥ģà¤"], ["li", "ed"], ["Ġà²ķ", "à³Ĩà²²"], ["li", "ance"], ["Ġà°µ", "à°²"], ["li", "fe"], ["du", "ally"], ["el", "f"], ["Ġà°µ", "à°°à±įà°"], ["iv", "ing"], ["por", "ts"], ["Ġà²µ", "à²°"], ["por", "ted"], ["Ġà°µ", "à°¾à°¤"], ["ous", "ly"], ["ĠAs", "s"], ["ĠAs", "ian"], ["Ġà°µ", "à±Ĩà°¬"], ["Ġà¤Ń", "à¥Ģ"], ["ĠW", "ar"], ["ĠW", "est"], ["à²Ĺà²³", "à²²à³įà²²à²¿"], ["Ġint", "ro"], ["à°®", "à°Ĥà°¤à±įà°°"], ["Ġpro", "v"], ["Ġpro", "duc"], ["Ġpro", "cess"], ["à°®", "à°¿à°³"], ["av", "ing"], ["if", "ied"], ["à²Ĺà²³", "à³Ĩà²Ĥà²¦à²°à³Ĩ"], ["Ġpart", "ition"], ["Ġà°°", "à±ĭ"], ["Ġk", "nown"], ["Ġpl", "ate"], ["Ġà¤¹", "à¥ĭ"], ["Ġpl", "ace"], ["à°ª", "à°¾à°²"], ["Ġrel", "ations"], ["Ġag", "ain"], ["Ġà²¬", "à²Ĥà²¦"], ["Ġel", "ites"], ["Ġà°ħ", "à°¨à±ģ"], ["Ġdec", "ades"], ["ĠF", "ore"], ["ĠV", "alley"], ["Ġà°ħ", "à°Ń"], ["Ġcomp", "osed"], ["ĠHindu", "st"], ["Ġà²ħ", "à²Ĥà²"], ["Ġsh", "ow"], ["Ġà°ľ", "à°¾à°¬"], ["à¤Ĥà¤", "Ĺ"], ["Ġres", "ulting"], ["Ġ5", "5"], ["ric", "a"], ["à°¾à°¤", "à°Ĥà°¤à±įà°°"], ["Ġsup", "p"], ["Ġsup", "port"], ["Ġà²ħ", "à²®"], ["Ġà°¨", "à°Ĺ"], ["Ġme", "at"], ["Ġcons", "olid"], ["Ġpol", "l"], ["Ġà°ļ", "à±Īà°¨"], ["Ġnum", "bers"], ["Ġhe", "ad"], ["à¤¾à¤", "µ"], ["Ġdis", "put"], ["Ġà²ħ", "à²¥"], ["Ġà°ļ", "à°°à°¿à°¤à±įà°°"], ["Ġtradition", "ally"], ["Ġsc", "ri"], ["Ġsoc", "iet"], ["à±įà°µ", "à°¹"], ["Ġ195", "1"], ["Ġ202", "6"], ["hed", "ul"], ["à³Ĭ", "à²³"], ["à°ķà±įà°", "¤"], ["Ġgrow", "ing"], ["ament", "al"], ["ĠAn", "cient"], ["Ġà°Ńà°¾à°°à°¤à°¦à±ĩà°¶", "à°¾à°¨à°¿à°ķà°¿"], ["à¥įà¤", "¥"], ["ĠCon", "stit"], ["Ġj", "ust"], ["Ġen", "acted"], ["à²¿à²¯", "à²¾"], ["à±įà°²", "à°¨à±ģ"], ["Ġup", "per"], ["Ġapp", "roxim"], ["Ġfore", "ign"], ["à°¨à±ģ", "à°ķ"], ["Ġab", "out"], ["Ġsec", "ular"], ["ĠAl", "l"], ["à²®", "à²¾à²°à³ģ"], ["à°¿à°Ĥà°ļ", "à±ĩ"], ["Ġext", "ant"], ["à¤¸", "à¥ĩ"], ["Ġext", "ens"], ["Ġinflu", "ence"], ["à°¸à±įà°", "²"], ["vent", "ion"], ["Ġhist", "ory"], ["tern", "ational"], ["à²¾à²Ĺ", "à²°"], ["à°¾à°Ĥ", "à°¡"], ["Ġdevelop", "ment"], ["gen", "ous"], ["ĠMa", "ur"], ["Ġà°¤", "à°¨"], ["Ġlead", "er"], ["Ġcr", "ust"], ["¯", "à¥"], ["Ġexpor", "ts"], ["à²¿à²¤", "à²¿"], ["Ġà°¤", "à°®à°¿à°³"], ["odi", "versity"], ["Ġ12", "00"], ["Ġgreat", "er"], ["Ġà°µà°¿à°", "¦"], ["Ġcook", "ed"], ["Ġcook", "ing"], ["à²¡", "à²³à²¿à²¤"], ["Ġagric", "ulture"], ["Ġà°µà°¿à°", "¶"], ["Ġagric", "ultural"], ["ĠPlate", "au"], ["à¤°à¥įà¤", "µ"], ["vid", "ed"], ["Ġà°¸à°Ĥà°", "ĸà±įà°¯"], ["Ġcap", "it"], ["Ġfeat", "ures"], ["à³¦", "à³§à³"], ["ĠEurope", "an"], ["à°®à±ģ", "à°¦"], ["Ġarch", "itect"], ["Ġrigh", "ts"], ["Ġdirect", "ly"], ["Ġà°¶", "à°¤à°¾à°¬à±įà°¦"], ["Ġmathemat", "ics"], ["Ġsm", "all"], ["Ġà¤¸", "à¤¾à¤"], ["Ġà²¦", "à³Ĭà²¡à³įà²¡"], ["ĠSe", "a"], ["à°ķà±įà°·", "à°°"], ["Ġcommer", "cial"], ["Ġcommon", "ly"], ["Ġcontin", "ued"], ["Ġà°ķà±Ĥà°¡", "à°¿à°¨"], ["dra", "mas"], ["Ġold", "est"], ["Ġà²¦", "à³Ĩà²¹"], ["Ġcur", "ren"], ["Ġà°ªà°°", "à°¿à°¶"], ["Ġindi", "genous"], ["Ġsing", "le"], ["à¤°à¥įà¤", "®"], ["Ġsch", "ool"], ["à°¿à°¸à±įà°¤", "à°¾à°¨à±į"], ["Ġmem", "ber"], ["Ġren", "ew"], ["à³Ģ", "à²ķ"], ["Ġglo", "bal"], ["Ġà°°à±Ī", "à°²à±įà°µ"], ["ĠAf", "rica"], ["ĠBhar", "at"], ["Ġconduc", "ted"], ["Ġà°®à±Ĭ", "à°¤à±įà°¤"], ["ĠKashm", "ir"], ["Ġimport", "ant"], ["Ġà²Ĩ", "à²°à²Ĥà²Ń"], ["Ġrecord", "ed"], ["à¤¿à¤", "®"], ["à°¾à°Ł", "à±ģ"], ["Ġestim", "ated"], ["Ġestabl", "ished"], ["Ġdiffer", "ent"], ["Ġà°¸à±įà°µ", "à°¾à°¤à°Ĥà°¤à±įà°°"], ["Ġer", "a"], ["mace", "utical"], ["Ġà²Ĩ", "à²¡à²³à²¿à²¤"], ["tou", "ch"], ["Ġà°ķà°²", "à°¿à°Ĺ"], ["Ġphar", "maceutical"], ["Ġfund", "amental"], ["ĠDravi", "dian"], ["à¤ķ", "à¤¾à¤°"], ["à°¾à°µ", "à°°à°£"], ["Ġapproxim", "ately"], ["Ġ", "0"], ["Ġà²ĩ", "à²¤"], ["Ġ", "ir"], ["Ġ", "very"], ["Ġà°ķà±ĭ", "à°°à±įà°Ł"], [")", ";"], ["2", "4"], ["2", "00"], ["4", "00"], ["6", "4"], ["Ġà°ħà°§à°¿à°ķà°¾à°°", "à°¿à°ķ"], ["9", "1"], ["A", "ry"], ["D", "A"], ["Ġà²ĩ", "à²Ĥà²¡"], ["E", "urope"], ["Ġà°ªà±įà°°à°§à°¾à°¨", "à°®à°Ĥà°¤à±įà°°"], ["H", "O"], ["à¥ĥ", "à¤¤"], ["I", "n"], ["P", "A"], ["a", "f"], ["Ġà°ªà±įà°°à°ªà°Ĥà°ļ", "à°Ĥà°²à±ĭ"], ["a", "ic"], ["a", "fter"], ["a", "ren"], ["b", "ly"], ["à°¿à°¸à±įà°", "¥"], ["b", "le"], ["à²µà²¾à²Ĺ", "à²¿à²¦à³Ĩ"], ["c", "o"], ["d", "s"], ["d", "ar"], ["Ġà°°à±Ĩà°Ĥà°¡", "à±ģ"], ["d", "es"], ["e", "y"], ["à¤¿à¤", "²"], ["e", "z"], ["e", "ign"], ["Ġà°ļà±ĩà°", "¯"], ["e", "dic"], ["Ġà²ī", "à²Ĺà²®"], ["e", "val"], ["g", "th"], ["g", "et"], ["Ġà°ļà±ĩà°", "¸"], ["h", "a"], ["h", "ok"], ["h", "Äģ"], ["i", "i"], ["Ġà°īà°Ĥà°Ł", "à°¾à°¯à°¿"], ["i", "ly"], ["à³įà²¥", "à³Ĩ"], ["i", "qu"], ["Ġà¤ľ", "à¤¾à¤¤"], ["i", "ber"], ["j", "o"], ["Ġà°ľà°°à°¿à°Ĺ", "à°¿à°¨"], ["j", "ect"], ["k", "h"], ["k", "en"], ["l", "a"], ["Ġà°¨à°¿à°°", "à±įà°µà°¹"], ["l", "and"], ["Ġà²¸à²Ĥà²", "¸"], ["l", "ong"], ["l", "ades"], ["m", "end"], ["Ġà°ªà±įà°°à°¤", "à°¿à°ª"], ["n", "e"], ["à¤", "·"], ["n", "o"], ["n", "am"], ["o", "ted"], ["Ġà°ħà°¨à±ĩ", "à°ķ"], ["o", "ther"], ["Ġà²İ", "à²°à²¡"], ["o", "bar"], ["p", "en"], ["p", "ic"], ["Ġà°¨à±ģ", "à°Ĥà°¡à°¿"], ["p", "ur"], ["p", "tion"], ["p", "ts"], ["p", "ay"], ["Ġà°İà°ķà±įà°ķà±ģà°µ", "à°Ĺà°¾"], ["p", "end"], ["Ġà²ļ", "à³ģà²¨"], ["à¥", "Į"], ["r", "in"], ["r", "at"], ["r", "ound"], ["Ġà°ķà°¾à°Ĥà°Ĺà±įà°°à±Ĩà°¸", "à±ģ"], ["s", "er"], ["s", "et"], ["t", "t"], ["t", "he"], ["Ġà°ªà±įà°°à°¾à°ļ", "à±Ģà°¨"], ["t", "om"], ["à²ķà³įà²·", "à²¿à²£"], ["u", "is"], ["u", "ent"], ["u", "ous"], ["Ġà°ªà±įà°°à°¸à±įà°¤à±ģà°¤", "à°Ĥ"], ["Ġà¤µ", "à¤°à¥įà¤"], ["v", "an"], ["v", "as"], ["w", "ards"], ["Ġt", "e"], ["à°¿à°¦", "à±įà°"], ["Ġà²¹à²¿à²Ĥà²¦", "à³Ĥ"], ["Ġt", "est"], ["Ġt", "ak"], ["Ġt", "ropical"], ["an", "ies"], ["Ġà°°à°¹", "à°¦à°¾à°°à±ģà°²à±ģ"], ["an", "ch"], ["an", "ism"], ["an", "ata"], ["Ġthe", "n"], ["Ġà¤ķ", "à¤¿à¤¯à¤¾"], ["Ġà°¬à±Ĩ", "à°Ĥà°Ĺà°¾à°²"], ["à²¿à²¦à³įà²¦", "à³ģ"], ["Ġthe", "se"], ["on", "e"], ["on", "om"], ["on", "ial"], ["Ġà°°à°¾à°·à±įà°Łà±įà°°à°ª", "à°¤à°¿"], ["er", "i"], ["er", "ch"], ["re", "g"], ["re", "en"], ["Ġà°µà°¾à°¤", "à°¾à°µà°°à°£"], ["à²¾à²µ", "à²£à³Ĩ"], ["Ġa", "ver"], ["Ġo", "pp"], ["en", "ed"], ["à¤°", "à¥Ģ"], ["en", "se"], ["Ġà°ľà°¾à°¬", "à°¿à°¤"], ["en", "cy"], ["al", "a"], ["al", "w"], ["di", "a"], ["Ġà°¶à°¤à°¾à°¬à±įà°¦", "à°Ĥ"], ["di", "ately"], ["di", "eval"], ["à²¿à²Ĺà²³", "à³ģ"], ["Ġc", "al"], ["Ġc", "or"], ["Ġà°®à±Ĭà°¤à±įà°¤", "à°Ĥ"], ["Ġc", "le"], ["Ġc", "rit"], ["à¤¾à¤", "ģ"], ["Ġc", "os"], ["Ġc", "ame"], ["Ġà°µà°¾à°¤à°¾à°µà°°à°£", "à°Ĥ"], ["Ġc", "ould"], ["and", "ing"], ["Ġà²¹à³Ĩà²¸", "à²°à³ģ"], ["ar", "ly"], ["it", "her"], ["%", "),"], ["it", "ud"], ["it", "ions"], ["Ġw", "ent"], ["ķ", "à±Ĭ"], ["Ġw", "ould"], ["à¤¾à¤", "Ī"], ["Ġin", "st"], ["Ġin", "it"], ["Ġà²ķà³įà²°", "à²¿"], ["Ĺ", "à°Ĥà°Ĺà°¾"], ["Ġin", "stitution"], ["Ġin", "equ"], ["Ġs", "il"], ["ª", "à±įà°°à°¦à°¾à°¯"], ["Ġs", "im"], ["Ġs", "over"], ["Ġs", "av"], ["Ġs", "low"], ["Ġà°", "ĺ"], ["Ġs", "ect"], ["Ġà²°à²¾à²ľà³įà²¯", "à²Ĺà²³à³ģ"], ["Ġs", "omet"], ["à¤¾à¤", "ª"], ["Ġs", "ites"], ["Ġà°", "¡"], ["Ġs", "ix"], ["Ġb", "u"], ["Ġb", "and"], ["Ġà°", "«"], ["Ġb", "ri"], ["Ġb", "ro"], ["or", "m"], ["Ġà²ªà³įà²°à²ªà²Ĥà²ļ", "à²¦"], ["Ġà°", "¢à°¿à°²à±įà°²à±Ģ"], ["or", "th"], ["Ġp", "at"], ["Ġp", "or"], ["à±įà°", "Ĺ"], ["Ġp", "et"], ["à¥Ģ", "à¤¨"], ["Ġp", "over"], ["Ġp", "ers"], ["à±įà°", "£"], ["Ġp", "red"], ["ĠIndi", "ra"], ["Ġà²¬à³įà²°à²¿à²Ł", "à²¿à²·"], ["es", "c"], ["es", "e"], ["à°¾à°", "ĸ"], ["Ġm", "i"], ["Ġm", "in"], ["Ġm", "ig"], ["à°¾à°", "¶"], ["Ġm", "arg"], ["Ġà¤¤", "à¤ķ"], ["Ġm", "uch"], ["Ġà²¨à²Ĺ", "à²°"], ["Ġm", "amm"], ["à°¾à°", "¸à±įà°"], ["Ġm", "erch"], ["Ġf", "ra"], ["Ġf", "em"], ["à±ģ", "à°Ĺà°¾"], ["Ġf", "all"], ["Ġf", "act"], ["ic", "t"], ["à±ģ", "à°Ĥà°¬"], ["ic", "obar"], ["Ġà²¸à²¿à²Ĥà²", "§"], ["is", "en"], ["Ġà¤", "§"], ["is", "es"], ["ing", "s"], ["à°¤", "à±įà°°"], ["Ġl", "im"], ["Ġl", "ik"], ["Ġl", "aw"], ["à°¨", "à±Ģ"], ["Ġl", "ib"], ["Ġl", "oss"], ["Ġà²ħà²¥", "à²µà²¾"], ["om", "ing"], ["à°¨", "à°¾à°²à±ģ"], ["om", "est"], ["Ġe", "ff"], ["Ġà¤°à¤¾à¤ľ", "à¥įà¤¯"], ["Ġe", "ight"], ["à°²", "à°Ĥ"], ["Ġto", "day"], ["Ġto", "wn"], ["Ġto", "tal"], ["à°°", "à±Ģ"], ["Ġh", "y"], ["Ġà²¦à³Ĩà²¹", "à²²à²¿"], ["Ġh", "ig"], ["Ġh", "ab"], ["à±ĩ", "à°¤"], ["Ġh", "ub"], ["Ġh", "aving"], ["ĠT", "em"], ["à¤¿à¤", "£"], ["ĠT", "reat"], ["Ġà°ª", "à°¦"], ["ĠT", "har"], ["Ġd", "ri"], ["Ġà²ļà³ģà²¨", "à²¾à²µà²£à³Ĩ"], ["ur", "as"], ["Ġà°ª", "à±Ī"], ["ur", "id"], ["ur", "red"], ["Ġre", "ac"], ["Ġà°ª", "à±Ĭ"], ["Ġre", "ven"], ["Ġ1", "1"], ["Ġn", "ation"], ["Ġà°ª", "à°¶"], ["à¤", "Ī"], ["Ġn", "ame"], ["Ġn", "omin"], ["Ġg", "as"], ["Ġ", "+"], ["Ġà°ª", "à°¾à°¤à±įà°°"], ["Ġg", "ain"], ["Ġg", "od"], ["Ġg", "ave"], ["Ġg", "ood"], ["à±ĭ", "à°³"], ["il", "w"], ["il", "omet"], ["Ġ", "â"], ["à±įà°°", "à°¾à°ľ"], ["ĠA", "k"], ["à¤Ĥ", "à¤¤à¥įà¤°"], ["ol", "i"], ["ol", "it"], ["à°¾à°²", "à±į"], ["ri", "es"], ["ĠC", "l"], ["0", "4"], ["ra", "cy"], ["ĠB", "h"], ["à±Ģ", "à°µ"], ["ĠB", "ang"], ["ĠB", "ay"], ["am", "s"], ["à¤ķ", "à¥ĩ"], ["à±Ģ", "à°¸"], ["am", "ple"], ["Ĥ", "¹"], ["ĠS", "he"], ["ĠS", "ri"], ["à±Ģ", "à°·"], ["Ġis", "ol"], ["ce", "an"], ["ut", "e"], ["à°¦", "à°°"], ["Ĺ", "à³įà²²"], ["et", "er"], ["Ġ2", "5"], ["Ġ2", "8"], ["à¤¯", "à¤¾"], ["us", "h"], ["à°¦", "à°¿à°¨"], ["us", "cri"], ["ad", "a"], ["ŀ", "à²¾à²¨"], ["im", "e"], ["Ġà°¸", "à±Ĥ"], ["im", "es"], ["Ġth", "reat"], ["Ġth", "ose"], ["Ġà°ķ", "à±įà°¯"], ["id", "ly"], ["id", "dle"], ["¡", "à²¾à²²"], ["Ġ19", "35"], ["Ġà¤ľ", "à¤¨"], ["à±ĩà°", "µ"], ["un", "e"], ["un", "g"], ["ir", "t"], ["à±ĩà°", "Ĺà°Ĥà°Ĺà°¾"], ["uc", "ial"], ["Ġr", "ich"], ["²", "à²¿à²¨"], ["Ġr", "ange"], ["Ġr", "ather"], ["Ġà°µ", "à±Ī"], ["ĠM", "al"], ["ĠM", "yan"], ["Ġà¤¯", "à¤¹"], ["ĠM", "iddle"], ["Ġà°µ", "à°¹"], ["Ġbe", "ing"], ["¶", "à²Ĺà²³à³ģ"], ["Ġbe", "lief"], ["Ġbe", "long"], ["à±įà°¯", "à°¤"], ["Ġcon", "ce"], ["ĠP", "ro"], ["ĠP", "all"], ["res", "ent"], ["à³", "¨"], ["res", "ident"], ["à±įà°¯", "à±ģà°²à±ģ"], ["Ġst", "ren"], ["à¤¸", "à¥įà¤"], ["em", "ograph"], ["em", "bly"], ["à°®", "à±Ĩ"], ["Ġmo", "ist"], ["à³", "«"], ["ĠE", "x"], ["ĠE", "conom"], ["à°®", "à±Ī"], ["ĠE", "arly"], ["ĠE", "uras"], ["rom", "ise"], ["à°®", "à±įà°®"], ["ang", "ed"], ["Ġà¤¦", "à¥ĩà¤¶"], ["à³", "¯"], ["Ġex", "tin"], ["Ġex", "ample"], ["Ġdi", "v"], ["Ġà°Ń", "à±Ĥ"], ["Ġan", "other"], ["ĠG", "eograph"], ["ab", "ad"], ["à°µ", "à±ģ"], ["Ġà²", "ı"], ["ab", "les"], ["ac", "ed"], ["ac", "ter"], ["à°µ", "à±ĩ"], ["Ġà¤¸à¤¾à¤", "¥"], ["Ġor", "gan"], ["ĠD", "al"], ["ĠD", "ance"], ["à±Ĩ", "à°¹"], ["Ġà²", "¯à³ģ"], ["ĠD", "emoc"], ["ĠD", "emograph"], ["ĠN", "on"], ["Ġà°°", "à±Ĥà°ª"], ["ĠN", "orth"], ["ĠN", "icobar"], ["ay", "ed"], ["Ġà²", "¡à²¾à²²"], ["Ġà°°", "à°ķà°¾à°²"], ["Ġar", "ts"], ["à¤¤", "à¥ĩ"], ["Ġun", "it"], ["Ġare", "a"], ["Ġpar", "ts"], ["à°¡", "à°¿"], ["Ġv", "i"], ["Ġv", "is"], ["à³įà²", "³"], ["Ġv", "arn"], ["à°¡", "à°Ĥ"], ["Ġv", "ict"], ["iv", "ity"], ["os", "en"], ["Ġà¤¸", "à¥įà¤¥"], ["Ġà°ªà±įà°°", "à°ķà°¾à°°à°Ĥ"], ["Ġde", "fe"], ["ĠAs", "hok"], ["à³įà²", "·"], ["og", "n"], ["à°ª", "à±įà°°"], ["Ġch", "urid"], ["Ġch", "osen"], ["Ġpro", "vided"], ["à°ª", "à±įà°°à°¦à°¾à°¯"], ["our", "ces"], ["Ġcont", "ain"], ["à³įà²", "¸"], ["Ġcont", "ains"], ["à¥Ĥ", "à¤ª"], ["ant", "a"], ["Ġà°ħ", "à°µ"], ["ass", "ing"], ["ame", "ez"], ["low", "s"], ["Ġà°ħ", "à°¨à°¿"], ["Ġbec", "oming"], ["à³įà²", "ŀà²¾à²¨"], ["Ġpart", "ic"], ["ĠR", "e"], ["Ġà°ħ", "à°¤à°¿"], ["Ġsp", "eak"], ["Ġform", "al"], ["Ġà¤ī", "à¤¤"], ["ress", "ed"], ["à°Ł", "à°Ĥ"], ["ap", "ons"], ["à²¿à²", "ľ"], ["ĠJ", "anata"], ["Ġk", "ilomet"], ["à°Ł", "à±ģà°Ĥà°¬"], ["Ġk", "ameez"], ["Ġad", "op"], ["Ġad", "dition"], ["à°¿à°¨", "à°¿"], ["Ġad", "ded"], ["à²¾à²", "¯"], ["Ġcl", "im"], ["Ġà¥§à¥", "¯à¥"], ["Ġse", "p"], ["Ġse", "als"], ["à°¯", "à±ĭ"], ["Ġpl", "ains"], ["Ġle", "vel"], ["me", "diately"], ["à²¾à²", "³"], ["à°¯", "à°¾à°²à±ģ"], ["Ġag", "e"], ["Ġmar", "ked"], ["Ġel", "ected"], ["à°°à±įà°", "ľ"], ["Ġ201", "0"], ["à¤", "ĸ"], ["Ġ201", "3"], ["Ġ201", "8"], ["à°°à±įà°", "·"], ["ĠK", "al"], ["Ġgovernment", "s"], ["reas", "ing"], ["à°°à±įà°", "ķà±Ĭ"], ["Ġpri", "mary"], ["à³ģ", "à²¶"], ["Ġdec", "ade"], ["Ġpopul", "ous"], ["ĠF", "or"], ["à°¨à±įà°¨", "à°¾à°¯à°¿"], ["à¥Ģ", "à¤Ĥ"], ["ĠF", "ron"], ["ĠV", "a"], ["à²°", "à²¿à²¸"], ["Ġtra", "de"], ["à°¾à°¯", "à°ķ"], ["reat", "h"], ["ĠInd", "ones"], ["Ġcomp", "anies"], ["à°Ĥà°ļ", "à°¿"], ["Ġcomp", "romise"], ["Ġsh", "o"], ["à²°", "à²¿à²¨"], ["Ġsh", "are"], ["Ġà¤¸", "à¤°"], ["Ġà°¨", "à±įà°¯à°¾à°¯"], ["ection", "s"], ["Ġres", "er"], ["Ġres", "ident"], ["Ġà°ĩ", "à°µ"], ["Ġri", "vers"], ["Ġ3", "0"], ["à²¤", "à³įà²ª"], ["Ġ3", "1"], ["Ġ3", "6"], ["Ġà°Ńà°¾à°°à°¤à°¦à±ĩà°¶", "à°ªà±ģ"], ["Ġ3", "00"], ["ric", "ket"], ["Ġsup", "pl"], ["à¥ĭ", "à¤Ĺ"], ["à°¸", "à±į"], ["Ġsup", "ported"], ["à²¦", "à²²à³įà²²"], ["Ġcons", "um"], ["Ġcons", "ists"], ["Ġrelig", "ion"], ["à°¸", "à°¤à±įà°µ"], ["Ġ7", "0"], ["ĠL", "ank"], ["Ġminist", "ers"], ["Ġà°Ĩ", "à°ķà±įà°°à°®"], ["à²¦", "à³įà²¦"], ["Ġlat", "ter"], ["à¥įà¤¤", "à¤°"], ["Ġincreas", "ingly"], ["Ġclass", "es"], ["Ġà°Ĩ", "à°«"], ["Ġ4", "0"], ["Ġ4", "00"], ["Ġhe", "redi"], ["à²¨", "à³Ĩ"], ["Ġim", "pro"], ["Ġ200", "8"], ["à°£", "à°Ĥà°Ĺà°¾"], ["Ġdis", "hes"], ["Ġdis", "pl"], ["Ġser", "v"], ["à°¿à°¤", "à°¿"], ["à¤§", "à¤¿à¤ķ"], ["Ġ202", "2"], ["à²²", "à²¾à²°"], ["Ġ202", "3"], ["Ġ202", "4"], ["Ġurban", "isation"], ["Ġoff", "ice"], ["Ġà°Ĺ", "à±ĭ"], ["Ġ196", "2"], ["ĠBuddh", "a"], ["à²Ĺ", "à³Ĭà²Ĥà²¡"], ["ond", "s"], ["Ġfol", "k"], ["Ġà°Ĺ", "à°¾à°Ĥ"], ["Ġrec", "ent"], ["à¤ķà¥įà¤·", "à¤¿à¤£"], ["Ġrec", "ogn"], ["ell", "ion"], ["à±ģà°¤", "à±ĭ"], ["Ġnorth", "west"], ["à²¾à²°", "à³Ĩ"], ["Ġen", "ergy"], ["Ġra", "ilw"], ["à±ģà°¤", "à±ģà°¨à±įà°¨"], ["sh", "a"], ["Ġapp", "ear"], ["Ġexp", "ans"], ["à°Ĥà°Ł", "à±ĩ"], ["Ġà¤", "¥à¤¾"], ["Ġexp", "ress"], ["à³įà²°", "à³Ģ"], ["Ġ18", "5"], ["ĠMo", "dern"], ["ĠMo", "hen"], ["Ġset", "ting"], ["Ġà°µà°¿à°", "Ń"], ["Ġbas", "in"], ["Ġconstitution", "al"], ["à²³", "à²Ĺ"], ["20", "1"], ["Ġà°µà°¿à°", "¸à±įà°¤"], ["Ġother", "s"], ["Ġà¤ª", "à¥Ĥ"], ["Ġcr", "ucial"], ["Ġsign", "ed"], ["à°°à±ģ", "à°·"], ["Ġgra", "dually"], ["Ġsty", "le"], ["à²³", "à³Ĥà²°"], ["Ġforest", "s"], ["ĠHimalay", "an"], ["Ġà°¸à°Ĥà°", "ķ"], ["Ġus", "e"], ["cri", "min"], ["mit", "ted"], ["Ġà°¸à°Ĥà°", "ĺ"], ["Ġà¤ħ", "à¤ª"], ["Ġac", "ross"], ["à²µ", "à²¿à²"], ["Ġcol", "l"], ["ĠIsl", "ands"], ["Ġà°¸à°Ĥà°", "µà°¤"], ["Ġwe", "apons"], ["Ġass", "ert"], ["Ġass", "oci"], ["Ġà°¸à°Ĥà°", "ªà±įà°°à°¦à°¾à°¯"], ["à²µ", "à³Ĩà²Ĥà²¦à²°à³Ĩ"], ["Ġinfluen", "ces"], ["Ġtrans", "mitted"], ["Ġà¤¬", "à¤¨"], ["ĠSikh", "ism"], ["à°®à±ģ", "à°²à±ĭ"], ["Ġent", "er"], ["Ġcult", "ural"], ["Ġcult", "ures"], ["Ġà²¸", "à²®"], ["Ġà°īà°¨à±įà°¨", "à°¾à°°à±ģ"], ["Ġdra", "in"], ["Ġremain", "ing"], ["Ġanimal", "s"], ["Ġarm", "ies"], ["à±įà°ļ", "à°¿à°®"], ["Ġdev", "otion"], ["Ġà¤¬", "à¤¹"], ["Ġmarri", "ages"], ["Ġà²¸", "à²¹"], ["Ġrigh", "t"], ["à°¾à°¦", "à°¨"], ["Ġmathemat", "ical"], ["Ġcontribut", "ions"], ["ning", "s"], ["à°¾à°¦", "à±ĩà°¶"], ["str", "uc"], ["Ġref", "er"], ["Ġà²¸", "à²Ĥà²ĸà³įà²¯"], ["Ġstat", "us"], ["à±ĥ", "à°¦à±įà°§"], ["Ġadminist", "ration"], ["Ġà¤¦", "à¤ķà¥įà¤·à¤¿à¤£"], ["Ġendem", "ic"], ["Ġorigin", "ally"], ["à°ĸ", "à°Ĥà°¡"], ["Ġtem", "p"], ["Ġtrib", "al"], ["Ġà²®", "à³ĩ"], ["Ġtex", "ts"], ["Ġsa", "fe"], ["à°¿à°¸à±įà°¤", "à±ģà°¨à±įà°¨"], ["Ġmak", "es"], ["ĠAra", "bian"], ["Ġà¤°", "à¤¹"], ["Ġstr", "ong"], ["Ġà°°à±Ī", "à°³"], ["Ġvill", "age"], ["Ġà²®", "à²¹"], ["Ġchar", "acter"], ["Ġprot", "ected"], ["Ġà°²", "à°ķà±įà°·"], ["Ġconsid", "er"], ["Ġpolic", "ies"], ["Ġcaus", "e"], ["Ġà°°à°¾à°·à±įà°Łà±įà°°", "à°¾à°²"], ["Ġemploy", "ed"], ["Ġà²®", "à³Ĥà²°"], ["Ġindepend", "ence"], ["à¥įà¤·", "à¥ĩ"], ["Ġve", "get"], ["à°®à±Īà°¨", "à°¦à°¿"], ["gu", "ard"], ["Ġwrit", "ten"], ["Ġwild", "life"], ["Ġà°²à±ĭ", "à°ķ"], ["Ġsum", "mer"], ["Ġà²®", "à²§"], ["Ġpract", "ices"], ["Ġman", "uscri"], ["Ġmult", "i"], ["Ġà°®à±ģ", "à°Ĥà°¬"], ["à¤¿à¤¨", "à¥įà¤¦"], ["Ġlo", "ose"], ["oul", "der"], ["Ġret", "ur"], ["Ġà°Ĵà°ķ", "à°Ł"], ["Ġà²®", "à²¾à²¹"], ["Ġnat", "al"], ["ĠCivil", "isation"], ["Ġexch", "ange"], ["à°¾à°¸", "à±įà°¯à°¤"], ["ĠGup", "ta"], ["ĠGree", "k"], ["ĠDes", "ert"], ["Ġà¤¸à¤°", "à¤ķà¤¾à¤°"], ["Ġà²ª", "à²Łà³įà²Ł"], ["Ġà°Ńà°¾à°°à°¤à°¦à±ĩà°¶à°Ĥà°²à±ĭ", "à°¨à°¿"], ["ĠDec", "can"], ["ĠAss", "embly"], ["Ġintro", "duced"], ["à°¿à°µ", "à±ĥà°¦à±įà°§"], ["Ġdisput", "es"], ["Ġscri", "pt"], ["Ġsociet", "y"], ["à³įà²¤", "à³ģ"], ["hedul", "ed"], ["Ġà°¸à±įà°µ", "à°¤à°Ĥà°¤à±įà°°"], ["ĠConstit", "uent"], ["ĵ", "à¤Ĥ"], ["ĠMaur", "ya"], ["Ġcapit", "a"], ["Ġà°µà°ļà±įà°ļ", "à°¿à°¨"], ["Ġarchitect", "ure"], ["Ġcurren", "cy"], ["Ġà²Ńà²¾à²°à²¤", "à²ķà³įà²ķà³Ĩ"], ["Ġschool", "s"], ["à°·", "à±įà°£"], ["touch", "ability"], ["Ary", "an"], ["Europe", "an"], ["à°¾à°Ĺ", "à°¾"], ["dar", "o"], ["à¥", "ī"], ["eign", "ty"], ["Ġà²Ńà²¾à²°à²¤", "à³Ģà²¯"], ["lades", "h"], ["Ġà°ļà±Ĩ", "à°Ĥà°¦"], ["Ġaver", "age"], ["Ġinequ", "ality"], ["Ġsover", "eignty"], ["Ġà°ļà±Ĩ", "à°Ĥà°¦à°¿à°¨"], ["Ġsect", "or"], ["Ġà²Ńà²¾à²°à²¤", "à²µà²¨à³įà²¨à³ģ"], ["Ġsomet", "imes"], ["Ġbro", "ad"], ["Ġà¤ķ", "à¥įà¤·à¥ĩ"], ["Ġpover", "ty"], ["Ġà°¦à±ĩà°¶à°¾à°²", "à°²à±ĭ"], ["Ġpred", "omin"], ["Ġmarg", "ins"], ["Ġmamm", "als"], ["à°¿à°¤à±įà°°", "à°ķ"], ["à²¸", "à³įà²¤"], ["Ġlaw", "s"], ["Ġlib", "eral"], ["omest", "ic"], ["Ġà°ªà°¾à°ķ", "à±į"], ["Ġhab", "it"], ["Ġà¤¸", "à¤Ĥ"], ["ĠTreat", "y"], ["Ġreac", "hed"], ["Ġà°ªà°¾à°ķ", "à°¿à°¸à±įà°¥"], ["à²¸", "à³įà²Ł"], ["Ġreven", "ues"], ["Ġgood", "s"], ["ĠBang", "ladesh"], ["Ġà°°à°¾à°ľà±įà°¯", "à°¾à°²à±ģ"], ["ĠMyan", "mar"], ["ĠPall", "av"], ["Ġstren", "gth"], ["à²ķ", "à²¸à²Ń"], ["ĠDemograph", "ics"], ["à¥įà¤°", "à¥ĩ"], ["Ġà°¦à°ķà±įà°·à°¿à°£", "à°¾à°¨"], ["ĠAshok", "a"], ["Ġchurid", "ars"], ["Ġkilomet", "res"], ["Ġà°ķà±ģ", "à°Łà±ģà°Ĥà°¬"], ["ĠFron", "t"], ["ĠIndones", "ia"], ["Ġà²µ", "à³ĩ"], ["Ġresident", "s"], ["Ġà°ªà±įà°°à°ľ", "à°²"], ["ĠMohen", "jo"], ["Ġ", "Z"], ["Ġà¤Ń", "à¤¾à¤·"], ["Ġ", "ro"], ["Ġ", "ide"], ["Ġà°Ĩà°°à±įà°", "¥à°¿à°ķ"], ["Ġ", "ess"], ["Ġ", "Â°"], ["\"", ")"], ["Ġà²¬", "à²¾à²Ĥà²"], ["\"", "."], [",", "\""], ["0", "1"], ["1", "00"], ["Ġà°Ńà°¾à°·", "à°²à±ģ"], ["2", "1"], ["3", "1"], ["8", "0"], ["9", "4"], ["A", "r"], ["Ġà¤ľ", "à¤¿à¤¸"], ["C", "ongress"], ["Ġà°ªà±įà°°à°Ńà±ģà°¤à±įà°µ", "à°Ĥ"], ["G", "ang"], ["P", "P"], ["P", "rol"], ["a", "Ë"], ["a", "ver"], ["Ġà°¯", "à±ģ"], ["a", "ith"], ["a", "ir"], ["a", "res"], ["a", "em"], ["a", "ism"], ["Ġà°ªà±ģ", "à°Łà±įà°Ł"], ["a", "har"], ["b", "a"], ["Ġà¤Ĺ", "à¤¯à¤¾"], ["b", "uc"], ["b", "our"], ["b", "ai"], ["Ġà°¸à°¾à°Ĥ", "à°ªà±įà°°à°¦à°¾à°¯"], ["b", "ack"], ["b", "ody"], ["Ġà²¬", "à³Į"], ["b", "ably"], ["b", "ellion"], ["c", "ing"], ["c", "il"], ["Ġà°¸à°Ĥà°¸à±įà°", "ķà±ĥà°¤"], ["c", "tion"], ["c", "over"], ["c", "hed"], ["Ġà¤ķà¥įà¤·à¥ĩ", "à¤¤à¥įà¤°"], ["c", "tions"], ["c", "ommon"], ["Ġà°ķà±Ĭ", "à°¨à±įà°¨à°¿"], ["Ġà²¬", "à²³à²Ĺ"], ["d", "d"], ["d", "ent"], ["d", "ro"], ["d", "us"], ["Ġà°¦à±įà°µ", "à±Ģà°ª"], ["d", "el"], ["d", "own"], ["e", "e"], ["e", "as"], ["e", "th"], ["à³ĭ", "à²Ĺ"], ["Ġà°¸à°¾à°®", "à±įà°°à°¾à°ľ"], ["e", "ast"], ["à¥įà¤", "§"], ["e", "ad"], ["e", "ated"], ["e", "olog"], ["e", "alth"], ["Ġà°¸à°¾à°§", "à°¿à°Ĥà°ļ"], ["e", "ously"], ["f", "l"], ["f", "er"], ["f", "ast"], ["à³ĭ", "à²ķà²¸à²Ń"], ["f", "ied"], ["Ġà°µà°Ĥà°Ł", "à°¿"], ["f", "act"], ["g", "a"], ["g", "e"], ["g", "in"], ["à¤¿", "à¤°"], ["Ġà°ķà±ĩà°Ĥà°¦à±įà°°", "à°ªà°¾à°²"], ["g", "row"], ["g", "adi"], ["g", "ather"], ["h", "o"], ["Ġà²ħ", "à²§"], ["h", "av"], ["Ġà°ķà°¾à°°", "à±įà°¯"], ["h", "au"], ["h", "ouse"], ["i", "j"], ["i", "p"], ["i", "ra"], ["Ġà°®à°¾à°¤", "à±įà°°à°Ĥ"], ["i", "res"], ["i", "ant"], ["Ġà¤¸", "à¤¾à¤®"], ["à²¾à²Ĺ", "à²¿"], ["j", "anta"], ["k", "n"], ["k", "ing"], ["à°°à±įà°²", "à±ģ"], ["k", "ey"], ["l", "s"], ["l", "al"], ["l", "ing"], ["Ġà°¶à°¾à°¸à±įà°¤", "à±įà°°à°Ĥ"], ["l", "us"], ["l", "id"], ["à²¤à³įà²¤", "à²°"], ["l", "ect"], ["l", "ands"], ["m", "a"], ["à¤Ĥà¤", "§"], ["Ġà°¸à°Ĥà°Ĺà±Ģà°¤", "à°Ĥ"], ["m", "n"], ["m", "s"], ["m", "ers"], ["m", "ajor"], ["m", "olog"], ["Ġà°¸à°¿à°¨à°¿à°®", "à°¾"], ["n", "d"], ["Ġà²¨", "à²¾à²²"], ["n", "ic"], ["o", "or"], ["o", "ve"], ["o", "ber"], ["Ġà°µà°¾à°°", "à°¸à°¤à±įà°µ"], ["o", "vi"], ["o", "etic"], ["Ġà¤¬", "à¤¾à¤¦"], ["o", "astri"], ["p", "ically"], ["p", "tions"], ["Ġà°®à±Ĥà°¡", "à±ģ"], ["Ġà²¨", "à²¡à³Ĩ"], ["p", "ots"], ["p", "here"], ["p", "idly"], ["p", "assing"], ["Ġà°¨à°¡à°¿à°ª", "à°¿à°Ĥà°ļ"], ["r", "ing"], ["r", "ical"], ["r", "up"], ["r", "du"], ["r", "gan"], ["Ġà²¨", "à²¾à²Ĺà²°"], ["Ġà°Ĩà°§", "à°¾à°°"], ["¢", "à¤¼"], ["r", "ative"], ["r", "ising"], ["s", "p"], ["s", "ur"], ["s", "ide"], ["à°¾à°¬à°¾à°¦", "à±į"], ["t", "r"], ["t", "u"], ["t", "re"], ["t", "ent"], ["Ġà²°", "à²¿à²Ĥà²¦"], ["t", "ive"], ["à°ªà±įà°ªà°Łà°¿à°ķ", "à±Ģ"], ["t", "ary"], ["t", "ell"], ["à¤¾à¤", "Ĺ"], ["t", "able"], ["t", "led"], ["Ġà°¬à±įà°°à°¿à°Ł", "à°¿à°·"], ["t", "ract"], ["t", "ified"], ["u", "k"], ["v", "ative"], ["Ġà²°", "à³Ĥ"], ["w", "ing"], ["µà°¾à°®", "à±įà°¯"], ["w", "estern"], ["y", "al"], ["y", "ing"], ["y", "th"], ["y", "le"], ["Ġà°¸à°°à±įà°µ", "à±Ģà°¸"], ["à¤ķ", "à¥įà¤¤"], ["y", "ear"], ["y", "pically"], ["z", "ed"], ["Ġà²°", "à²¾à²ľ"], ["¸", "Î"], ["¼", "¸Î"], ["Ġà°°à±ĭ", "à°¡à±įà°¡"], ["½", "Î"], ["Ë", "Ī"], ["á", "¼¸Î"], ["Ġt", "en"], ["Ġt", "and"], ["Ġà°ħà°Ń", "à°¿à°µà±ĥà°¦à±įà°§"], ["Ġt", "un"], ["à²¿à²¸", "à²²à²¾à²Ĺ"], ["Ġt", "ub"], ["Ġà¥", "¨"], ["an", "a"], ["an", "n"], ["à°ķà±įà°·à°°", "à°¾à°¸à±įà°¯à°¤"], ["an", "ing"], ["an", "ag"], ["he", "st"], ["he", "ad"], ["he", "reas"], ["Ġà°ªà°°à°¿à°¶", "à±įà°°à°®"], ["he", "red"], ["à²°à³įà²", "ķ"], ["he", "ren"], ["in", "th"], ["in", "ated"], ["in", "ct"], ["Ġà¤µà¤¿à¤", "¶"], ["Ġà°ķà°²à°¿à°Ĺ", "à°¿"], ["in", "dh"], ["on", "ic"], ["on", "se"], ["on", "omet"], ["er", "or"], ["Ġà°¬à±Ĩà°Ĥà°Ĺà°¾à°²", "à±Ģ"], ["Ġà²Ńà²¾à²°à²¤à²¦", "à²²à³įà²²à²¿"], ["er", "ly"], ["er", "ial"], ["er", "ous"], ["er", "continent"], ["Ġà°ľà°¾à°¬à°¿à°¤", "à°¾"], ["re", "t"], ["re", "am"], ["à¤", "«"], ["re", "ak"], ["Ġa", "ut"], ["Ġa", "mp"], ["Ġà²¦", "à²ķà³įà²·à²¿à²£"], ["à°¾à°¸à±įà°", "µà°¾à°®à±įà°¯"], ["Ġa", "ccording"], ["Ġa", "mend"], ["Ġo", "wn"], ["Ġo", "pen"], ["en", "ing"], ["Ġà°ªà±Ī", "à°Ĺà°¾"], ["en", "ces"], ["en", "eral"], ["st", "ant"], ["st", "ian"], ["à¤¾à¤", "£"], ["à²¿à²ķ", "à²¨à³į"], ["st", "yle"], ["Ġà°ªà°¶", "à±įà°ļà°¿à°®"], ["al", "f"], ["al", "ed"], ["di", "v"], ["di", "ent"], ["Ġà°¸à°Ĥà°µà°¤", "à±įà°¸"], ["di", "ment"], ["di", "fied"], ["at", "h"], ["at", "om"], ["à³Ĩà²¯", "à²¿à²¤à³ģ"], ["at", "ts"], ["Ġà°ķà±ĩà°Ĥà°¦à±įà°°à°ªà°¾à°²", "à°¿à°¤"], ["at", "ak"], ["à¥įà¤", "ļ"], ["at", "ures"], ["at", "ory"], ["at", "ives"], ["at", "tle"], ["Ġà°ħà°Ńà°¿à°µà±ĥà°¦à±įà°§", "à°¿"], ["Ġc", "in"], ["Ġc", "it"], ["Ġc", "ut"], ["à³įà²µ", "à²¤à³įà²°"], ["Ġc", "ity"], ["Ġc", "ere"], ["1", "7"], ["Ġc", "ust"], ["Ġc", "uis"], ["Ġà¤¸", "à¤¬"], ["Ġc", "attle"], ["B", "N"], ["ĠI", "I"], ["ĠI", "m"], ["and", "y"], ["S", "BN"], ["and", "ed"], ["and", "ar"], ["ed", "d"], ["Ġà²Ĩ", "à²Ĺ"], ["ar", "as"], ["Ł", "à±į"], ["ar", "row"], ["it", "al"], ["ĠIn", "c"], ["Ġà¤¹", "à¤¿à¤¨à¥įà¤¦"], ["ĠIn", "ternational"], ["¬", "à°Ĥà°"], ["Ġw", "et"], ["Ġw", "ay"], ["Ġw", "elf"], ["à°", "ĩ"], ["Ġw", "hereas"], ["Ġà²ľ", "à³Īà²¨"], ["Ġin", "g"], ["Ġin", "ternational"], ["Ġin", "no"], ["à°", "ł"], ["Ġs", "w"], ["Ġs", "he"], ["Ġs", "uc"], ["à±įà°", "ĺ"], ["Ġs", "aw"], ["à¤Ĥà¤", "¦"], ["Ġs", "iz"], ["Ġs", "ole"], ["à²ª", "à³Ĥ"], ["Ġs", "elf"], ["à±įà°", "³"], ["Ġs", "ports"], ["Ġb", "an"], ["Ġb", "al"], ["Ġb", "ar"], ["à°¾à°", "ĸà±įà°¯"], ["Ġb", "ul"], ["Ġb", "est"], ["Ġb", "ot"], ["à±ģ", "à°°à±įà°¤"], ["Ġb", "rough"], ["Ġà²ªà³įà²°", "à²®"], ["à¥ģà¤", "ĸ"], ["Ġb", "ron"], ["Ġb", "read"], ["Ġb", "ack"], ["à°Ĥà°", "Ń"], ["Ġb", "reath"], ["Ġb", "onds"], ["Ġb", "reak"], ["à°¨", "à°²à±ĭ"], ["or", "n"], ["or", "al"], ["or", "ation"], ["Ġà²¸à²¾à²", "²à²¿à²¨"], ["or", "ce"], ["à°²", "à±įà°ª"], ["or", "ial"], ["Ġà¤¸à¤¬", "à¤¸à¥ĩ"], ["or", "ity"], ["or", "gan"], ["à°²", "à±įà°²à±ĭ"], ["or", "oastri"], ["Ġp", "ur"], ["Ġp", "il"], ["Ġp", "ul"], ["à°²", "à°Ĥà°ª"], ["Ġp", "le"], ["Ġ201", "6"], ["Ġp", "ast"], ["Ġp", "ot"], ["Ġp", "ass"], ["à°°", "à±ĩà°"], ["Ġp", "ants"], ["Ġp", "oin"], ["à¤", "¢à¤¼"], ["Ġp", "ort"], ["à±ĩ", "à°²"], ["Ġp", "aren"], ["Ġp", "rin"], ["Ġà²ī", "à²ª"], ["Ġp", "ush"], ["Ġm", "and"], ["Ġà°ª", "à±Ģ"], ["Ġm", "ay"], ["Ġm", "anu"], ["Ġm", "ix"], ["Ġà°ª", "à°Ĥà°ļ"], ["Ġm", "ales"], ["Ġf", "il"], ["Ġf", "est"], ["Ġà¤", "¥"], ["Ġf", "ac"], ["à±įà°°", "à±Ģà°¯"], ["Ġà²ī", "à²¤à³įà²ª"], ["Ġf", "av"], ["Ġf", "ish"], ["Ġf", "lo"], ["à°¾à°°", "à±į"], ["Ġf", "ood"], ["Ġf", "ash"], ["Ġf", "oetic"], ["ic", "ken"], ["à°¾à°°", "à°¾"], ["is", "ion"], ["is", "ans"], ["Ġà²ī", "à²¤à³įà²¤à²°"], ["is", "ions"], ["à¤¾à¤", "ĵà¤Ĥ"], ["is", "dic"], ["à°¾à°°", "à°¿"], ["as", "e"], ["as", "ed"], ["as", "ions"], ["à°¾à°°", "à°¿à°¤à±įà°°à°ķ"], ["as", "ures"], ["ent", "ial"], ["Ġl", "ing"], ["Ġl", "ate"], ["à°¾à°°", "à°Ĥà°Ń"], ["Ġà²¶", "à³įà²°à³Ģ"], ["Ġl", "ies"], ["Ġl", "ab"], ["Ġl", "ive"], ["Ġà¤ķ", "à¤¾à¤°"], ["à°ķ", "à°¿"], ["Ġl", "eng"], ["Ġl", "ess"], ["Ġl", "iving"], ["Ġl", "iber"], ["à°¾à°²", "à°¾"], ["Ġe", "dic"], ["Ġe", "vent"], ["Ġà²ķà³ĭà²Ł", "à³įà²¯"], ["Ġe", "vol"], ["Ġe", "mb"], ["à°¾à°²", "à°¨à±ĩ"], ["Ġe", "miss"], ["Ġe", "ither"], ["Ġto", "p"], ["à¤ķ", "à¤¾"], ["à°¾à°²", "à±Ĩà°Ĥà°¡"], ["Ġh", "un"], ["Ġh", "ous"], ["Ġh", "ost"], ["Ġh", "ouse"], ["à±Ģ", "à°ķ"], ["Ġà²ľà²¨à²¸à²Ĥà²ĸà³įà²¯", "à³Ĩà²¯"], ["Ġh", "ots"], ["Ġh", "alf"], ["ĠT", "o"], ["à°¦", "à±ĩ"], ["ĠT", "er"], ["ĠT", "ib"], ["Ġd", "h"], ["Ġd", "o"], ["à¥ģ", "à¤¨"], ["à°¦", "à°Łà°¿"], ["Ġd", "y"], ["Ġd", "est"], ["Ġà²ľà²¨à²¸à²Ĥà²ĸà³įà²¯", "à³Ĩà²¯à²¨à³įà²¨à³ģ"], ["Ġd", "em"], ["Ġà°¸", "à°¹"], ["Ġd", "oc"], ["Ġd", "ry"], ["Ġd", "own"], ["Ġd", "rew"], ["Ġà°¸", "à±Īà°¨"], ["Ġd", "ata"], ["Ġd", "ue"], ["Ġd", "ense"], ["à¥įà¤Ł", "à¥įà¤°"], ["Ġd", "esc"], ["Ġà°¸", "à°®à±ģà°¦"], ["à²¾à²¦", "à³ĩà²¶"], ["Ġd", "omestic"], ["ec", "onom"], ["ur", "y"], ["Ġà°ķ", "à±įà°°"], ["ur", "ta"], ["ur", "isdic"], ["Ġre", "st"], ["Ġre", "ce"], ["Ġà°ķ", "à°¨à±įà°¨"], ["Ġre", "pt"], ["Ġre", "lief"], ["Ġà²®à³ģ", "à²Ĥà²¬"], ["Ġre", "bellion"], ["à¤¾à¤·", "à¥įà¤Łà¥įà¤°"], ["Ġà°ķ", "à±ģà°²"], ["Ġn", "et"], ["Ġn", "ex"], ["Ġn", "inth"], ["Ġn", "arrow"], ["Ġà°ķ", "à°¿à°Ĥà°¦"], ["Ġg", "ro"], ["Ġg", "ig"], ["Ġg", "ive"], ["Ġà²®à³ģ", "à²¸à³įà²²"], ["Ġà°ķ", "à°Ĥà°ª"], ["Ġg", "overn"], ["Ġg", "eograph"], ["Ġg", "reen"], ["Ġg", "eolog"], ["à¤", "ł"], ["Ġà°ķ", "à°¥"], ["il", "e"], ["il", "i"], ["il", "s"], ["il", "ar"], ["ĠA", "c"], ["à³Ĭà²Ĥà²¦", "à²¿à²Ĺà³Ĩ"], ["ĠA", "t"], ["Ġà°ķ", "à°¾à°¶"], ["ĠA", "ch"], ["ĠA", "gen"], ["ĠA", "janta"], ["ul", "os"], ["Ġà°ķ", "à±ĩà°µ"], ["à¤¾à¤", "ķ"], ["ol", "ent"], ["ol", "ved"], ["ol", "lowing"], ["à±ĩà°", "ľ"], ["ol", "can"], ["Ġà²İ", "à²Ĥà²¦à³ģ"], ["ri", "ya"], ["ri", "ors"], ["ri", "stian"], ["à±ĩà°", "ª"], ["ĠThe", "y"], ["ĠC", "up"], ["ĠC", "av"], ["à¤¤", "à¤¿"], ["à±ĩà°", "¯"], ["ĠC", "ulture"], ["ĠC", "lim"], ["ĠC", "hes"], ["Ġà²Ĺ", "à²£"], ["ĠC", "arn"], ["à±ĩà°", "·"], ["ĠC", "ommon"], ["ĠC", "ricket"], ["ĠB", "al"], ["ĠB", "etween"], ["à±ĩà°", "¸"], ["ĠB", "ah"], ["am", "y"], ["à¤ķ", "à¤°"], ["am", "ed"], ["Ġà°µ", "à°¾à°£"], ["ĠS", "im"], ["à²¿à²®", "à³į"], ["ĠS", "ab"], ["ĠS", "ant"], ["ĠS", "ome"], ["Ġà°µ", "à±Ģà°Ł"], ["ĠS", "ever"], ["ĠS", "arn"], ["ĠS", "ultanate"], ["Ġà°µ", "à±ĩà°Ĺà°Ĥà°Ĺà°¾"], ["ĠS", "ovi"], ["ro", "pp"], ["ce", "ed"], ["à¤¿à¤ķ", "à¤¾"], ["Ġà²²", "à³ĭà²ķà²¸à²Ń"], ["ut", "ed"], ["à±įà°¯", "à°µà°¸à±įà°¥"], ["ut", "es"], ["ut", "ra"], ["ist", "ing"], ["à°®", "à°¨"], ["ist", "ent"], ["ist", "ory"], ["et", "s"], ["et", "y"], ["à°®", "à°²"], ["et", "ah"], ["à³ĥ", "à²·"], ["Ġ2", "7"], ["à¤¾à¤ľ", "à¥įà¤¯"], ["ad", "em"], ["ad", "we"], ["à°®", "à±ĩ"], ["im", "ing"], ["ig", "er"], ["ig", "ion"], ["à°®", "à±Ģ"], ["Ġth", "orn"], ["id", "el"], ["id", "esp"], ["id", "uous"], ["à°®", "à±Ĭ"], ["Ġ19", "30"], ["Ġfor", "tified"], ["Ġà²¹à³ĭ", "à²¦"], ["Ġà¤", "«"], ["ir", "m"], ["à°®", "à±ĩà°¨"], ["Ġr", "anges"], ["Ġr", "ati"], ["Ġr", "ole"], ["ĠM", "um"], ["Ġà°®", "à°°"], ["ĠM", "ajor"], ["ĠM", "arat"], ["ment", "al"], ["Ġà²¹à³ĭ", "à²²"], ["Ġà°®", "à±Ģ"], ["ment", "ed"], ["à¥įà¤", "ª"], ["Ġbe", "gin"], ["tion", "al"], ["ĠP", "olit"], ["Ġà°®", "à±Ī"], ["ĠP", "resident"], ["res", "olved"], ["Ġwh", "at"], ["Ġst", "ri"], ["Ġà°®", "à°Ĥà°¦à°¿"], ["Ġst", "ud"], ["Ġà²¬à³Ĩ", "à²Ĥà²Ĺ"], ["Ġst", "if"], ["Ġst", "andar"], ["Ġà°®", "à±Į"], ["à¥įà¤", "²"], ["Ġmo", "del"], ["ĠE", "l"], ["ĠE", "ty"], ["ĠE", "merg"], ["Ġà°®", "à°Ĥà°¤à±įà°°"], ["ang", "ra"], ["Ġex", "erc"], ["ag", "ana"], ["Ġà³¨", "à³¦à³§à³"], ["Ġà°Ń", "à±Į"], ["Ġdi", "d"], ["Ġdi", "ed"], ["Ġdi", "se"], ["à¤¿à¤", "ı"], ["Ġan", "y"], ["Ġà°Ń", "à°¿à°¨à±įà°¨"], ["Ġan", "atom"], ["ĠG", "ond"], ["ĠG", "eneral"], ["ac", "ket"], ["à°µ", "à±Ĩ"], ["ac", "ks"], ["à²Ĥà²Ń", "à²¿à²¸à²¿à²¦"], ["Ġor", "ally"], ["ĠD", "is"], ["à°µ", "à°ļà±įà°ļ"], ["ĠH", "ealth"], ["ĠH", "istory"], ["à¤¤", "à¥Ģ"], ["Ġon", "ly"], ["Ġon", "set"], ["à°µ", "à°¿à°§"], ["ill", "ed"], ["ĠN", "i"], ["ĠN", "et"], ["Ġà²¸à³ģ", "à²®à²¾à²°à³ģ"], ["à±Ĩ", "à°Łà±įà°Ł"], ["ĠN", "ew"], ["ĠN", "ep"], ["ĠN", "ort"], ["ĠN", "DA"], ["Ġà°°", "à°Ĥà°Ĺ"], ["ay", "at"], ["Ġà¤ª", "à¤¹"], ["ay", "back"], ["ay", "anag"], ["Ġar", "isen"], ["Ġun", "ited"], ["à°¡", "à°¿à°¨"], ["Ġà²¹à³Ĩà²¸", "à²°à²¿à²¨"], ["Ġun", "touchability"], ["Ġun", "common"], ["Ġun", "resolved"], ["Ġà°ªà±įà°°", "à°¦à±ĩà°¶"], ["Ġ(", "\""], ["ak", "e"], ["ak", "h"], ["à¥ģ", "à¤°"], ["oc", "h"], ["Ġà°ªà±įà°°", "à°¾à°°à°Ĥà°Ń"], ["Ġinc", "ome"], ["Ġal", "liance"], ["Ġà²¸à²Ĥà²ª", "à²¤à³įà²¤à³ģ"], ["Ġcom", "for"], ["à°ª", "à°¾"], ["Ġcom", "mit"], ["du", "ce"], ["Ġv", "ary"], ["Ġv", "alley"], ["à°ª", "à±Ĥ"], ["Ġv", "oted"], ["Ġv", "olcan"], ["à¤²", "à¥Ģ"], ["end", "s"], ["el", "igion"], ["Ġà°ħ", "à°¹"], ["Ġà²Ńà²¾à²·", "à²¾"], ["iv", "a"], ["iv", "al"], ["os", "a"], ["à±Ĥ", "à°²"], ["os", "i"], ["os", "ing"], ["os", "ition"], ["os", "phere"], ["à±Ĥ", "à°°à±ģ"], ["Ġcent", "re"], ["Ġà¤ħ", "à¤§à¤¿à¤ķ"], ["Ġde", "leg"], ["Ġà²Ńà²¾à²·", "à³Ĩ"], ["Ġde", "pend"], ["à°¾à°²à±ģ", "à°Ĺà±ģ"], ["Ġwor", "ks"], ["ough", "t"], ["ĠAs", "ians"], ["ĠW", "HO"], ["à±Ī", "à°ª"], ["og", "amy"], ["Ġch", "ap"], ["Ġch", "ains"], ["à°Ł", "à±įà°²"], ["Ġà²µà³įà²¯", "à²µà²¸"], ["Ġch", "ild"], ["Ġà¤¦", "à¥ĭ"], ["Ġco", "st"], ["Ġpro", "j"], ["Ġpro", "duced"], ["à°Ł", "à±įà°²à±ģ"], ["Ġpro", "bably"], ["Ġpro", "duce"], ["our", "y"], ["Ġcont", "ra"], ["à°¿à°¨", "à±Ģ"], ["ĠU", "PA"], ["0000", "00"], ["ĠU", "rdu"], ["ĠHin", "dus"], ["à¤Ĥà¤Ĺ", "à¥įà¤°à¥ĩ"], ["à°¯", "à°¿à°Ĥà°¦à°¿"], ["ot", "ech"], ["Ġat", "tract"], ["ass", "ical"], ["ass", "inated"], ["à°¾à°¨", "à°Ĥ"], ["av", "al"], ["av", "ated"], ["if", "eration"], ["à²ķà³įà²¤", "à²¿à²¯"], ["Ġà°¦", "à°¾à°¦"], ["low", "ed"], ["Ġpart", "ies"], ["à¥įà¤", "®"], ["Ġpart", "ially"], ["ĠR", "ep"], ["à°Ĺ", "à°£"], ["ĠR", "eligion"], ["Ġlarg", "er"], ["Ġeconom", "ies"], ["à°Ĺ", "à±įà°Ĺ"], ["Ġform", "ally"], ["ress", "ive"], ["Ġà²µà²°à³įà²", "·"], ["aj", "pay"], ["ap", "p"], ["à°Ĺ", "à±ĭà°³"], ["ap", "s"], ["à¤ķ", "à¥Ģ"], ["ap", "utra"], ["ct", "ober"], ["Ġreg", "ist"], ["Ġà°ī", "à°Ĥà°¡"], ["ĠCh", "and"], ["ĠCh", "ol"], ["ĠCh", "amp"], ["Ġà²¸à²¿à²°à²¿à²µ", "à²Ĥà²¤"], ["Ġà°ľ", "à°°à±ģ"], ["ĠCh", "hau"], ["ĠCh", "ristian"], ["ĠJ", "har"], ["ĠJ", "aw"], ["Ġà°ľ", "à°Ĥà°¬"], ["à¤°à¥įà¤", "¥"], ["ĠJ", "amm"], ["ĠJ", "une"], ["Ġk", "ho"], ["à°¾à°¤", "à±ĭ"], ["Ġk", "urta"], ["Ġad", "vent"], ["Ńà²ľ", "à²¿à²¤"], ["Ġad", "van"], ["stit", "utes"], ["à°¾à°¤", "à±įà°®"], ["Ġcl", "oth"], ["Ġcl", "ose"], ["Ġà¤¶", "à¤¾à¤¸"], ["Ġse", "x"], ["Ġse", "ats"], ["Ġà°¨", "à°¿à°¯"], ["Ġse", "diment"], ["Ġsub", "duc"], ["Ġsub", "stant"], ["à²¿à²¹", "à²¾à²¸"], ["Ġà°¨", "à°¾à°Ĺ"], ["Ġpl", "ant"], ["Ġpl", "ayed"], ["Ġrel", "ated"], ["Ġrel", "ative"], ["Ġà°¨", "à±ĩà°ª"], ["angu", "ages"], ["Ġà¤µà¤°à¥įà¤", "·"], ["me", "work"], ["eral", "a"], ["eral", "s"], ["Ġà°¨", "à°¾à°²à±ģà°Ĺà±ģ"], ["Ġag", "ree"], ["Ġà²¸à²¾à²°", "à³įà²µà²¤à³įà²°"], ["Ġper", "cent"], ["Ġmar", "ry"], ["Ġmar", "sh"], ["Ġà°ļ", "à°¾à°°à°¿à°¤à±įà°°à°ķ"], ["Ġel", "ect"], ["Ġ201", "7"], ["Ġà¤§", "à¤°à¥įà¤®"], ["ĠK", "aver"], ["ĠK", "osi"], ["Ġà°ļ", "à°¾à°²à°¾"], ["ĠK", "erala"], ["hi", "p"], ["lud", "ing"], ["à°§", "à±Ģ"], ["Ġdec", "reasing"], ["Ġà²ķà³ĩ", "à²Ĥà²¦"], ["Ġdec", "iduous"], ["ĠF", "ollowing"], ["ĠV", "is"], ["Ġà°ĩ", "à°µà°¿"], ["ĠV", "edic"], ["à¥", "ª"], ["ĠV", "ij"], ["ĠV", "ajpay"], ["Ġà°ĩ", "à°Ĥà°Ĺà±įà°²"], ["Ġgen", "der"], ["Ġcomp", "os"], ["Ġcomp", "any"], ["Ġà²ķà³Ĩà²²", "à²µà³Ĩà²Ĥà²¦à²°à³Ĩ"], ["Ġcomp", "rising"], ["Ġà°ĩ", "à°¸à±įà°²"], ["Ġend", "ing"], ["ff", "icial"], ["Ġsh", "ared"], ["à¤°", "à¥ĩ"], ["Ġsh", "ort"], ["à°¨à±ģ", "à°²à±ģ"], ["Ġsh", "alw"], ["Ġsh", "oulder"], ["Ġart", "ic"], ["à°¿à°Ĥà°ļ", "à°¬à°¡"], ["Ġart", "ists"], ["Ġà²ħà²®", "à³Ĩà²°"], ["Ġart", "istic"], ["Ġart", "isans"], ["Ġinclud", "ed"], ["à°¸à±įà°", "ķà±ĥà°¤"], ["Ġinclud", "es"], ["à¥ģ", "à¤¸"], ["we", "alth"], ["Ġover", "ran"], ["à°¸", "à°°"], ["ect", "ively"], ["Ġres", "ources"], ["igh", "bour"], ["à³Ĭà²³", "à³įà²³"], ["Ġsystem", "s"], ["à°¸", "à±įà°°"], ["Ġ5", "3"], ["Ġ5", "00"], ["Ġ3", "4"], ["Ġà°Ĩ", "à°¹"], ["ĠO", "ver"], ["Ġà¤°", "à¥Ĥà¤ª"], ["ĠO", "ut"], ["ĠO", "ld"], ["ĠO", "cean"], ["Ġà°¦à±ĩà°¶", "à°Ĥà°Ĺà°¾"], ["ĠO", "rgan"], ["à³Ģà²ķ", "à²¤"], ["ĠO", "ctober"], ["Ġinf", "orm"], ["Ġsup", "reme"], ["Ġà°¦à±ĩà°¶", "à°¾à°¨à°¿à°ķà°¿"], ["Ġsup", "ercontinent"], ["Ġme", "dic"], ["à¤¦", "à¥įà¤§"], ["Ġme", "dieval"], ["Ġà°¤", "à°¿à°°"], ["Ġme", "gadi"], ["Ġme", "aning"], ["Ġ7", "4"], ["Ġà²ĩà²Ĥà²¡", "à²¿à²¯à²¾"], ["ĠL", "at"], ["Ġà°¤", "à°ķà±įà°ķà±ģà°µ"], ["ĠL", "aksh"], ["ĠL", "anguages"], ["Ġpe", "ace"], ["Ġlat", "itud"], ["Ġnum", "erals"], ["Ġà°¤", "à±Ĩà°²à±ģ"], ["Ġà¤¬à¤¹", "à¥ģ"], ["Ġincreas", "ing"], ["Ġ4", "1"], ["Ġ4", "2"], ["Ġà°Ĺ", "à±įà°°"], ["Ġim", "per"], ["Ġim", "ple"], ["Ġim", "mediately"], ["Ġà²¬à³įà²°à²¿à²Łà²¿à²·", "à³į"], ["Ġ200", "7"], ["Ġà°Ĺ", "à°£"], ["Ġ200", "9"], ["Ġrul", "ed"], ["à¥", "¨"], ["Ġrul", "ing"], ["Ġà°Ĺ", "à±ģà°°à±įà°¤"], ["Ġrul", "ers"], ["Ġdis", "crimin"], ["Ġsc", "en"], ["Ġsc", "heduled"], ["à°ļ", "à±ĩ"], ["Ġser", "ies"], ["Ġà²¸à²¿à²Ĥà²§", "à³Ĥ"], ["Ġ202", "1"], ["Ġlarge", "ly"], ["à°Ń", "à°¾à°°à°¤"], ["Ġnot", "able"], ["Ġ196", "0"], ["Ġ196", "4"], ["Ġà¤", "ĺ"], ["Ġ196", "7"], ["Ġà°¬", "à°Ĥà°Ĺ"], ["ef", "ly"], ["Ġsouth", "west"], ["Ġfol", "lowed"], ["Ġland", "s"], ["Ġà°¬", "à°Ĥà°Ĺà±įà°²"], ["olog", "ical"], ["Ġâ", "Ĥ¹"], ["Ġ199", "8"], ["Ġ199", "9"], ["à±ģà°¤", "à±ģà°Ĥà°¦à°¿"], ["Ġj", "urisdic"], ["à¥įà¤", "¨"], ["Ġj", "acket"], ["Ġen", "c"], ["Ġra", "id"], ["Ġà°µà°¿à°", "§"], ["Ġra", "pidly"], ["ni", "qu"], ["Ĺà³įà²²", "à²¾à²¦à³ĩà²¶"], ["vi", "olence"], ["Ġà°¸à°Ĥà°", "¬à°Ĥà°"], ["vi", "olent"], ["Ġapp", "oin"], ["Ġapp", "lied"], ["à¤¿à¤", "¶"], ["atic", "ians"], ["Ġà°¶", "à±įà°°à±Ģ"], ["Ġrep", "resent"], ["Ġrep", "eated"], ["ilit", "ated"], ["Ġexp", "anding"], ["Ġà°¶", "à±Ĩà°²"], ["Ġà²¡à²¾à²²", "à²°à³įâĢĮ"], ["aw", "atts"], ["Ġthere", "fore"], ["Ġthere", "after"], ["à°ķà±įà°·", "à°Ĥ"], ["Ġab", "s"], ["Ġà¤®", "à¤¹"], ["Ġab", "le"], ["Ġab", "ove"], ["Ġhum", "ans"], ["à±įâĢĮ", "à°²"], ["Ġnon", "violent"], ["ĠAl", "liance"], ["à²¦à³įà²¦", "à³ģ"], ["Ġext", "reme"], ["à°¿à°ª", "à±ģ"], ["Ġext", "ends"], ["Ġcount", "ries"], ["Ġ6", "3"], ["Ġà¤ľ", "à¥ĭ"], ["Ġocc", "urred"], ["à°¿à°ª", "à°¾à°²"], ["Ġocc", "asions"], ["Ġwar", "s"], ["Ġwar", "riors"], ["esp", "ite"], ["à°¾à°®", "à°¾à°¬à°¾à°¦à±į"], ["à²²à²¾à²°", "à²Ĥà²Ńà²¿à²¸à²¿à²¦"], ["Ġmat", "erial"], ["Ġliter", "ary"], ["Ġliter", "ature"], ["Ġà°¹", "à±Ī"], ["ĠTh", "ail"], ["à¤¿à¤¯", "à¥ĭà¤Ĥ"], ["Ġ194", "9"], ["ĠMo", "di"], ["gen", "er"], ["Ġà°¹", "à°¿à°®"], ["ron", "ic"], ["Ġset", "tle"], ["Ġà²®à²§", "à³įà²¯"], ["rig", "onomet"], ["à°¿à°¯", "à°¾à°²à±ĭ"], ["ĠPl", "ain"], ["ĠPunjab", "i"], ["Ġà¤°", "à¤¾à¤·à¥įà¤Łà¥įà¤°"], ["ĠEast", "ern"], ["ultan", "eously"], ["Ġà°ķà±Ĥà°¡", "à±ģà°ķà±ģ"], ["ib", "le"], ["Ġpre", "vent"], ["Ġmain", "ly"], ["à±ĥ", "à°¤"], ["Ġmain", "tain"], ["Ġà²®à²¾à²¹", "à²¿à²¤à²¿"], ["Ġfar", "mers"], ["Ġemp", "has"], ["Ġemp", "eror"], ["à±ģà°²", "à°ķà±ģ"], ["Ġà¤µà¤¿à¤¶", "à¥įà¤µ"], ["Ġgra", "dient"], ["ild", "ing"], ["ĠSt", "ill"], ["Ġ198", "0"], ["à°¿à°²", "à±į"], ["Ġ198", "4"], ["Ġ198", "5"], ["Ġà²ªà²Łà³įà²Ł", "à²¿à²¯à²²à³įà²²à²¿"], ["Ġexpor", "ter"], ["à°Łà±įà°Ł", "à°®à±Ĭ"], ["Ġexpor", "ted"], ["Ġmathem", "aticians"], ["Ġus", "ually"], ["à¤¿à¤", "µ"], ["put", "s"], ["Ġà°ªà°°", "à°Ĥà°Ĺà°¾"], ["Ġtech", "niqu"], ["Ġac", "tion"], ["Ġac", "cess"], ["Ġà°ªà°°", "à°¿à°ªà°¾à°²"], ["Ġcol", "leg"], ["à²¸à³įà²Ł", "à³į"], ["Ġcol", "onial"], ["Ġwe", "b"], ["Ġhigh", "ly"], ["Ġà°°à°¾à°ľ", "à±ģ"], ["ĠSh", "astri"], ["à¤¨", "à¥Ģ"], ["ĠSh", "iva"], ["ĠMuslim", "s"], ["Ġass", "assinated"], ["Ġà°Ńà°¾à°", "µ"], ["Ġcoast", "s"], ["Ġà²¬à²¾à²Ĥà²", "Ĺà³įà²²à²¾à²¦à³ĩà²¶"], ["Ġcoast", "al"], ["Ġcoast", "line"], ["Ġà°²", "à±ĩà°¦"], ["Ġterrit", "orial"], ["Ġtrans", "form"], ["Ġà¤¨", "à¤¾à¤®"], ["ĠSikh", "s"], ["iz", "ation"], ["Ġà°®à±Ĭ", "à°Łà±įà°Łà°®à±Ĭ"], ["iz", "ens"], ["vid", "ence"], ["wor", "ks"], ["Ġà°ľà°¨", "à±įà°®"], ["Ġà²¬à³Į", "à²¦à³įà²§"], ["Ġindust", "rial"], ["Ġbi", "odiversity"], ["Ġbi", "otech"], ["Ġfig", "ure"], ["Ġà¤ªà¥Ĥ", "à¤°à¥įà¤µ"], ["Ġà°ľà°¨", "à°Ĺà°£"], ["Ġfeat", "ure"], ["Ġlast", "ed"], ["Ġremain", "ed"], ["à°³", "à°¿"], ["Ġne", "ighbour"], ["Ġ197", "1"], ["Ġà²¨à²¾à²²", "à³įà²ķ"], ["Ġdiff", "used"], ["ack", "buc"], ["Ġarm", "s"], ["à±įà°®", "à±Ģ"], ["Ġarch", "aic"], ["Ġdev", "ast"], ["à¤°", "à¤¾"], ["Ġmarri", "ed"], ["Ġoccup", "ation"], ["Ġà°ªà±ĩ", "à°°à±įà°ķà±Ĭ"], ["Ġcontribut", "ed"], ["Ġpainting", "s"], ["Ġà²¨à²¾à²Ĺà²°", "à³Ģà²ķà²¤"], ["cent", "ury"], ["Ġà°µà±įà°¯", "à°¾à°ª"], ["ven", "e"], ["wan", "a"], ["str", "ing"], ["à¤¾à¤", "ļ"], ["Ġcar", "ved"], ["à°¾à°¸", "à°¿à°¯à°¾"], ["Ġinter", "vention"], ["Ġpres", "ent"], ["Ġpres", "ence"], ["Ġà°İà°¨à±įà°¨", "à°¿à°ķ"], ["Ġpres", "ident"], ["Ġà²®à³ģà²¸à³įà²²", "à²¿à²®à³į"], ["Ġprom", "in"], ["Ġnational", "ist"], ["Ġcommer", "ce"], ["à±ģà°ķ", "à±Ĭ"], ["à¥ĭ", "à¤²"], ["Ġsever", "al"], ["Ġsever", "ely"], ["Ġmarket", "s"], ["Ġdecl", "ared"], ["Ġà°ķà°²", "à±įà°ª"], ["Ġgener", "ated"], ["Ġgener", "ally"], ["Ġà²¬à³Ĩà²Ĥà²Ĺ", "à²³à³Ĥà²°"], ["Ġendem", "ism"], ["Ġà°ķà°²", "à°¿à°¸"], ["Ġhistor", "ical"], ["Ġà¤¨", "à¤¿"], ["Ġhistor", "ically"], ["Ġhistor", "ians"], ["Ġorigin", "al"], ["Ġà°¹à°¿à°Ĥà°¦", "à±Ģ"], ["sc", "ale"], ["á¹", "ĩ"], ["Ġtex", "til"], ["à°¾à°Ĺ", "à°Ĥ"], ["Ġaff", "air"], ["Ġà²¸à²¾à²°à³įà²µà²¤à³įà²°", "à²¿à²ķ"], ["Ġaff", "irm"], ["Ġà¤¬", "à¤¡à¤¼"], ["Ġob", "struc"], ["Ġcivil", "ian"], ["Ġà°®à°¤", "à°¾à°²à±ģ"], ["Ġwin", "ds"], ["Ġbl", "ackbuc"], ["Ġmak", "e"], ["Ġfl", "our"], ["Ġà°ªà°¾à°ķ", "à°¿à°¸à±įà°¤à°¾à°¨à±į"], ["Ġeth", "ical"], ["Ġevery", "day"], ["0", "8"], ["à¤§", "à¤¾à¤¨"], ["Ġdomin", "ion"], ["Ġà°°à°¾à°ľà±įà°¯", "à°¾à°Ĥà°Ĺ"], ["Ġdomin", "ance"], ["Ġgar", "ment"], ["Ġgar", "lic"], ["ĠBi", "har"], ["Ġà°µà±įà°¯à°µà°¸à±įà°¥", "à°²à±ĭ"], ["ĠBi", "odiversity"], ["5", "0"], ["ĠBrahm", "aputra"], ["Ġdist", "inct"], ["Ġann", "ually"], ["Ġà¤¹à¥ģà¤", "Ĩ"], ["Ġà°¦à°ķà±įà°·à°¿à°£", "à°¾à°¸à°¿à°¯à°¾"], ["Ġann", "ual"], ["Ġvill", "ages"], ["8", "04"], ["Ġvari", "ous"], ["Ġdef", "in"], ["ķà±ĥ", "à°¤à°¿"], ["ĠRaj", "iv"], ["ĠRaj", "puts"], ["Ġspread", "ing"], ["Ġsubsequent", "ly"], ["Ġà°¸à°®", "à°¾à°ĸà±įà°¯"], ["Ġà¤¹à¥ģà¤", "Ī"], ["ĩ", "à²Ĥà²¡"], ["Ġcomple", "x"], ["Ġresp", "onse"], ["Ġpolic", "y"], ["Ġà°ªà±įà°°à°ľ", "à°¾à°¸à±įà°µà°¾à°®à±įà°¯"], ["Ġgroup", "s"], ["ĠIslam", "ic"], ["Ġsurv", "ives"], ["ĸ", "à³į"], ["Ġbirth", "s"], ["Ġà°¶à°¾à°", "ĸ"], ["Ġlegisl", "ature"], ["à¤", "ı"], ["Ġindepend", "ent"], ["ĠY", "aksh"], ["Ġà°®à±Ĭà°¦", "à°Łà°¿"], ["cast", "es"], ["miss", "ion"], ["Ĺ", "à²¡"], ["Ġtur", "ned"], ["Ġtax", "es"], ["Ġà°¹à°¿à°Ĥà°¦à±Ĥ", "à°¦à±ĩà°¶à°Ĥ"], ["inc", "luding"], ["erc", "ulos"], ["à¤¾à¤", "ı"], ["Ġacc", "oun"], ["dis", "ed"], ["à±įà°¸", "à±į"], ["ļ", "à³Ģ"], ["Ġche", "etah"], ["Ġcreat", "ing"], ["Ġcreat", "ivity"], ["Ġà°ªà±ģ", "à°°à±ģà°·"], ["Ġinvol", "ved"], ["Ġinvol", "ving"], ["Ġso", "on"], ["à¤¾à¤", "¬"], ["¡", "à²³à²¿à²¤"], ["Ġbor", "ders"], ["Ġà°¸à°¾à°Ĥ", "à°¸à±įà°ķà±ĥà°¤"], ["Ġmon", "so"], ["Ġfam", "ily"], ["Ġflow", "ering"], ["Ġà°¸à°Ĥà°¸à±įà°", "ķà±ĥà°¤à°¿"], ["Ġlay", "er"], ["Ġdemoc", "ratic"], ["¤", "à³įà²°"], ["Ġdemoc", "racy"], ["Ġà¤¸", "à¥įà¤µ"], ["Ġreform", "s"], ["Ġà°¸à±įà°¥à°¾à°¨", "à°Ĥà°²à±ĭ"], ["ĠPar", "ty"], ["Ġste", "amed"], ["Ġexc", "avated"], ["Ġà°¦à±įà°µ", "à°¾à°°à°¾"], ["ĠGuj", "arat"], ["®", "à²¿"], ["Ġproduc", "er"], ["Ġagain", "st"], ["ĠFore", "ign"], ["Ġà°īà°Ĥà°Ł", "à±ģà°Ĥà°¦à°¿"], ["à¥ĭ", "à¤¡à¤¼"], ["ĠHindust", "an"], ["ĠHindust", "ani"], ["Ġpoll", "ution"], ["¶", "à³įà²µ"], ["Ġextens", "ively"], ["Ġà°¨à°¿à°°", "à±įà°®"], ["Ġrenew", "able"], ["In", "dia"], ["kh", "and"], ["Ġà°ķà±įà°°à±Ģà°¡", "à°²à±ģ"], ["la", "iming"], ["à¤¸", "à¥įà¤¤"], ["vas", "ive"], ["Ġcal", "end"], ["Ġcle", "ared"], ["Ġà°¤à°°à±ģà°µà°¾à°¤", "à°¿"], ["Ġcos", "ine"], ["à²", "ĩà²Ĥà²¡"], ["Ġinit", "i"], ["Ġsim", "ilar"], ["Ġà°īà°ª", "à°ĸà°Ĥà°¡"], ["Ġsav", "oury"], ["Ġbu", "ilding"], ["à¥Ī", "à¤¨"], ["Ġbri", "efly"], ["Ġpat", "ron"], ["à³", "§"], ["Ġà°¨à±ģ", "à°Ĥà°ļà°¿"], ["Ġpor", "tion"], ["Ġmig", "ration"], ["Ġmerch", "ants"], ["Ġà°®à±ģà°ĸà±įà°¯", "à°®à±Īà°¨"], ["Ġfra", "mework"], ["Ġfem", "ales"], ["Ġfact", "or"], ["à¤Ĥà¤", "¡"], ["à³", "©"], ["Ġlim", "ited"], ["Ġà°ıà°°à±įà°ª", "à°¡à±įà°¡"], ["Ġlik", "e"], ["Ġtown", "s"], ["Ġhy", "mn"], ["Ġhig", "hest"], ["à°¿à°ľ", "à±įà°¯"], ["Ġhub", "s"], ["à³", "¬"], ["ĠTem", "ple"], ["Ġà¤¦", "à¥ĩ"], ["Ġnomin", "al"], ["Ġà°ķà°¾à°°", "à°£à°Ĥà°Ĺà°¾"], ["Ġgain", "ed"], ["Ġgod", "s"], ["ĠAk", "bar"], ["Ġà²", "Ĳ"], ["ĠCl", "assical"], ["à±Īà°Ł", "à±ģ"], ["Ġisol", "ation"], ["Ġthreat", "ened"], ["ĠEconom", "y"], ["à¤¾à¤¨", "à¥ĩ"], ["Ġà°Ńà°¾à°Ĺ", "à°Ĥ"], ["ĠEuras", "ia"], ["Ġextin", "ct"], ["Ġà²", "¯"], ["Ġdiv", "orce"], ["ĠGeograph", "y"], ["à±ģà°ķà±ģà°Ĥà°Ł", "à°¾à°°à±ģ"], ["Ġorgan", "isation"], ["ĠDemoc", "ratic"], ["Ġunit", "ary"], ["Ġvi", "olence"], ["Ġà°¶à°¾à°¸à±įà°¤", "à±įà°°à±Ģà°¯"], ["Ġà¤ľà¤¾à¤¤", "à¤¾"], ["à³įà²", "£"], ["Ġvarn", "a"], ["Ġvict", "ories"], ["Ġdefe", "ated"], ["Ġà°¸à°¿à°¨à°¿à°®", "à°¾à°²à±ģ"], ["Ġpartic", "ular"], ["Ġspeak", "ers"], ["Ġadop", "ted"], ["à³įà²", "¬"], ["Ġaddition", "al"], ["à°°à°¿à°ķ", "à°¤"], ["ķ", "à¥ĥà¤¤"], ["Ġclim", "atic"], ["Ġsep", "arat"], ["Ġlevel", "s"], ["Ġà°ªà°¤", "à°ķà°¾à°²à±ģ"], ["Ġsho", "res"], ["Ġ36", "1"], ["à²¿à²", "¡"], ["Ġsuppl", "anted"], ["Ġconsum", "ption"], ["à±Ĩà°Ł", "à±į"], ["ĠLank", "an"], ["à¤¾à¤", "¹"], ["Ġheredi", "tary"], ["Ġserv", "ice"], ["à±įâĢĮà°¸", "à±Īà°Łà±ģ"], ["Ġrailw", "ays"], ["à²¿à²", "ĸà³į"], ["Ġexpans", "ion"], ["Ġexpress", "ion"], ["Ġ185", "8"], ["Ġà°®à±Ĭà°¦à°²", "à±Īà°¨"], ["Ġassoci", "ated"], ["Ġà¤®", "à¤¾à¤¨"], ["Ġtemp", "les"], ["Ġsafe", "guard"], ["à²¾à²", "ļà³Ģ"], ["Ġstrong", "ly"], ["Ġà°ªà°Łà±įà°Łà°£", "à°¾à°²à±ģ"], ["Ġcharacter", "istic"], ["Ġmanuscri", "pt"], ["Ġretur", "ned"], ["Ġà°¬à°¹à±ģ", "à°³"], ["Ġliberal", "isation"], ["à¤¾à¤°", "à¥Ģ"], ["Ġhabit", "at"], ["à³ģ", "à²°"], ["ĠPallav", "as"], ["ĠZ", "oroastri"], ["Ġà°¸à°¿à°Ĥà°§", "à±ģ"], ["Ġess", "ential"], ["Ar", "tic"], ["Gang", "etic"], ["Ġà°ªà°¦à±įà°§", "à°¤"], ["Prol", "iferation"], ["à³ģ", "à²¦"], ["aË", "Ĳ"], ["à¥ģ", "à¤²"], ["aem", "en"], ["ahar", "lal"], ["Ġà°ªà°Ĥà°¡à±ģ", "à°Ĺà°²à±ģ"], ["grow", "ing"], ["gather", "ers"], ["kn", "it"], ["à³ģ", "à²Ĺ"], ["Ġà°µà°°à±įà°", "Ĺ"], ["major", "ity"], ["molog", "y"], ["Ġà¤Ń", "à¥Ĥ"], ["yal", "ty"], ["½Î", "´"], ["Ġà°µà±Ĩà°¬", "à±įâĢĮà°¸à±Īà°Łà±ģ"], ["á¼¸Î", "½Î´"], ["Ġtand", "oor"], ["à³ģ", "à²°à³ģ"], ["Ġtub", "erculos"], ["Ġamp", "hi"], ["Ġà°¨à°Ĺ", "à°°à°¾à°²à±ģ"], ["Ġamend", "ments"], ["à¤®", "à¥ĩà¤Ĥ"], ["Ġcit", "izens"], ["Ġcere", "al"], ["à°¨à±ģà°ķ", "à°Łà°¿"], ["Ġwelf", "are"], ["à³ģ", "à²¤à³įà²°"], ["Ġbul", "k"], ["Ġbot", "tom"], ["Ġbrough", "t"], ["Ġà°¤à°®à°¿à°³", "à°Ĥ"], ["Ġbron", "z"], ["Ġbreath", "ing"], ["Ġà¤¦", "à¤¿à¤¯à¤¾"], ["Ġpoin", "ts"], ["à³ģ", "à²ĸ"], ["Ġà°µà°¿à°¦", "à±įà°¯"], ["Ġparen", "ts"], ["Ġprin", "ces"], ["Ġmanu", "fact"], ["Ġflo", "od"], ["Ġà°°à±Īà°²à±įà°µ", "à±ĩ"], ["Ġfoetic", "ide"], ["à³Ĩ", "à²¦"], ["Ġleng", "th"], ["Ġà¤ªà¥įà¤°", "à¤®"], ["Ġedic", "ts"], ["Ġevent", "ually"], ["Ġà°¸à±įà°µà°¾à°¤à°Ĥà°¤à±įà°°", "à±įà°¯"], ["Ġemiss", "ions"], ["Ġhun", "ter"], ["Ġhous", "es"], ["Ġà°ªà±įà°°à°§à°¾à°¨à°®à°Ĥà°¤à±įà°°", "à°¿"], ["à³Ĩ", "à²¨"], ["Ġhots", "pots"], ["ĠTib", "et"], ["Ġà¤ªà¥įà¤°", "à¤¦"], ["econom", "ic"], ["Ġnex", "t"], ["Ġà°ļà±ĩà°¸", "à°¿à°Ĥà°¦à°¿"], ["Ġgig", "awatts"], ["Ġgreen", "house"], ["à²°", "à³įà²¯"], ["ĠAch", "aemen"], ["Ġà°¨à°¿à°°à±įà°µà°¹", "à°£"], ["ĠAgen", "cy"], ["ĠCup", "s"], ["ĠCav", "es"], ["à¤¾à¤²", "à¥Ģ"], ["ĠClim", "ate"], ["Ġà°ªà±įà°°à°¤à°¿à°ª", "à°¾à°¦à°¨"], ["ĠChes", "s"], ["à²°", "à²²à³įà²²à²¿"], ["ĠCarn", "atic"], ["ĠCommon", "wealth"], ["à°¿à°¦à±įà°", "§à°¿"], ["ĠSim", "ultaneously"], ["ĠSab", "ha"], ["ĠSever", "al"], ["à¤¸à¥įà¤", "ķà¥ĥà¤¤"], ["ĠSovi", "et"], ["Ġà°ªà±Ĭ", "à°Ĥà°¦à°¿à°¨"], ["à²°", "à²¿à²Ĥà²¦"], ["adem", "i"], ["adwe", "ep"], ["idesp", "read"], ["ĠMum", "bai"], ["à±Ģà°·", "à±ģ"], ["Ġbegin", "nings"], ["ĠPolit", "ics"], ["à²°", "à³Ĩà²¯"], ["Ġà¤īà¤¤", "à¥įà¤¤à¤°"], ["Ġstud", "y"], ["à°¦à°¿à°¨", "à°¾à°²à±ģ"], ["Ġstandar", "dised"], ["ĠEty", "mology"], ["ĠEmerg", "ency"], ["Ġdise", "ase"], ["Ġà°¸à±Ĥ", "à°ļ"], ["ĠGond", "wana"], ["à²°", "à²¿à²Ĺ"], ["ĠNort", "heast"], ["ayanag", "ara"], ["Ġà¤¶à¤¾à¤¸", "à¤¨"], ["Ġà°ķà±įà°¯", "à°¾à°²à±Ĩà°Ĥà°¡"], ["Ġcomfor", "table"], ["Ġcommit", "te"], ["Ġdeleg", "ates"], ["Ġdepend", "ent"], ["à²°", "à²¾à²ľà³įà²¯"], ["Ġà°µà±Ī", "à°µà°¿à°§"], ["ĠRep", "ublic"], ["ĠChristian", "ity"], ["ĠJhar", "khand"], ["à¥", "«"], ["ĠJaw", "aharlal"], ["Ġà°Ĩà°«", "à±įà°ĺ"], ["ĠJamm", "u"], ["Ġadvan", "ced"], ["à²°", "à²¾à²·à³įà²Łà³įà²°"], ["Ġsubstant", "ially"], ["Ġà°Ĺà°¾à°Ĥ", "à°§à±Ģ"], ["Ġpercent", "age"], ["Ġmarsh", "y"], ["ĠKaver", "i"], ["Ġà¤", "Ī"], ["ĠVij", "ayanagara"], ["Ġà°µà°¿à°Ń", "à°¿à°¨à±įà°¨"], ["ĠVajpay", "ee"], ["à²¤", "à³įà²µ"], ["ĠOrgan", "ization"], ["Ġinform", "ation"], ["Ġà°¸à°Ĥà°ķ", "à±Ģà°°à±įà°£"], ["Ġmegadi", "verse"], ["ĠLaksh", "adweep"], ["Ġimper", "ial"], ["Ġà¤", "¡"], ["Ġjurisdic", "tion"], ["à²¤", "à²Ĥà²¤à³įà²°"], ["Ġà°¸à°Ĥà°ªà±įà°°à°¦à°¾à°¯", "à°¾à°²à±ģ"], ["Ġjacket", "s"], ["Ġrepeated", "ly"], ["Ġextreme", "ly"], ["Ġà°°à±Īà°³", "à±įà°²à°¨à±ģ"], ["Ġmaterial", "s"], ["ĠThail", "and"], ["Ġsettle", "ment"], ["à²¤", "à²¿à²Ĺà²³à³ģ"], ["à¤¨", "à¥įà¤¦"], ["Ġcolleg", "es"], ["Ġà°®à±ģà°Ĥà°¬", "à±Ī"], ["Ġtransform", "ed"], ["Ġaffair", "s"], ["Ġblackbuc", "k"], ["ĠYaksh", "agana"], ["Ġà°Ĵà°ķà°Ł", "à°¿à°Ĺà°¾"], ["Ġhymn", "s"], ["à²Ĥà²", "ª"], ["ĠZoroastri", "anism"], ["à¤ķ", "à¤¿"], ["Ġtuberculos", "is"], ["Ġà°ªà°¾à°ķà°¿à°¸à±įà°¥", "à°¾à°¨à±į"], ["Ġ", "'"], ["Ġ", ")"], ["Ġ", "["], ["Ġ", "Ã"], ["Ġ", "Å"], ["Ġ", "ic"], ["Ġ", "il"], ["Ġà°¸à°¾à°Ĥà°ªà±įà°°à°¦à°¾à°¯", "à°¿à°ķ"], ["Ġ", "ver"], ["Ġ", "id"], ["Ġ", "ub"], ["Ġ", "ens"], ["Ġ", "eng"], ["à²¦", "à³ģ"], ["Ġ", "ident"], ["Ġà¤ª", "à¤¾à¤°"], ["Ġ", "),"], ["Ġà°ķà°¾à°°à±įà°¯", "à°ķà±įà°°à°®"], ["\"", ","], ["%", ":"], ["%", ";"], ["'", ")"], ["'", "."], [")", ")."], [".", ")"], [".", "\")"], ["0", "94"], ["1", "1"], ["1", "4"], ["1", "6"], ["2", "2"], ["2", "3"], ["Ġà¤¬", "à¤¢à¤¼"], ["2", "5"], ["2", "7"], ["à²¦", "à²¿à²¯à²²à³įà²²à²¿"], ["2", "8"], ["2", "9"], ["2", "35"], ["2", "64"], ["3", "9"], ["3", "00"], ["Ġà°¸à°°à±įà°µà±Ģà°¸", "à±ģà°²à±ģ"], ["3", "80"], ["4", "0"], ["4", "4"], ["4", "6"], ["4", "8"], ["5", "4"], ["5", "00"], ["Ġà¤µ", "à¥įà¤¯"], ["5", "17"], ["6", "0"], ["6", "3"], ["6", "5"], ["6", "7"], ["6", "01"], ["6", "27"], ["6", "63"], ["7", "5"], ["7", "00"], ["7", "31"], ["8", "1"], ["Ġà°°à±ĭà°¡à±įà°¡", "à±ģ"], ["8", "2"], ["8", "5"], ["9", "2"], ["à¥įà¤¤", "à¤¾à¤¨"], ["9", "6"], ["A", "l"], ["à²²", "à³įà²¤à²¾à²¨"], ["A", "ra"], ["A", "ph"], ["Ġà°ªà°°à°¿à°¶à±įà°°à°®", "à°²à±ģ"], ["A", "ust"], ["B", "C"], ["B", "h"], ["B", "an"], ["B", "JP"], ["B", "hÄģ"], ["C", "N"], ["D", "em"], ["E", "ight"], ["Ġà°ªà±Ģ", "à°ł"], ["G", "DP"], ["à²²", "à²µà²¾à²Ĺà²¿"], ["G", "reen"], ["à¤¾à¤²", "à¤¯"], ["I", "sl"], ["K", "ad"], ["M", "in"], ["M", "ap"], ["M", "uslim"], ["N", "A"], ["Ġà°ķà°Ĥà°ª", "à±Ĩ"], ["N", "DA"], ["P", "ol"], ["P", "ub"], ["P", "akistan"], ["à²²", "à³įà²ª"], ["P", "ars"], ["S", "tre"], ["T", "est"], ["Ġà°ķà°¾à°¶", "à±įà°®à±Ģ"], ["U", "S"], ["Ġà¤ī", "à¤¨"], ["U", "PA"], ["U", "CN"], ["W", "HO"], ["a", "o"], ["a", "z"], ["a", "us"], ["Ġà°ķà±ĩà°µ", "à°²à°Ĥ"], ["a", "id"], ["a", "ud"], ["à²Ĺ", "à²£"], ["a", "iv"], ["a", "os"], ["a", "ff"], ["a", "ugh"], ["a", "dic"], ["Ġà°µà°¾à°£", "à°¿à°ľà±įà°¯"], ["a", "á¹"], ["Ġà¤ī", "à¤ª"], ["b", "o"], ["b", "y"], ["b", "Ê"], ["b", "on"], ["b", "or"], ["b", "ic"], ["à²Ĺ", "à³įà²Ĺ"], ["b", "ec"], ["b", "ro"], ["b", "ate"], ["b", "ans"], ["b", "ally"], ["Ġà°µà±Ģà°Ł", "à°¿à°²à±ĭ"], ["b", "out"], ["b", "ade"], ["à¥¦", "à¥¦"], ["b", "ians"], ["b", "led"], ["b", "odi"], ["b", "ined"], ["b", "ility"], ["à²¾à²°", "à³į"], ["à°µà±Ĩ", "à°¨à±ģà°ķà°Łà°¿"], ["b", "hÄģ"], ["b", "reath"], ["b", "anded"], ["b", "ased"], ["b", "acks"], ["c", "a"], ["c", "he"], ["Ġà°¦à°¾à°¦", "à°¾à°ª"], ["c", "re"], ["Ġà¤°à¤¾à¤ľà¥įà¤¯", "à¥ĭà¤Ĥ"], ["c", "ur"], ["c", "ul"], ["c", "ol"], ["c", "ation"], ["à²¾à²°", "à²¾à²ľ"], ["c", "ut"], ["c", "ies"], ["Ġà°ľà°°à±ģ", "à°ª"], ["c", "ot"], ["c", "ulture"], ["c", "lo"], ["c", "olog"], ["c", "ise"], ["c", "ked"], ["c", "ines"], ["c", "hedul"], ["Ġà°ľà°Ĥà°¬", "à±Ĥ"], ["à¤Ĥà¤¦", "à¥įà¤°"], ["c", "ake"], ["c", "laiming"], ["à²¾à²°", "à²¿à²ķà³Ĩ"], ["d", "a"], ["d", "en"], ["d", "and"], ["d", "as"], ["d", "ates"], ["Ġà°¨à°¾à°Ĺ", "à°°à°¿à°ķà°¤"], ["d", "hi"], ["d", "ef"], ["d", "minist"], ["e", "en"], ["e", "ed"], ["e", "es"], ["à³įà²°", "à³Ĩ"], ["e", "ing"], ["¬", "à¤Ĥà¤§"], ["Ġà°ĩà°¸à±įà°²", "à°¾à°®à°¾à°¬à°¾à°¦à±į"], ["e", "ur"], ["e", "um"], ["e", "ud"], ["e", "ans"], ["e", "av"], ["e", "ep"], ["e", "ace"], ["Ġà°¤à±Ĩà°²à±ģ", "à°Ĺà±ģ"], ["e", "dieval"], ["e", "king"], ["f", "en"], ["f", "ul"], ["à²³", "à²¿à²ķà³Ĩ"], ["f", "ts"], ["f", "ive"], ["à¤", "ģ"], ["f", "ted"], ["Ġà°¬à°Ĥà°Ĺà±įà°²", "à°¾à°¦à±ĩà°¶"], ["f", "all"], ["f", "ord"], ["f", "ess"], ["f", "ices"], ["f", "oli"], ["f", "ety"], ["g", "er"], ["Ġà°¸à°Ĥà°¬à°Ĥà°", "§"], ["g", "ar"], ["g", "ic"], ["à²µ", "à²£"], ["g", "ation"], ["g", "ment"], ["g", "ence"], ["à¤", "¥"], ["g", "ust"], ["g", "raph"], ["g", "ative"], ["Ġà°¶à±Ĩà°²", "à°µà±ģ"], ["g", "eb"], ["g", "round"], ["g", "reg"], ["g", "ala"], ["g", "idly"], ["g", "ressive"], ["à²µ", "à²°à³ģ"], ["h", "l"], ["Ġà°¹à°¿à°®", "à°¾à°²"], ["h", "Ã"], ["h", "at"], ["h", "or"], ["Ġà¤", "Ľ"], ["h", "ic"], ["h", "ol"], ["h", "am"], ["h", "ab"], ["Ġà°²à±ĩà°¦", "à°¾"], ["h", "ich"], ["h", "ary"], ["h", "ous"], ["h", "ood"], ["à²µ", "à²¾à²¦"], ["h", "ata"], ["h", "yth"], ["h", "ili"], ["Ġà°®à±Ĭà°Łà±įà°Łà°®à±Ĭ", "à°¦à°Łà°¿"], ["h", "aps"], ["h", "gala"], ["i", "o"], ["à¤°", "à¤¿à¤ķ"], ["i", "and"], ["i", "ec"], ["i", "ver"], ["i", "ri"], ["Ġà°¸à°¾à°Ĥà°¸à±įà°ķà±ĥà°¤", "à°¿à°ķ"], ["i", "ation"], ["i", "ers"], ["Ġà²¸", "à²¿à²ĸà³į"], ["i", "hi"], ["i", "ence"], ["i", "vers"], ["i", "ens"], ["i", "ef"], ["Ġà°ķà±įà°¯à°¾à°²à±Ĩà°Ĥà°¡", "à°°à±į"], ["i", "atic"], ["i", "versity"], ["à¤¤", "à¥įà¤¯"], ["i", "ature"], ["j", "i"], ["j", "an"], ["j", "am"], ["j", "our"], ["Ġà²Ń", "à³Ĥà²"], ["Ġ", "="], ["j", "av"], ["j", "oin"], ["j", "ured"], ["k", "e"], ["k", "ent"], ["I", "A"], ["k", "ut"], ["k", "im"], ["k", "ies"], ["à¥įà¤°", "à¥Ģ"], ["k", "har"], ["k", "ata"], ["f", "ile"], ["k", "nown"], ["k", "ani"], ["k", "ara"], ["k", "irt"], ["k", "sha"], ["t", "ry"], ["l", "f"], ["Ġà²Ń", "à²°à²¤"], ["l", "in"], ["l", "on"], ["l", "er"], ["ķ", "à°°à°£"], ["l", "ar"], ["Ġà¤ķà¥ĩ", "à¤Ĥà¤¦à¥įà¤°"], ["l", "it"], ["l", "or"], ["l", "as"], ["¡", "à±ģ"], ["l", "il"], ["l", "ast"], ["l", "ad"], ["l", "ig"], ["l", "ac"], ["¢", "à°¾à°ķ"], ["à³įà²¯", "à²Ĥà²¤"], ["l", "ated"], ["l", "igh"], ["l", "iter"], ["l", "ected"], ["l", "ped"], ["¥", "à°¾à°²à±ģ"], ["à¤²", "à¥ĩ"], ["l", "ating"], ["l", "aving"], ["l", "aced"], ["l", "aps"], ["m", "m"], ["¥", "à±įà°¯à°Ĥ"], ["m", "o"], ["m", "an"], ["à³įà²¯", "à³Ĥ"], ["m", "en"], ["m", "ic"], ["§", "à°Ĥ"], ["m", "ast"], ["m", "un"], ["m", "op"], ["m", "rit"], ["m", "od"], ["Ġà¤²", "à¤¿à¤ı"], ["§", "à°°"], ["m", "ass"], ["m", "illion"], ["m", "illennium"], ["m", "Äģ"], ["m", "ost"], ["à³įà²¯", "à²µà²¨à³įà²¨à³ģ"], ["Ń", "à°µ"], ["m", "etic"], ["m", "ense"], ["m", "ada"], ["m", "onds"], ["n", "a"], ["®", "à°¾à°¨"], ["n", "er"], ["n", "at"], ["n", "as"], ["Ġà¤¸à¤®", "à¤¯"], ["n", "ut"], ["n", "ast"], ["²", "à±ģà°µ"], ["n", "ial"], ["n", "ers"], ["Ġà²ª", "à²°à³įà²"], ["n", "ions"], ["n", "ot"], ["·", "à°¯à°¾à°²à±ģ"], ["n", "ine"], ["n", "ational"], ["n", "ai"], ["n", "cre"], ["o", "v"], ["¸", "à±Ģ"], ["o", "x"], ["o", "at"], ["Ġà¤ħà¤¨", "à¥įà¤¯"], ["o", "ist"], ["o", "et"], ["o", "ast"], ["Ġà²ª", "à²¡"], ["à°", "Ĩ"], ["o", "og"], ["o", "oth"], ["o", "als"], ["o", "dic"], ["o", "ice"], ["à°", "ĺ"], ["o", "fficial"], ["p", "r"], ["p", "re"], ["p", "ar"], ["à°", "¢à°¿à°²à±įà°²à±Ģ"], ["p", "ast"], ["Ġà¤ħà¤¨", "à¥ģà¤¸"], ["p", "ure"], ["Ġà²ª", "à²¡à³Ĩ"], ["p", "li"], ["p", "ire"], ["p", "ect"], ["Ġà°", "ĵ"], ["p", "ics"], ["p", "ower"], ["p", "ren"], ["p", "ared"], ["p", "ost"], ["Ġà°", "¥"], ["p", "osed"], ["p", "anding"], ["p", "resent"], ["p", "resident"], ["Ġà²ª", "à²°à²¿à²¸"], ["à¤¾à¤ª", "à¥įà¤¤"], ["p", "ressed"], ["Ġà°", "§à°°"], ["p", "osition"], ["r", "ion"], ["r", "il"], ["r", "ul"], ["à°¾à°", "¥"], ["r", "uc"], ["r", "ich"], ["r", "um"], ["r", "ance"], ["r", "ish"], ["à°¾à°", "«"], ["r", "ince"], ["r", "ata"], ["à³įà²¤", "à³įâĢĮ"], ["r", "ating"], ["r", "oup"], ["Ġà¤¹à¤¿à¤¨à¥įà¤¦", "à¥Ģ"], ["r", "aries"], ["à°¾à°", "·"], ["r", "une"], ["r", "anged"], ["r", "gar"], ["s", "ar"], ["s", "es"], ["à°¿", "à°Ĥ"], ["s", "ing"], ["s", "id"], ["s", "ive"], ["s", "ions"], ["à³įà²²", "à³įà²¡"], ["s", "ia"], ["à°¿", "à°Ĥà°Ĺ"], ["s", "ine"], ["s", "uch"], ["Ġà¤¥", "à¥Ģ"], ["s", "ite"], ["s", "cri"], ["à±ģ", "à°®"], ["s", "ue"], ["s", "oli"], ["s", "hip"], ["s", "kirt"], ["t", "o"], ["à±ģ", "à°Ĺ"], ["t", "an"], ["t", "es"], ["à³ĩ", "à²Ł"], ["t", "as"], ["t", "ly"], ["t", "ra"], ["à±ģ", "à°¨à±ģ"], ["t", "ation"], ["Ġà¤ªà¥įà¤°à¤®", "à¥ģà¤ĸ"], ["t", "ro"], ["t", "ment"], ["t", "ies"], ["t", "ial"], ["à±ģ", "à°ĸà±įà°¯"], ["t", "ally"], ["t", "ection"], ["t", "ains"], ["t", "heast"], ["Ġà²¹", "à³Ģ"], ["à±ģ", "à°Ĺà±ģ"], ["t", "ances"], ["t", "reated"], ["t", "ropical"], ["t", "ivity"], ["t", "ling"], ["à¥", "Ń"], ["à°Ĥà°", "ľ"], ["u", "x"], ["u", "di"], ["u", "th"], ["u", "et"], ["u", "ment"], ["à°¤", "à°¾"], ["u", "ff"], ["Ġà²¹", "à²Ĥà²ļ"], ["u", "istic"], ["u", "gu"], ["u", "aries"], ["u", "kh"], ["à°¤", "à±Ģ"], ["u", "idel"], ["u", "gust"], ["v", "is"], ["à¥ĩ", "à¤Ł"], ["v", "ation"], ["v", "ir"], ["à°¤", "à°¨à±ģ"], ["v", "ate"], ["v", "ial"], ["v", "ant"], ["à²¸", "à³į"], ["v", "all"], ["à°¤", "à°¾à°°à±ģ"], ["v", "eng"], ["v", "ations"], ["v", "als"], ["v", "ati"], ["v", "ances"], ["à°¤", "à°¿à°¨à°¿"], ["v", "ail"], ["à¥Ģ", "à¤ª"], ["v", "ara"], ["w", "ent"], ["w", "ith"], ["w", "ere"], ["à°¨", "à±įâĢĮ"], ["w", "ide"], ["à²¸", "à³ģ"], ["w", "ard"], ["w", "ice"], ["w", "ati"], ["w", "here"], ["à°¨", "à°¦à°¿"], ["w", "eri"], ["w", "ala"], ["w", "string"], ["w", "hich"], ["Ġà¤®", "à¤¿à¤²"], ["à°¨", "à°¿à°ľ"], ["x", "ic"], ["x", "isting"], ["x", "ford"], ["y", "i"], ["à²¸", "à³įà²°"], ["y", "Ä"], ["à°¨", "à°¾à°¥"], ["y", "st"], ["y", "ed"], ["y", "am"], ["y", "der"], ["y", "ond"], ["à°²", "à°¿"], ["y", "Äģ"], ["y", "pical"], ["à¤¹", "à¥Ģà¤Ĥ"], ["y", "jam"], ["y", "lon"], ["z", "adi"], ["à°²", "à±ĩ"], ["ħ", "ga"], ["à²¸", "à³ģà²µ"], ["Ĭ", "ËĪ"], ["Į", "Ï"], ["ĸ", "n"], ["à°²", "à°ķ"], ["Ļ", "t"], ["ļ", "ul"], ["¢", "l"], ["£", "á¹"], ["¦", "É"], ["à°²", "à±Ģ"], ["Ġà¤¦", "à¥įà¤µ"], ["ª", "nd"], ["«", "tr"], ["Ń", "Äģ"], ["¯", "Î"], ["à²²à³įà²²", "à²¿à²°à³ģà²µ"], ["±", "aËĲ"], ["à°²", "à°¯"], ["¾", "É"], ["Ã", "¡"], ["Ã", "Ń"], ["Å", "«tr"], ["É", "¦É"], ["à°²", "à°¸"], ["É", "¾É"], ["Ê", "ĬËĪ"], ["Î", "¯Î"], ["Ġà¤ļ", "à¥ģà¤¨"], ["Ï", "ĮÏ"], ["Ġt", "re"], ["à°²", "à°ķà±ģ"], ["Ġt", "al"], ["Ġà²ķ", "à²¾à²²"], ["Ġt", "ri"], ["Ġt", "uc"], ["Ġt", "ies"], ["à°²", "à±įâĢĮ"], ["Ġt", "ang"], ["Ġt", "reat"], ["Ġt", "ect"], ["Ġt", "rough"], ["Ġt", "ied"], ["à°²", "à°¾à°¹"], ["Ġt", "ons"], ["Ġà¤¸à¤Ĥà¤", "ĺ"], ["Ġt", "abl"], ["Ġt", "ight"], ["Ġà²ķ", "à³ĥà²·"], ["Ġt", "eak"], ["Ġt", "rial"], ["à°²", "à°Ĥà°ķ"], ["Ġt", "ala"], ["Ġt", "ypically"], ["Ġt", "iger"], ["Ġt", "rigonomet"], ["Ġt", "augh"], ["à°°", "à°µ"], ["Ġt", "wice"], ["Ġt", "ypical"], ["an", "di"], ["an", "ar"], ["§", "à¤¾à¤¨"], ["à°°", "à°²à±ĭ"], ["an", "am"], ["Ġà²ķ", "à³Ĭà²³à³įà²³"], ["an", "im"], ["an", "ct"], ["an", "istan"], ["an", "cy"], ["à°°", "à°¾à°ľ"], ["an", "ced"], ["an", "ks"], ["an", "ied"], ["an", "ked"], ["an", "ning"], ["à±ĩ", "à°°"], ["an", "ada"], ["an", "cing"], ["Ġà¤", "ĸ"], ["an", "cake"], ["Ġà²ķ", "à³ģà²°à³ģ"], ["an", "jav"], ["an", "mo"], ["à±ĩ", "à°ķ"], ["an", "weri"], ["he", "ther"], ["he", "wing"], ["in", "i"], ["in", "al"], ["Ġà°ª", "à°µ"], ["in", "et"], ["in", "ate"], ["in", "ations"], ["à¥ĭ", "à¤ķ"], ["in", "ite"], ["Ġà°ª", "à°²à±ģ"], ["in", "ade"], ["Ġà²ķ", "à²°à³Ĩà²¯"], ["in", "ks"], ["in", "cial"], ["in", "aries"], ["in", "dhi"], ["Ġà°ª", "à±įà°²"], ["in", "fall"], ["Ġthe", "ore"], ["Ġthe", "ory"], ["on", "our"], ["on", "ia"], ["Ġà°ª", "à°ķà±įà°ķ"], ["on", "isation"], ["Ġà¤ª", "à¤¾à¤ķ"], ["on", "ists"], ["on", "mental"], ["Ġà²ķ", "à²Ĥà²ª"], ["on", "kani"], ["on", "tally"], ["Ġà°ª", "à°°à±įà°µ"], ["on", "yi"], ["er", "o"], ["er", "ia"], ["er", "ations"], ["Ġà°ª", "à°²à±įà°²"], ["er", "ves"], ["er", "vative"], ["er", "ences"], ["re", "st"], ["à¤¸", "à¥Ģ"], ["re", "ed"], ["ĠI", "SBN"], ["re", "ly"], ["à²ķ", "à³įà²°"], ["re", "ate"], ["re", "hen"], ["re", "land"], ["re", "mental"], ["à±ĭ", "à°¤"], ["re", "lated"], ["re", "pren"], ["Ġa", "di"], ["Ġa", "ro"], ["Ġa", "ch"], ["à±ĭ", "à°¨"], ["à¥Ī", "à¤¦"], ["Ġa", "ct"], ["Ġa", "mb"], ["à²ķ", "à³ĭà²Ł"], ["Ġa", "head"], ["Ġa", "string"], ["à±ĭ", "à°²"], ["Ġa", "uth"], ["Ġa", "veng"], ["Ġo", "ro"], ["Ġo", "per"], ["Ġo", "ven"], ["à±ĭ", "à°°à±į"], ["Ġo", "cean"], ["en", "di"], ["en", "istic"], ["à¤®", "à¥įà¤"], ["en", "nial"], ["st", "er"], ["à±ĭ", "à°¯à°¿à°Ĥà°¦à°¿"], ["à²ķ", "à³Ģà²¯"], ["st", "ed"], ["st", "ing"], ["st", "ment"], ["st", "ead"], ["st", "ream"], ["à±įà°°", "à°¤à±Ģ"], ["st", "aËĲ"], ["al", "o"], ["al", "am"], ["al", "ite"], ["al", "ised"], ["à°¾à°°", "à°¾à°²"], ["Ġà¤ħ", "à¤®"], ["al", "ue"], ["al", "ms"], ["Ġà²µ", "à²¿à²Ĥà²"], ["al", "cut"], ["al", "nut"], ["à°¾à°°", "à±įà°¤"], ["di", "al"], ["di", "ers"], ["di", "ves"], ["di", "vas"], ["di", "sha"], ["à°¾à°°", "à°¿à°Ĺà°¾"], ["di", "tation"], ["at", "en"], ["at", "ar"], ["Ġà¤ħ", "à¤²"], ["at", "or"], ["at", "is"], ["à°ķ", "à±įà°¯"], ["Ġà²µ", "à²¿à²µ"], ["at", "ur"], ["at", "ist"], ["at", "ical"], ["at", "ab"], ["at", "ers"], ["à°ķ", "à±Ĥ"], ["at", "ant"], ["at", "ics"], ["at", "hem"], ["at", "hes"], ["Ġà¤¨", "à¥įà¤¯"], ["à°ķ", "à°¾à°¤"], ["at", "han"], ["at", "pur"], ["at", "riya"], ["Ġà²µ", "à³Ĩà²²"], ["Ġc", "as"], ["Ġc", "ra"], ["à°ķ", "à±Ĭ"], ["Ġc", "ig"], ["Ġc", "res"], ["Ġc", "ab"], ["Ġc", "um"], ["Ġc", "li"], ["à°ķ", "à±ĩà°¤"], ["Ġc", "all"], ["Ġc", "row"], ["Ġc", "ited"], ["Ġà¤¬", "à¥Ģ"], ["Ġc", "ard"], ["Ġc", "roc"], ["Ġà²µ", "à²°à³Ĩà²Ĺà³Ĩ"], ["à±Ģ", "à°²à±ĭ"], ["Ġc", "amp"], ["Ġc", "ricket"], ["Ġc", "ropp"], ["Ġc", "ake"], ["Ġc", "aval"], ["à±Ģ", "à°ķà±įà°·"], ["Ġc", "uff"], ["Ġc", "reate"], ["ĠI", "T"], ["ĠI", "ran"], ["à°¦", "à±įà°°"], ["ĠI", "dent"], ["Ġà¤¦", "à¤¶"], ["ĠI", "UCN"], ["ĠI", "reland"], ["Ġà²µ", "à²¾à²£"], ["and", "mast"], ["ed", "a"], ["à°¦", "à±ģà°²à±ģ"], ["ed", "als"], ["ed", "abad"], ["ar", "p"], ["ar", "t"], ["ar", "an"], ["à°¦", "à°Ĺà°¾"], ["ar", "ri"], ["ar", "ter"], ["à¤¿à¤¯", "à¥ĩ"], ["ar", "ated"], ["ar", "hi"], ["Ġ1", "00"], ["ar", "ian"], ["ar", "les"], ["à°¦", "à°¾à°µ"], ["ar", "ting"], ["ar", "sh"], ["ar", "Äģ"], ["ar", "ati"], ["ar", "la"], ["Ġà°¸", "à°¿à°ķ"], ["ar", "sha"], ["ar", "ba"], ["ar", "app"], ["à¤¶", "à¥įà¤ļ"], ["ar", "bans"], ["à²Ĺà²³", "à²¿à²Ĥà²¦"], ["ar", "cation"], ["Ġà°¸", "à±įà°¤"], ["ar", "ji"], ["ar", "mada"], ["it", "s"], ["it", "ar"], ["Ġà°¸", "à±ģà°ª"], ["it", "ter"], ["it", "ated"], ["it", "ous"], ["it", "age"], ["it", "ual"], ["Ġà°¸", "à°¿à°¦à±įà°"], ["it", "tle"], ["Ġà¤²", "à¤Ĺ"], ["it", "ime"], ["à²Ĺà²³", "à²¿à²Ĺà³Ĩ"], ["it", "ched"], ["it", "och"], ["ĠIn", "dust"], ["Ġà°ķ", "à°°"], ["ĠIn", "tell"], ["ĠIn", "stead"], ["Ġw", "il"], ["Ġw", "ra"], ["Ġw", "ill"], ["Ġà°ķ", "à°²à±ģ"], ["Ġw", "age"], ["Ġw", "ai"], ["à¤§", "à¥įà¤¯"], ["Ġw", "ood"], ["Ġw", "alled"], ["à²¯", "à³ĭà²Ĺ"], ["Ġà°ķ", "à°¨à±ģ"], ["Ġw", "anted"], ["Ġw", "here"], ["Ġw", "edd"], ["Ġw", "idespread"], ["Ġw", "aters"], ["Ġà°ķ", "à±ĥ"], ["Ġin", "ve"], ["Ġin", "dic"], ["Ġin", "ternal"], ["Ġin", "val"], ["Ġin", "vention"], ["Ġà°ķ", "à°³"], ["Ġà¤ķà¤°", "à¤¨à¥ĩ"], ["Ġin", "sur"], ["Ġin", "vasive"], ["Ġà²¬", "à²²"], ["Ġin", "scri"], ["Ġs", "al"], ["Ġs", "ol"], ["Ġà°ķ", "à°¿à°²à±ĭ"], ["Ġs", "us"], ["Ġs", "em"], ["Ġs", "her"], ["Ġs", "ac"], ["Ġs", "por"], ["Ġà°ķ", "à°¬à°¡"], ["Ġs", "ame"], ["Ġs", "ap"], ["à¤¿à¤¸", "à¥įà¤¤à¤¾à¤¨"], ["Ġs", "ine"], ["Ġs", "ide"], ["Ġà²¬", "à²¹"], ["Ġà°ķ", "à°¾à°ª"], ["Ġs", "ust"], ["Ġs", "lowing"], ["Ġs", "port"], ["Ġs", "outheast"], ["Ġs", "ales"], ["Ġà°ķ", "à°¨à±ģà°ķ"], ["Ġs", "ung"], ["Ġs", "ources"], ["Ġs", "lid"], ["Ġs", "andy"], ["Ġà¤¦à¥ĩà¤¶", "à¥ĭà¤Ĥ"], ["Ġs", "idel"], ["Ġà°ķ", "à°Ĥà°Łà±ĩ"], ["Ġs", "ought"], ["à³ĭ", "à²²"], ["Ġs", "anct"], ["Ġs", "itar"], ["Ġb", "es"], ["Ġb", "ur"], ["à±ĩà°", "ļ"], ["Ġb", "ig"], ["Ġb", "ak"], ["Ġb", "ust"], ["Ġb", "lowing"], ["à±ĩà°", "®"], ["Ġb", "ird"], ["Ġb", "odi"], ["Ġà¤°à¤¹", "à¤¾"], ["Ġb", "acks"], ["Ġb", "itter"], ["à³ĭ", "à²³"], ["or", "ad"], ["Ġà°µ", "à°¾à°¯"], ["or", "ig"], ["or", "ter"], ["or", "ism"], ["or", "ally"], ["or", "ities"], ["Ġà°µ", "à°¾à°Ł"], ["or", "iz"], ["or", "arji"], ["ion", "ed"], ["ion", "als"], ["Ġà¤¸à¤Ĥ", "à¤¸à¥įà¤ķà¥ĥà¤¤"], ["Ġp", "ow"], ["Ġà°µ", "à±Ĩà°²"], ["Ġp", "ac"], ["Ġà²ħ", "à²¤à³įà²¯"], ["Ġp", "ill"], ["Ġp", "ay"], ["Ġp", "iv"], ["Ġà°µ", "à°¾à°¹"], ["Ġp", "av"], ["Ġp", "ap"], ["Ġp", "ree"], ["Ġp", "ron"], ["Ġp", "ost"], ["Ġà°µ", "à±ĩà°¦"], ["Ġp", "oss"], ["Ġp", "ran"], ["à¤¶à¥įà¤ļ", "à¤¿à¤®"], ["Ġp", "oul"], ["Ġp", "anch"], ["à²¿à²¯", "à²¨à³ĩ"], ["Ġp", "aid"], ["Ġà°µ", "à±ĩà°²"], ["Ġp", "iec"], ["Ġp", "oet"], ["Ġp", "rince"], ["Ġp", "yjam"], ["Ġp", "ancake"], ["à±įà°¯", "à°¾à°²à±ģ"], ["es", "i"], ["es", "ans"], ["es", "erves"], ["¡", "à¤¼"], ["Ġm", "ing"], ["Ġm", "ent"], ["à±įà°¯", "à°®à±Īà°¨"], ["Ġm", "ud"], ["à²®", "à²¨"], ["Ġm", "oun"], ["Ġm", "el"], ["Ġm", "ant"], ["à°®", "à°²à±ģ"], ["Ġm", "ass"], ["Ġm", "ust"], ["Ġm", "ort"], ["Ġm", "ight"], ["Ġm", "iss"], ["à°®", "à°¹"], ["µ", "à¤¿à¤"], ["Ġm", "eter"], ["Ġm", "yst"], ["Ġm", "alnut"], ["Ġm", "edals"], ["à²®", "à²Ĥà²¤"], ["Ġm", "orally"], ["à°®", "à°¤à°¿"], ["Ġf", "ul"], ["Ġf", "le"], ["Ġf", "ut"], ["Ġf", "un"], ["Ġf", "oc"], ["à°®", "à±Ģà°Ł"], ["Ġf", "oun"], ["à¥įà¤", "¹"], ["Ġf", "end"], ["Ġf", "el"], ["Ġf", "ire"], ["à°®", "à°¿à°Ĥà°ļà°¬à°¡"], ["Ġf", "ine"], ["Ġf", "ew"], ["à²Ĥà²¦", "à²ķà³įà²ķà³Ĩ"], ["Ġf", "ree"], ["Ġf", "ell"], ["Ġf", "lowing"], ["Ġà°®", "à°¾à°Ł"], ["Ġf", "ix"], ["Ġf", "oss"], ["Ġf", "ie"], ["Ġà¤ķ", "à¤Ī"], ["Ġf", "ables"], ["Ġf", "aith"], ["Ġà°®", "à°°à±ĭ"], ["Ġf", "ires"], ["Ġf", "illed"], ["Ġf", "ought"], ["à²¿à²Ĥà²", "¤"], ["Ġf", "eud"], ["Ġf", "inal"], ["Ġà°®", "à°²à°¯"], ["Ġf", "reed"], ["ic", "ed"], ["ic", "us"], ["ic", "tion"], ["à¥Ģ", "à¤µ"], ["ic", "ide"], ["Ġà°Ń", "à°ķà±įà°¤"], ["ic", "ially"], ["ic", "hes"], ["is", "i"], ["is", "is"], ["à°µ", "à°¾à°°"], ["is", "ak"], ["Ġà²¨", "à²¦"], ["is", "ks"], ["is", "ively"], ["ing", "a"], ["ing", "er"], ["à°µ", "à°¹"], ["ing", "ual"], ["à¤¤", "à¤Ĥà¤¤à¥įà¤°"], ["as", "a"], ["as", "is"], ["as", "ing"], ["as", "ants"], ["à°µ", "à±ģà°²à±ģ"], ["as", "cent"], ["as", "ured"], ["as", "aras"], ["Ġà²¨", "à³Ĩà²¯"], ["as", "lil"], ["ent", "h"], ["à°µ", "à°Ĥà°¤"], ["ent", "s"], ["ent", "al"], ["Ġà¤¸", "à¤¹"], ["ent", "ed"], ["ent", "ry"], ["à°µ", "à°°à±įà°¤"], ["ent", "red"], ["ent", "ments"], ["ent", "ils"], ["Ġl", "ist"], ["Ġl", "op"], ["à°µ", "à°°à°¿"], ["Ġl", "ear"], ["Ġà²¨", "à³įà²¯à³Ĥ"], ["Ġl", "ine"], ["Ġl", "ately"], ["Ġl", "ost"], ["Ġà¤®", "à¤§à¥įà¤¯"], ["Ġl", "ines"], ["à°µ", "à±įà°¯à°µà°¸à±įà°¥"], ["Ġl", "ack"], ["Ġl", "ived"], ["Ġl", "ie"], ["Ġl", "iqu"], ["Ġl", "ying"], ["à°µ", "à±ģà°¤à±ģà°Ĥà°¦à°¿"], ["Ġl", "osing"], ["Ġl", "ux"], ["Ġl", "inks"], ["Ġà²°", "à³Ĥà²"], ["Ġl", "ittle"], ["à±ĩà°¶", "à±Ģ"], ["Ġl", "entils"], ["à¤¾à¤°", "à¤¾"], ["om", "o"], ["om", "an"], ["om", "es"], ["om", "ot"], ["à±ĩà°¶", "à°¾à°ĸ"], ["om", "mend"], ["om", "adic"], ["om", "mod"], ["om", "erations"], ["Ġe", "le"], ["à°¿à°ķ", "à±į"], ["Ġe", "igh"], ["à²¿à²¸", "à²¿"], ["Ġe", "ty"], ["Ġà¤ħ", "à¤Ĥà¤Ĺà¥įà¤°à¥ĩ"], ["Ġe", "mit"], ["Ġe", "ach"], ["Ġe", "pic"], ["à°¿à°ķ", "à°²à±ģ"], ["Ġe", "vidence"], ["Ġe", "colog"], ["Ġe", "pics"], ["Ġe", "aten"], ["ou", "red"], ["à°¿à°ķ", "à±įâĢĮ"], ["ou", "bled"], ["Ġto", "ad"], ["à²¿à²¸", "à²¿à²¤à³ģ"], ["Ġto", "wards"], ["Ġà¤ľ", "à¤¿à¤¨"], ["Ġto", "ler"], ["à±Ĩ", "à°¡"], ["ly", "ing"], ["ly", "mp"], ["ly", "wo"], ["Ġh", "am"], ["Ġh", "oc"], ["à±Ĩ", "à°¨à±įà°¨"], ["Ġh", "our"], ["Ġh", "ome"], ["Ġh", "ood"], ["Ġh", "und"], ["Ġh", "old"], ["à±Ĩ", "à°ķà±įà°ķ"], ["à²¿à²¸", "à²¿à²µà³Ĩ"], ["Ġà¤¨", "à¤¹à¥Ģà¤Ĥ"], ["Ġh", "onour"], ["Ġh", "arsh"], ["Ġh", "oriz"], ["Ġh", "omes"], ["ĠT", "ra"], ["Ġà°°", "à°ļ"], ["ĠT", "ro"], ["ĠT", "ow"], ["ĠT", "el"], ["ĠT", "od"], ["Ġà°°", "à°¿à°Ł"], ["ĠT", "ap"], ["ĠT", "ech"], ["Ġà¤µ", "à¤¿à¤ķ"], ["ĠT", "ai"], ["à²¿à²¸", "à³ģà²¤à³įà²¤"], ["ĠT", "ash"], ["ĠT", "eth"], ["Ġà°°", "à°Ĥà°Ĺà°¾à°²"], ["ĠT", "iger"], ["ĠT", "rigonomet"], ["Ġd", "ur"], ["Ġd", "ol"], ["Ġd", "et"], ["Ġà°°", "à°ķà°¾à°²à±ģ"], ["Ġd", "ate"], ["Ġd", "ay"], ["Ġd", "el"], ["à¤¦", "à¥įà¤¯"], ["Ġd", "ress"], ["Ġd", "ates"], ["à°¡", "à±Īà°¨"], ["à²¿à²¤", "à³įà²¤à³ģ"], ["Ġd", "ens"], ["Ġd", "rough"], ["Ġd", "aw"], ["Ġd", "ai"], ["Ġd", "ining"], ["à°¡", "à°¾à°¨à°¿à°ķà°¿"], ["Ġd", "one"], ["Ġd", "eter"], ["Ġd", "ropp"], ["Ġd", "osa"], ["à°¡", "à±ģà°¤à±ģà°¨à±įà°¨"], ["Ġà¤ı", "à¤¶"], ["Ġd", "espite"], ["Ġd", "ancing"], ["Ġd", "oubled"], ["Ġà²Ńà²¾à²°à²¤à²¦", "à²²à³įà²²à²¿à²°à³ģà²µ"], ["ec", "ts"], ["ec", "og"], ["Ġà°ªà±įà°°", "à°¸"], ["ec", "ific"], ["ur", "t"], ["ur", "u"], ["ur", "ally"], ["ur", "iant"], ["Ġà°ªà±įà°°", "à°¯à±ĭ"], ["ur", "gence"], ["Ġà¤µà¤¿à¤", "¦"], ["ur", "sions"], ["Ġre", "ve"], ["Ġre", "port"], ["Ġre", "mit"], ["Ġà³", "Ń"], ["Ġre", "ach"], ["Ġre", "lied"], ["à°ª", "à°°"], ["Ġre", "ports"], ["Ġre", "ported"], ["Ġre", "ject"], ["Ġre", "organ"], ["Ġre", "hab"], ["à°ª", "à±Ī"], ["Ġà¤¯", "à¤¾"], ["Ġre", "alms"], ["Ġ1", "20"], ["Ġn", "oun"], ["Ġn", "ative"], ["Ġn", "aval"], ["Ġà³", "¯"], ["à°ª", "à±ģà°¤"], ["Ġn", "app"], ["Ġn", "ascent"], ["Ġn", "omadic"], ["Ġg", "ri"], ["à°ª", "à°¡à°¿à°¨"], ["Ġg", "ir"], ["Ġg", "ill"], ["Ġà¤ĩà¤¸", "à¤ķà¥ĩ"], ["Ġg", "ap"], ["Ġg", "har"], ["Ġg", "ives"], ["Ġà°Ńà°¾à°°à°¤", "à±įâĢĮ"], ["Ġg", "ross"], ["Ġg", "old"], ["Ġà²¦", "à³ĥ"], ["Ġg", "iant"], ["Ġg", "lac"], ["Ġg", "oals"], ["Ġà°ħ", "à°¨à±įà°¨"], ["Ġg", "uidel"], ["Ġg", "inger"], ["Ġg", "entry"], ["à¤¾à¤¯", "à¤¾"], ["il", "ed"], ["il", "es"], ["Ġà°ħ", "à°§"], ["il", "ingual"], ["ĠA", "ver"], ["ĠA", "ry"], ["ĠA", "pp"], ["à²¿à²ķ", "à³ĥ"], ["Ġà°ħ", "à°£"], ["ĠA", "hm"], ["ĠA", "mar"], ["ĠA", "á¹"], ["ĠA", "tal"], ["ĠA", "tom"], ["Ġà°ħ", "à°Ĥà°Ł"], ["Ġà¤¹à¥ģà¤", "ı"], ["ĠA", "bout"], ["ĠA", "dminist"], ["ĠA", "mrit"], ["ĠA", "ugust"], ["ĠA", "zadi"], ["Ġà°ħ", "à°Ĥà°¤"], ["ĠA", "divas"], ["ul", "a"], ["à³Ģ", "à²·"], ["ul", "ly"], ["ul", "ation"], ["ul", "ated"], ["Ġà°ħ", "à°µà°¿"], ["ul", "ating"], ["Ġà¤¹à¥ĭ", "à¤¤à¤¾"], ["ul", "aic"], ["ul", "gation"], ["ul", "ner"], ["Ġà°ħ", "à°ªà±įà°ª"], ["ul", "sing"], ["ol", "ith"], ["ol", "ution"], ["ol", "ars"], ["ol", "ished"], ["à³Ģ", "à²¨à²¾"], ["Ġà°ħ", "à°®à±Ĩ"], ["ol", "ute"], ["ol", "ls"], ["ol", "kata"], ["Ġà¤ķà¤¾à¤°", "à¤£"], ["ol", "onisation"], ["ol", "orad"], ["Ġà°ħ", "à°ķà±įà°·à°°à°¾à°¸à±įà°¯à°¤"], ["ol", "lywo"], ["ri", "ed"], ["ri", "ver"], ["ri", "gh"], ["ri", "ff"], ["à±Ĥ", "à°®"], ["ri", "ved"], ["ri", "mary"], ["à³Ĩà²¯", "à²²à³įà²²à²¿"], ["ri", "fices"], ["ĠC", "am"], ["à¤¾à¤ļ", "à¥Ģà¤¨"], ["ĠC", "her"], ["à±Ĥ", "à°°à±įà°ª"], ["ĠC", "rit"], ["ĠC", "oun"], ["ĠC", "ap"], ["ĠC", "row"], ["ĠC", "hen"], ["ĠC", "ensus"], ["ĠC", "redi"], ["ĠC", "old"], ["ĠC", "uis"], ["à³Ĥà²", "¡"], ["ĠC", "IA"], ["ĠC", "oast"], ["Ġà¤¨à¤¿", "à¤°à¥įà¤®"], ["ĠC", "anada"], ["ĠC", "alcut"], ["ĠC", "entred"], ["ĠC", "olorad"], ["à°Ł", "à°¾"], ["ra", "y"], ["ra", "in"], ["ra", "ch"], ["ra", "dually"], ["ra", "des"], ["à°Ł", "à°¾à°¨à±į"], ["ra", "struc"], ["à³Ĥà²", "®à²¿"], ["ra", "cing"], ["Ġà¤Ī", "à¤¸"], ["ra", "cot"], ["ra", "its"], ["à°Ł", "à±Ģà°µ"], ["ĠB", "ut"], ["ĠB", "ab"], ["ĠB", "od"], ["ĠB", "oth"], ["ĠB", "ound"], ["à°¿à°¨", "à°¦à°¿"], ["ĠB", "ef"], ["ĠB", "ib"], ["ĠB", "has"], ["ĠB", "oulder"], ["Ġà²Ĩ", "à²¦"], ["Ġà¤ħà¤¨à¥ģà¤¸", "à¤¾à¤°"], ["ĠB", "edd"], ["à°¯", "à°¿à°¤"], ["ĠB", "ased"], ["ĠB", "akh"], ["ĠB", "BC"], ["ĠB", "rune"], ["ĠB", "ollywo"], ["am", "ic"], ["am", "om"], ["à°¾à°¨", "à±ģ"], ["am", "un"], ["am", "ong"], ["am", "anu"], ["Ġà¤ļà¥ģà¤¨", "à¤¾à¤µ"], ["am", "ese"], ["à²ª", "à²Łà³įà²Ł"], ["am", "tre"], ["à°¾à°¨", "à±Ģ"], ["ĠS", "et"], ["ĠS", "ang"], ["ĠS", "up"], ["ĠS", "oc"], ["ĠS", "ch"], ["à°¾à°¨", "à±įà°¯"], ["ĠS", "ign"], ["ĠS", "ince"], ["ĠS", "ange"], ["ĠS", "und"], ["Ġà¤ªà¤¾à¤ķ", "à¤¿à¤¸à¥įà¤¤à¤¾à¤¨"], ["à°°à±įà°", "Ĺ"], ["ĠS", "ports"], ["ĠS", "rin"], ["Ġà²ªà³įà²°", "à²¾à²ļà³Ģ"], ["ĠS", "anch"], ["ĠS", "indh"], ["ĠS", "chedul"], ["à°°à±įà°", "ļ"], ["ĠS", "Å«tr"], ["ĠS", "anam"], ["ĠS", "indhi"], ["ĠS", "onia"], ["ĠS", "atpur"], ["à°°à±įà°", "¶"], ["ve", "ill"], ["Ġà¤ħà¤Ĥà¤Ĺà¥įà¤°à¥ĩ", "à¤ľ"], ["ro", "id"], ["ro", "ach"], ["le", "y"], ["à²¹", "à³ģ"], ["le", "av"], ["à°°à±įà°", "¥à±įà°¯à°Ĥ"], ["le", "ph"], ["Ġis", "land"], ["ce", "pt"], ["ce", "ptions"], ["ut", "an"], ["Ġà°¦", "à°¾à°Ł"], ["ut", "ch"], ["ut", "ures"], ["à¥", "¬"], ["ut", "aries"], ["ist", "ance"], ["Ġà°¦", "à±Ģà°¨"], ["ist", "ics"], ["et", "Map"], ["à²¹", "à³įà²®"], ["Ġ2", "2"], ["Ġ2", "4"], ["Ġ2", "9"], ["us", "ic"], ["us", "sia"], ["ad", "u"], ["ad", "ur"], ["ad", "hav"], ["ad", "rup"], ["Ġà¤", "Ĭ"], ["ad", "vant"], ["à°Ĺ", "à±ģà°µ"], ["ad", "asis"], ["im", "s"], ["à²¿à²Ĺ", "à³įà²°à²¾à²"], ["im", "um"], ["im", "ha"], ["ig", "ence"], ["à°¨à±įà°¨", "à±Ģ"], ["ig", "ai"], ["ig", "ration"], ["ig", "arhi"], ["Ġth", "in"], ["à¤¾à¤", "§"], ["Ġth", "us"], ["à°¨à±įà°¨", "à±Ī"], ["Ġth", "ous"], ["Ġth", "icken"], ["est", "s"], ["Ġà²ľà²¨", "à²Ĺà²£"], ["est", "ed"], ["ow", "da"], ["Ġà°ī", "à°¤"], ["id", "ate"], ["id", "ge"], ["Ġ19", "20"], ["Ġ19", "01"], ["à¥įà¤", "ķ"], ["à°Ĥà°¦à°¿", "à°Ĥà°¦à°¿"], ["Ġ19", "21"], ["Ġ19", "11"], ["Ġ19", "28"], ["un", "touch"], ["ith", "ili"], ["Ġà°ľ", "à°²"], ["ith", "metic"], ["Ġfor", "ce"], ["Ġfor", "ces"], ["Ġfor", "ced"], ["Ġfor", "ays"], ["Ġà°ľ", "à°®à±įà°®"], ["Ġfor", "bade"], ["à¥Ģ", "à¤¤"], ["uc", "her"], ["Ġà²ªà²¾à²", "²"], ["uc", "ture"], ["Ġr", "un"], ["Ġr", "up"], ["à°¾à°¯", "à°Ĥà°²à±ĭ"], ["Ġr", "ough"], ["Ġr", "ound"], ["Ġr", "ite"], ["Ġr", "ice"], ["à°¾à°¯", "à±ģà°¤"], ["Ġr", "ising"], ["Ġr", "isen"], ["Ġà¤¸", "à¤¦"], ["Ġr", "ush"], ["Ġr", "hyth"], ["Ġr", "anks"], ["Ġà²ªà²¾à²", "¤à³įà²°"], ["à°¾à°¤", "à°¿"], ["Ġr", "itual"], ["Ġr", "iches"], ["Ġr", "isks"], ["ĠM", "ong"], ["ĠM", "ay"], ["à°¾à°¤", "à°Ĥ"], ["ĠM", "ult"], ["ĠM", "inist"], ["Ġà¤¸", "à¥Īà¤¨"], ["ĠM", "eh"], ["ĠM", "ach"], ["ĠM", "ani"], ["ĠM", "edic"], ["ĠM", "eas"], ["Ġà²¶", "à³ĩ"], ["à°¾à°¤", "à±Ģà°¯"], ["ĠM", "edieval"], ["ĠM", "anmo"], ["ĠM", "athem"], ["ĠM", "arri"], ["ĠM", "itoch"], ["à°¦à±ĩà°¶", "à°¾à°²à±ģ"], ["Ġà¤¹", "à¥Ģ"], ["ĠM", "orarji"], ["ĠM", "usic"], ["ĠM", "adhav"], ["ĠM", "igration"], ["Ġbe", "ac"], ["Ġà°¨", "à±ĩ"], ["Ġbe", "ars"], ["Ġbe", "yond"], ["Ġà²¶", "à²ķà³įà²¤à²¿à²¯"], ["ate", "gic"], ["Ġcon", "if"], ["Ġà°¨", "à±Ĩ"], ["Ġcon", "qu"], ["Ġcon", "dition"], ["Ġà¤¹", "à¤¾à¤²"], ["Ġcon", "sequent"], ["Ġcon", "stitutes"], ["tion", "ately"], ["Ġà°¨", "à°¿à°²"], ["op", "y"], ["op", "ped"], ["Ġas", "pect"], ["ĠP", "ain"], ["ĠP", "ud"], ["à³įà²¥", "à³Ĩà²¯à²¨à³įà²¨à³ģ"], ["Ġà°¨", "à°¿à°µ"], ["ĠP", "Äģ"], ["ĠP", "roc"], ["à¥įà¤°", "à¤¾à¤ľà¥įà¤¯"], ["ĠP", "ost"], ["ĠP", "ach"], ["ĠP", "ali"], ["Ġà°¨", "à±Ĩà°²"], ["ĠP", "ash"], ["ĠP", "anch"], ["ĠP", "yth"], ["ĠP", "ream"], ["ĠP", "andy"], ["Ġà°¨", "à°¿à°¡"], ["ĠP", "eace"], ["Ġà²ľà²¨à²¸à²Ĥà²ĸà³įà²¯", "à²¾"], ["ĠP", "hili"], ["à¥ģ", "à¤ķà¥įà¤¤"], ["ĠP", "rimary"], ["ĠP", "rades"], ["Ġà°¨", "à±Ĩà°¹"], ["ter", "m"], ["ter", "s"], ["ter", "y"], ["ter", "ed"], ["ter", "ies"], ["Ġà°¨", "à°¾à°¯à°ķ"], ["ter", "culture"], ["Ġwh", "ite"], ["Ġwh", "ile"], ["Ġwh", "ims"], ["à¤®", "à¤¾à¤¨"], ["Ġà²®à³ģ", "à²Ĥà²¦à²ķà³įà²ķà³Ĩ"], ["Ġst", "ill"], ["Ġà°¨", "à°¿à°ªà±ģ"], ["Ġst", "up"], ["Ġst", "age"], ["Ġst", "ress"], ["Ġst", "ory"], ["Ġst", "able"], ["Ġà°ļ", "à°µ"], ["Ġst", "ood"], ["Ġst", "eat"], ["Ġst", "ands"], ["Ġst", "amp"], ["Ġà°ļ", "à±Ĥà°¡"], ["Ġà¤ľ", "à¤²"], ["Ġst", "one"], ["Ġst", "ressed"], ["à²Łà³įà²Ł", "à³Ĩ"], ["Ġst", "ret"], ["Ġst", "arting"], ["Ġst", "itched"], ["Ġà°ļ", "à°¿à°°"], ["Ġst", "rain"], ["Ġst", "opped"], ["em", "a"], ["em", "s"], ["em", "por"], ["Ġà°ļ", "à°¦à°°"], ["em", "ber"], ["à¤°à¥įà¤", "ľ"], ["em", "ale"], ["Ġmo", "ved"], ["Ġmo", "ving"], ["à²·", "à³įà²¯"], ["Ġmo", "bility"], ["à±įà°µ", "à°¤à±įà°°"], ["ĠE", "mp"], ["ĠE", "duc"], ["ĠE", "igh"], ["ĠE", "ach"], ["ĠE", "mb"], ["à±įà°Ł", "à±ĭà°°"], ["ĠE", "sc"], ["à¤°à¥įà¤", "£"], ["ĠE", "pic"], ["ĠE", "vidence"], ["ĠE", "leph"], ["Ġà°ĩ", "à°Ĥà°¦"], ["rom", "os"], ["ain", "ed"], ["Ġ3", "50"], ["Ġit", "se"], ["Ġex", "ceed"], ["Ġex", "ogamy"], ["Ġà°ĩ", "à°ķà±įà°ķ"], ["Ġex", "cept"], ["ag", "ed"], ["à¤¿à¤¯", "à¤¾à¤ģ"], ["ag", "ing"], ["ag", "up"], ["ag", "os"], ["Ġà°ĩ", "à°Łà±Ģà°µ"], ["ag", "ore"], ["ag", "ari"], ["ag", "pur"], ["ag", "onists"], ["Ġà²Ī", "à²Ĺà²¿à²¨"], ["Ġdi", "vided"], ["à±įà°²", "à°²à±ĭ"], ["Ġdi", "clo"], ["Ġdi", "ox"], ["Ġan", "ti"], ["Ġà¤ªà¥įà¤°", "à¤¾à¤ļà¥Ģà¤¨"], ["her", "ing"], ["à±įà°²", "à°¾à°¡"], ["ĠG", "od"], ["ĠG", "overn"], ["ĠG", "old"], ["ĠG", "ov"], ["ĠG", "roup"], ["à±įà°²", "à°®à±Ĩ"], ["ĠG", "anweri"], ["Ġà²Ī", "à²¸à³įà²Łà³į"], ["ĠG", "arba"], ["ĠG", "radually"], ["ĠG", "owda"], ["Ġà¤Ĩ", "à¤§"], ["der", "ing"], ["à°Ĥà°¡", "à°¾"], ["der", "ately"], ["der", "ived"], ["ab", "led"], ["ab", "oration"], ["ab", "hata"], ["à°¿à°Ĥà°ļ", "à°¾à°°à±ģ"], ["ac", "es"], ["ac", "ity"], ["ac", "tional"], ["Ġà²Ĺ", "à²³"], ["ac", "cines"], ["Ġà¤²", "à¥ĭà¤ķ"], ["à°¿à°Ĥà°ļ", "à±ģà°ķà±ĭà°µ"], ["se", "lect"], ["Ġor", "al"], ["Ġor", "der"], ["Ġor", "ders"], ["ĠD", "og"], ["à°¸à±įà°", "µà°¤"], ["ĠD", "ire"], ["ĠD", "omin"], ["ĠD", "eter"], ["ĠD", "omestic"], ["ĠD", "espite"], ["à°¸à±įà°", "Łà±į"], ["Ġà¤ı", "à¤µ"], ["ĠD", "NA"], ["Ġà²ļ", "à³Ģà²¨à²¾"], ["ĠD", "hol"], ["ĠD", "onyi"], ["ĠD", "iction"], ["gh", "anistan"], ["à°ķà±ģ", "à°²à±ģ"], ["ĠH", "ell"], ["ĠH", "yder"], ["ĠH", "arapp"], ["ĠH", "omo"], ["Ġon", "wards"], ["Ġà°Ĩ", "à°¨"], ["ill", "ing"], ["Ġà¤ķà¤°", "à¥ĭà¤¡à¤¼"], ["ĠN", "o"], ["ĠN", "ot"], ["Ġà²Ĵ", "à²Ĥà²¦à³ģ"], ["ĠN", "av"], ["Ġà°Ĩ", "à°µ"], ["ĠN", "ations"], ["ĠN", "ains"], ["ĠN", "ax"], ["ĠN", "aren"], ["ĠN", "oted"], ["Ġà°Ĩ", "à°Ĺ"], ["ĠN", "atak"], ["ĠN", "aras"], ["à¤Ĥà¤¤à¥įà¤°", "à¥Ģ"], ["ĠN", "atar"], ["ĠN", "armada"], ["ĠN", "adu"], ["Ġà°Ĩ", "à°¸"], ["ĠN", "agpur"], ["Ġà²¹à³Ĭà²Ĥà²¦", "à²¿à²°à³ģà²µ"], ["ay", "alam"], ["up", "ati"], ["Ġar", "c"], ["Ġar", "ranged"], ["à°¾à°Ĥ", "à°¬"], ["Ġar", "rived"], ["Ġar", "ray"], ["Ġà¤¸à¤Ĥ", "à¤¸"], ["Ġar", "ithmetic"], ["Ġar", "teries"], ["à°¾à°Ĥ", "à°¤à°°"], ["Ġun", "con"], ["Ġun", "if"], ["Ġun", "wan"], ["Ġun", "dis"], ["Ġà²¹à³Ĭà²Ĥà²¦", "à²¿à²¦à³įà²¦à³ģ"], ["Ġun", "iqu"], ["Ġà°¦à±ĩà°¶", "à°ªà±ģ"], ["Ġun", "eas"], ["Ġun", "ivers"], ["Ġun", "lin"], ["Ġà¤Ńà¤¾à¤·", "à¤¾à¤ĵà¤Ĥ"], ["Ġun", "pre"], ["Ġun", "anim"], ["Ġà°¤", "à°°à±įà°µ"], ["Ġun", "rest"], ["Ġun", "leav"], ["ud", "ra"], ["ud", "aism"], ["con", "tent"], ["Ġà°¤", "à°¤à±įà°µ"], ["Ġare", "nas"], ["à²§", "à²¿à²ª"], ["Ġpar", "ity"], ["Ġpar", "ks"], ["Ġpar", "alle"], ["Ġà¤¸à¤¾à¤®", "à¥įà¤°à¤¾à¤ľà¥įà¤¯"], ["Ġ20", "30"], ["Ġà°¤", "à±Ĥà°°à±įà°ª"], ["Ġ(", "'"], ["Ġ(", "["], ["ak", "er"], ["ak", "ti"], ["à°£", "à±ģà°²à±ģ"], ["ak", "ening"], ["rit", "i"], ["rit", "ion"], ["à²Ń", "à³Ĥà²®à²¿"], ["rit", "ory"], ["oc", "k"], ["Ġà¤¦à¥ĩ", "à¤ĸ"], ["à°¿à°¤", "à±įà°µ"], ["oc", "al"], ["Ġinc", "lus"], ["Ġinc", "remental"], ["li", "an"], ["li", "er"], ["Ġà°Ĺ", "à°¤"], ["li", "ved"], ["li", "ograph"], ["li", "hood"], ["Ġal", "lowing"], ["Ġal", "lu"], ["Ġà°Ĺ", "à°Ĥà°Ĺ"], ["Ġà¤Ńà¥Ĥ", "à¤®"], ["à²Ĥà²¤à³įà²°", "à²ľ"], ["Ġal", "tern"], ["Ġal", "lows"], ["Ġal", "geb"], ["Ġal", "monds"], ["Ġà°Ĺ", "à±Ĩà°²à±ģ"], ["Ġcom", "mission"], ["Ġcom", "bined"], ["Ġcom", "mun"], ["du", "e"], ["du", "al"], ["Ġà°Ĺ", "à°®à°¨"], ["oun", "ced"], ["Ġà¤¨à¥įà¤¯", "à¤¾à¤¯"], ["oun", "ger"], ["Ġv", "ulture"], ["à³¦à³¦", "à³¦"], ["Ġv", "ice"], ["Ġv", "alue"], ["à°ļ", "à±ģà°ķà±ĭà°µ"], ["Ġv", "ulner"], ["Ġv", "accines"], ["end", "ed"], ["end", "ing"], ["el", "ected"], ["à°Ń", "à°°à°¤"], ["el", "agos"], ["iv", "asa"], ["Ġà¤¦à¤¶", "à¤ķ"], ["Ġde", "al"], ["Ġde", "ep"], ["à°Ń", "à°¾à°Ĺà°Ĥ"], ["Ġde", "fore"], ["à³¦à³¦", "à³¯"], ["Ġde", "ath"], ["Ġde", "bate"], ["Ġde", "position"], ["Ġde", "ems"], ["à°Ń", "à°¾à°·"], ["ch", "ing"], ["ch", "ived"], ["ch", "asing"], ["por", "ter"], ["µà¤¿à¤", "§à¤¾à¤¨"], ["por", "tional"], ["por", "tionately"], ["Ġwor", "k"], ["à°Ń", "à±Ĥà°®"], ["Ġwor", "king"], ["Ġwor", "ship"], ["ous", "ers"], ["ous", "ands"], ["ĠAs", "iatic"], ["Ġà°¬", "à°¡"], ["ĠW", "ith"], ["ĠW", "ik"], ["Ġà²¸à³įà²µ", "à²¤à²Ĥà²¤à³įà²°"], ["ĸ", "à¥įà¤¯"], ["ĠW", "hen"], ["ĠW", "ild"], ["ĠW", "eb"], ["Ġà°¬", "à±Į"], ["ĠW", "ayback"], ["ĠW", "idespread"], ["ĠW", "hether"], ["og", "urt"], ["Ġch", "ain"], ["Ġch", "all"], ["Ġà¤", "ĵ"], ["Ġch", "ik"], ["à±ģà°¤", "à±į"], ["Ġch", "ose"], ["Ġch", "ange"], ["Ġà²¹à³ĭ", "à²Ĺ"], ["Ġch", "oli"], ["Ġch", "anged"], ["Ġch", "icken"], ["à°Ĥà°Ł", "à±ģà°¨à±įà°¨"], ["Ġch", "ronic"], ["Ġch", "oice"], ["Ġch", "atur"], ["Ġco", "re"], ["à¤°", "à¤¬"], ["Ġco", "ins"], ["Ġà°µà°¿à°", "®à°¾à°¨"], ["Ġco", "operation"], ["Ġco", "tt"], ["Ġco", "heren"], ["Ġà²¦à³ĩà²¶", "à²¦"], ["Ġco", "dified"], ["Ġà°µà°¿à°", "²à±ģà°µ"], ["Ġpro", "per"], ["Ġpro", "claiming"], ["Ġpro", "fess"], ["Ġpro", "posed"], ["Ġpro", "portional"], ["Ġà¤¸", "à¤ķ"], ["Ġà°µà°¿à°", "·à°¯à°¾à°²à±ģ"], ["our", "s"], ["our", "se"], ["Ġcont", "ex"], ["Ġcont", "empor"], ["Ġcont", "ours"], ["Ġà°İ", "à°¡"], ["ĠU", "day"], ["Ġà²¤", "à²Ĥà²¤à³įà²°à²ľ"], ["ĠU", "tt"], ["ot", "a"], ["ot", "e"], ["à¥ĭ", "à¤·"], ["ot", "i"], ["Ġà°İ", "à°²à°ķ"], ["ot", "al"], ["ot", "hes"], ["ant", "ly"], ["ant", "icide"], ["Ġat", "op"], ["Ġà°¶", "à°¿à°²"], ["Ġat", "tain"], ["Ġat", "ypically"], ["Ġat", "olls"], ["à³Ĩà²²", "à²¿à²Ĺà³įà²°à²¾à²"], ["ass", "oci"], ["Ġà¤®", "à¥Īà¤¦"], ["Ġà°¶", "à°¾à°¸"], ["ass", "lands"], ["age", "ment"], ["age", "able"], ["av", "ari"], ["av", "ati"], ["Ġà°¶", "à°ķà±įà°¤"], ["av", "ily"], ["av", "ira"], ["av", "arsha"], ["if", "t"], ["à¤ķ", "à¤¾à¤²"], ["if", "ically"], ["à°¬", "à°¾à°Łà±ģ"], ["Ġnor", "m"], ["à²¿à²¦à³įà²¦", "à²¾à²°à³Ĩ"], ["Ġnor", "theast"], ["Ġpart", "ners"], ["ĠR", "ig"], ["ĠR", "ef"], ["à°¾à°¦", "à°Ĥ"], ["ĠR", "ice"], ["ĠR", "Äģ"], ["ĠR", "eb"], ["ĠR", "ams"], ["Ġà¤ª", "à¤¶à¥įà¤ļà¤¿à¤®"], ["à°¾à°¦", "à°°à°£"], ["ĠR", "uk"], ["ĠR", "ann"], ["ĠR", "akh"], ["ĠR", "ao"], ["Ġà²¨à²Ĥà²¤à²°", "à²¦"], ["ĠR", "iver"], ["à°¾à°¦", "à°¾à°¯à°Ĥà°²à±ĭ"], ["ĠR", "eserves"], ["ĠR", "aslil"], ["ĠR", "oman"], ["ĠR", "amanu"], ["à¥ģ", "à¤ª"], ["ĠR", "ussia"], ["à°¿à°ª", "à±Ĩà°¦à±įà°¦"], ["ĠR", "idge"], ["Ġsp", "ok"], ["Ġsp", "ite"], ["Ġsp", "ons"], ["Ġsp", "ices"], ["à°¿à°ª", "à±ĭà°¯à°¿à°Ĥà°¦à°¿"], ["Ġsp", "ring"], ["Ġà³¨", "à³¦à³¦à³¯"], ["Ġsp", "eed"], ["Ġsp", "lit"], ["Ġsp", "iced"], ["à¤Ĥà¤", "ª"], ["Ġà°¹", "à°¾à°ķ"], ["Ġsp", "ending"], ["ish", "ing"], ["ish", "ment"], ["ish", "ya"], ["ish", "vara"], ["Ġà°ķà±Ĥà°¡", "à°¿"], ["Ġeconom", "ics"], ["Ġeconom", "ically"], ["Ġform", "ations"], ["à²¾à²¸", "à³įà²¤"], ["Ġform", "erly"], ["à¤°à¥įà¤", "¤"], ["Ġform", "ulaic"], ["Ġà°ķà±Ĥà°¡", "à±ģà°ķà±Ĭ"], ["aj", "a"], ["ap", "an"], ["ap", "on"], ["ap", "ed"], ["ct", "ory"], ["ĠF", "act"], ["Ġreg", "ard"], ["Ġreg", "ulation"], ["ĠCh", "ord"], ["à¤°à¥įà¤", "·"], ["ĠCh", "ronic"], ["Ġà°Ī", "à°¶"], ["à²¾à²Ĥà²", "¶"], ["ĠCh", "aud"], ["ĠCh", "ief"], ["ĠCh", "aran"], ["ĠCh", "romos"], ["Ġà°Ī", "à°¸à±įà°Łà±į"], ["ĠCh", "ota"], ["ĠJ", "ust"], ["ĠJ", "ains"], ["ĠJ", "udaism"], ["à¥Ĥ", "à¤¨"], ["ĠJ", "apan"], ["à±ģà°²", "à°¨à±ģ"], ["Ġk", "ingly"], ["Ġk", "ne"], ["Ġk", "abad"], ["Ġà²¸à³ģ", "à²²à³įà²¤à²¾à²¨"], ["Ġk", "illed"], ["Ġk", "eep"], ["à±ģà°²", "à°¤à±ĭ"], ["Ġk", "atab"], ["Ġk", "illing"], ["Ġk", "riti"], ["Ġad", "versity"], ["à¤¶", "à¤¾à¤¸"], ["Ġad", "verse"], ["Ġà°ľà°¾à°¤", "à°¿"], ["Ġad", "equ"], ["Ġad", "hered"], ["Ġad", "heren"], ["Ġad", "join"], ["Ġà°ľà°¾à°¤", "à±ģà°²à±ģ"], ["Ġad", "vances"], ["à²¿à²Ĺà²³", "à²²à³įà²²à²¿"], ["Ġad", "hering"], ["Ġcl", "ans"], ["Ġcl", "othes"], ["à¤µ", "à¤¸à¥įà¤"], ["Ġse", "en"], ["Ġà°Ĵ", "à°²à°Ĥà°ª"], ["Ġse", "al"], ["Ġse", "as"], ["Ġse", "vent"], ["Ġse", "af"], ["Ġse", "ams"], ["Ġà°ªà°°", "à±įà°¯à°¾à°¯"], ["Ġse", "aled"], ["Ġse", "eking"], ["Ġse", "greg"], ["Ġà²¸à²Ĥà²ª", "à²°à³įà²ķ"], ["Ġsub", "ord"], ["Ġà¤ªà¥įà¤°", "à¤§à¤¾à¤¨"], ["Ġsub", "cast"], ["Ġà°ªà°°", "à±Ģà°ķà±įà°·"], ["Ġsub", "ject"], ["Ġsub", "tropical"], ["Ġsub", "due"], ["Ġpl", "ural"], ["Ġpl", "ants"], ["à°¿à°¸à±įà°¤", "à°¾à°¨"], ["Ġpl", "ays"], ["Ġpl", "aced"], ["Ġpl", "ayback"], ["Ġà¤Ĺ", "à¤£"], ["Ġpl", "anning"], ["à°¾à°°à±įà°", "ķ"], ["Ġpl", "aces"], ["Ġà³§à³¯", "à³Ń"], ["Ġle", "af"], ["Ġle", "xic"], ["Ġy", "ards"], ["Ġy", "ounger"], ["Ġà°²", "à°ķà±ģ"], ["Ġy", "ogurt"], ["Ġag", "ro"], ["Ġag", "gl"], ["Ġper", "form"], ["Ġà¤µà¤¿à¤", "¸"], ["Ġper", "vasive"], ["Ġà°²", "à±Įà°ķ"], ["Ġper", "haps"], ["Ġper", "man"], ["Ġper", "ceptions"], ["à²µà²°", "à²¨à³įà²¨à³ģ"], ["Ġmar", "ble"], ["Ġmar", "ma"], ["à±įà°°à±Ģ", "à°Ĥ"], ["Ġmar", "ital"], ["Ġmar", "tial"], ["Ġmar", "inade"], ["Ġmar", "itime"], ["Ġà¤¨à¥ĩ", "à¤¤"], ["à±įà°°à±Ģ", "à°²à±ģ"], ["Ġel", "ite"], ["Ġel", "ders"], ["Ġ201", "2"], ["Ġ201", "4"], ["Ġ201", "9"], ["ĠK", "sh"], ["ĠK", "arn"], ["ĠK", "ingd"], ["Ġà°®à±Ĭ", "à°Ĺà°²à±ģ"], ["ĠK", "ey"], ["ĠK", "ann"], ["ĠK", "rish"], ["Ġà²µà²¿à²", "¶à³įà²µ"], ["ĠK", "onkani"], ["à¤ķà¥įà¤·", "à¤¾"], ["Ġà°ľà°¨", "à°¤à°¾"], ["ĠK", "arla"], ["ĠK", "olkata"], ["ĠK", "utch"], ["mer", "ic"], ["ire", "ty"], ["Ġà°ľà°¨", "à°µà°°à°¿"], ["reas", "ingly"], ["Ġpri", "de"], ["Ġpri", "vate"], ["Ġpri", "orities"], ["Ġpri", "ests"], ["à¥ĥ", "à¤·"], ["à°ľ", "à°¿à°¤"], ["Ġdec", "imal"], ["Ġà²µà³įà²¯", "à²¾à²ª"], ["Ġdec", "entral"], ["Ġdec", "oration"], ["Ġdec", "isions"], ["Ġdec", "ennial"], ["Ġà°ªà±ĩ", "à°°à±įà°²à±ģ"], ["Ġdec", "isively"], ["Ġdec", "olonisation"], ["Ġworld", "wide"], ["ĠF", "ed"], ["Ġà¤¸à¤Ĥà¤", "¬à¤Ĥà¤§"], ["Ġà°®à±ģ", "à°¸à±įà°²"], ["ĠF", "rom"], ["ĠF", "our"], ["ĠF", "urther"], ["ĠF", "aith"], ["Ġà²ªà³įà²°à²¦à³ĩà²¶", "à²Ĺà²³à³ģ"], ["ĠF", "rance"], ["Ġà°®à±ģ", "à°¡à°¿"], ["ĠF", "icus"], ["ĠF", "ully"], ["ĠF", "utures"], ["ĠF", "emale"], ["ĠV", "iet"], ["Ġà¤¸à¤Ĥà¤", "µà¤¿à¤§à¤¾à¤¨"], ["à°¸à±įà°¤", "à±ģà°²à±ģ"], ["ĠV", "irt"], ["ĠV", "indh"], ["ĠV", "eda"], ["ĠV", "arÄģ"], ["duc", "ing"], ["Ġ200", "3"], ["duc", "tion"], ["Ġà²ªà³įà²°à²ªà²Ĥà²ļ", "à²¦à²²à³įà²²à²¿"], ["Ġtra", "ders"], ["Ġtra", "ded"], ["Ġtra", "ining"], ["à°¾à°Ł", "à°ķ"], ["ĠInd", "os"], ["Ġsy", "mb"], ["Ġà¤¸à¥įà¤µ", "à¤¤à¤Ĥà¤¤à¥įà¤°"], ["Ġsy", "ncre"], ["Ġgen", "res"], ["Ġgen", "eration"], ["Ġà°¸à±įà°¥", "à°¾à°µ"], ["Ġgen", "etic"], ["Ġgen", "ders"], ["Ġcomp", "lic"], ["Ġcomp", "ared"], ["Ġà²¬à³Ĩà²³", "à³Ĩà²¦"], ["Ġend", "ogamy"], ["Ġà°Ĵà°ķ", "à°Łà°¿"], ["Ġend", "eav"], ["Ġà¤ªà¥įà¤°à¤¦", "à¥ĩà¤¶"], ["ff", "s"], ["ff", "alo"], ["oth", "ing"], ["pp", "ed"], ["Ġà°ı", "à°ķ"], ["pp", "ines"], ["pp", "ayat"], ["ine", "al"], ["ine", "ering"], ["all", "ing"], ["Ġà°ı", "à°ªà±įà°°"], ["dition", "al"], ["Ġà²¬à³Ĩà²³", "à²µà²£"], ["Ġà¤ªà¤¾à¤°", "à¥įà¤Ł"], ["Ġsh", "irt"], ["Ġsh", "ares"], ["Ġsh", "arp"], ["à°¾à°¸", "à°®à±ģà°¦"], ["Ġsh", "orter"], ["ection", "ist"], ["dern", "ess"], ["ok", "ed"], ["ok", "ing"], ["Ġà°İà°¨à±įà°¨", "à±ģà°ķà±ĭ"], ["we", "apon"], ["Ġà¤¦à¥įà¤µ", "à¤¾à¤°à¤¾"], ["Ġover", "all"], ["Ġover", "laps"], ["Ġà²¬à³įà²°à²¿à²Ł", "à³Ģà²·"], ["ect", "ive"], ["ect", "ancy"], ["Ġà°ªà°¾à°°", "à±įà°²à°®à±Ĩ"], ["Ġres", "entments"], ["Ġres", "urgence"], ["Ġres", "olution"], ["Ġres", "istance"], ["igh", "at"], ["à±įà°°à°®", "à±ĩ"], ["igh", "ts"], ["Ġà¤¬à¥Ģ", "à¤ļ"], ["ign", "ed"], ["ign", "ated"], ["stitution", "al"], ["à°¦à±įà°§", "à°Ĥ"], ["Ġsystem", "atic"], ["à³įà²°à²¾à²", "¡à²³à²¿à²¤"], ["Ġ5", "80"], ["Ġ5", "22"], ["Ġ5", "96"], ["Ġri", "gidly"], ["Ġà°ķà±ĭ", "à°Łà±įà°²"], ["ew", "ed"], ["Ġà¤ıà¤¶", "à¤¿à¤¯à¤¾"], ["Ġ3", "2"], ["Ġ3", "5"], ["Ġ3", "9"], ["ĠO", "pen"], ["ĠO", "riya"], ["ĠO", "fficial"], ["Ġà°ķà±ĭ", "à°²à±įâĢĮ"], ["ĠO", "nions"], ["Ġà²µà²°à³įà²", "Ĺ"], ["ĠO", "xford"], ["ĠO", "disha"], ["ĠO", "lymp"], ["Ġà¤ļà¥ģà¤¨à¤¾à¤µ", "à¥ĭà¤Ĥ"], ["dh", "yÄģ"], ["Ġà°ļà±Ĩ", "à°ªà±įà°ª"], ["dh", "anar"], ["ral", "ian"], ["ric", "t"], ["ric", "ity"], ["ric", "tions"], ["Ġà°ļà±Ĩ", "à°¨à±įà°¨à±Ī"], ["Ġinf", "ection"], ["Ġinf", "lows"], ["Ġinf", "ections"], ["Ġà²ĩà²¦", "à³Ĩ"], ["Ġinf", "rastruc"], ["ĸà¥įà¤¯", "à¤¾"], ["Ġinf", "anticide"], ["Ġà°ħà°§à°¿à°ķà°¾à°°", "à°Ĥ"], ["Ġsup", "eri"], ["Ġme", "al"], ["Ġme", "et"], ["Ġme", "dian"], ["à°¾à°ľ", "à°¿à°ķ"], ["Ġme", "asures"], ["Ġme", "ets"], ["Ġme", "ditation"], ["Ġme", "asured"], ["Ġcons", "ci"], ["Ġà¤®à¥Īà¤¦", "à¤¾à¤¨"], ["Ġà°ªà±įà°°à°ªà°Ĥà°ļ", "à°®à±ģà°²à±ĭ"], ["Ġcons", "pic"], ["Ġà²®à³ģà²ĸà³įà²¯", "à²µà²¾à²¦"], ["Ġcons", "istent"], ["Ġcons", "ervative"], ["Ġmore", "over"], ["Ġ7", "2"], ["Ġà°ªà±įà°°à°¾à°Ĥà°¤", "à±Ģà°¯"], ["Ġ7", "9"], ["Ġ7", "00"], ["Ġ7", "000"], ["ĠL", "al"], ["ĠL", "ong"], ["à¤µà¤¸à¥įà¤", "¥à¤¾"], ["ĠL", "ok"], ["ĠL", "ord"], ["Ġà°ªà±įà°°à°¾à°Ĥà°¤", "à°¾à°²à±įà°²à±ĭ"], ["ĠL", "ef"], ["à²·à³įà²Ł", "à³ģ"], ["ĠL", "ib"], ["ĠL", "iber"], ["ĠL", "aos"], ["ĠL", "ocal"], ["Ġà°ħà°¤", "à°¿à°ªà±Ĩà°¦à±įà°¦"], ["Ġafter", "wards"], ["Ġpe", "ak"], ["à¥", "©"], ["Ġpe", "ep"], ["Ġpe", "hl"], ["Ġpe", "asants"], ["à°¬à°¡", "à°¿à°¨"], ["Ġlong", "est"], ["Ġlong", "itud"], ["à²·à³įà²Ł", "à²¿à²¯à²¿à²Ĥà²¦"], ["Ġnum", "erous"], ["Ġincreas", "e"], ["à°¬à°¡", "à°¿à°Ĥà°¦à°¿"], ["Ġ4", "3"], ["Ġ4", "4"], ["Ġà¤", "Ł"], ["Ġ4", "5"], ["Ġ4", "6"], ["Ġ4", "9"], ["à°¬à°¡", "à°¤à°¾à°°à±ģ"], ["Ġ4", "31"], ["Ġhe", "re"], ["Ġhe", "lped"], ["Ġhe", "art"], ["Ġhe", "avily"], ["Ġà°°à°¾à°ľà±įà°¯", "à°Ĥà°Ĺà°¾"], ["Ġim", "mense"], ["Ġim", "itated"], ["à¤°", "à¤¾à¤ľà¥įà¤¯"], ["Ġim", "porter"], ["pt", "ember"], ["Ġca", "re"], ["Ġà°µà±įà°¯à°µà°¸à±įà°¥", "à°ķà±ģ"], ["Ġca", "ret"], ["Ġà²®à³Ĭà²¦à²²", "à²¾à²¦"], ["Ġ200", "4"], ["Ġ200", "6"], ["Ġrul", "er"], ["Ġdis", "pro"], ["Ġdis", "rup"], ["à¥įà¤", "¸"], ["Ġdis", "banded"], ["à°¤à±įà°µ", "à°Ĥà°²à±ĭ"], ["Ġdis", "advant"], ["Ġdis", "content"], ["Ġregion", "ally"], ["ph", "in"], ["ph", "ies"], ["Ġà°¸à°®", "à°¾à°ľ"], ["ren", "ce"], ["Ġà²¶à²¤à²®à²¾à²¨", "à²¦à²²à³įà²²à²¿"], ["ren", "ched"], ["ren", "tly"], ["Ġà¤ķ", "à¥įà¤°"], ["Ġcast", "es"], ["Ġsc", "ience"], ["Ġà°¸à°®", "à°°à°Ĥ"], ["Ġser", "ving"], ["Ġser", "ves"], ["Ġsoc", "ially"], ["Ġsoc", "io"], ["Ġà°ķà±ģ", "à°®"], ["Ġ195", "6"], ["Ġ195", "7"], ["Ġunder", "ground"], ["à¤¤", "à¤¿à¤ķ"], ["Ġunder", "skirt"], ["Ġà²¶à²¤à²®à²¾à²¨", "à²¦à²¿à²Ĥà²¦"], ["Ġunder", "went"], ["Ġ202", "0"], ["ĠUn", "der"], ["Ġà°ķà°¾à°²", "à±ĩà°ľ"], ["ĠUn", "til"], ["ĠUn", "touchability"], ["ĠUn", "iversity"], ["ep", "er"], ["ik", "a"], ["Ġà°ªà±įà°°à°ľ", "à°²à±ģ"], ["rough", "out"], ["eng", "es"], ["Ġà¤®", "à¥ģ"], ["Ġcoun", "ted"], ["Ġcoun", "cil"], ["Ġà²¸à²¿à²°à²¿à²µ", "à²Ĥà²¤à²°"], ["Ġcoun", "terculture"], ["Ġà°ªà±įà°°à°ľ", "à°¾à°¦à°°à°£"], ["Ġoff", "er"], ["Ġoff", "icially"], ["Ġnot", "ably"], ["Ġgrow", "n"], ["Ġ196", "6"], ["Ġà°ĩà°¤à°°", "à°¦à±ĩà°¶"], ["ĠBuddh", "ists"], ["Ġà¤®", "à¥ģà¤ĸ"], ["ef", "ied"], ["ef", "inite"], ["lo", "or"], ["Ġter", "racot"], ["Ġà°Ńà°¾à°·", "à°¾"], ["ond", "rial"], ["à²¬", "à³įà²¬"], ["ari", "ans"], ["ari", "ppayat"], ["Ġfol", "lows"], ["Ġà°Ńà°¾à°·", "à°²à°¨à±ģ"], ["Ġland", "ed"], ["à¤¸", "à¤Ĥà¤"], ["Ġland", "own"], ["Ġland", "sl"], ["Ġland", "mar"], ["Ġland", "mass"], ["Ġà°®à±Ĭà°¦", "à°Ł"], ["Ġear", "th"], ["out", "castes"], ["Ġrec", "ording"], ["à³ģà²¤à³įà²¤", "à²¿à²°à³ģà²µ"], ["Ġrec", "ommend"], ["Ġrec", "ourse"], ["Ġà°ľà°¨à°¾à°Ń", "à°¾à°¤à±ĭ"], ["à¥ģ", "à¤¦à¥įà¤§"], ["ĠAn", "y"], ["ĠAn", "and"], ["rib", "es"], ["ĠCon", "vention"], ["ĠCon", "ser"], ["Ġà°¹à°¿à°Ĥà°¦à±Ĥ", "à°¸à±įà°¤"], ["ĠCon", "cur"], ["Ġ199", "0"], ["Ġ199", "4"], ["Ġ199", "5"], ["Ġà°ªà±įà°°à°Ńà±ģà°¤à±įà°µ", "à°¾à°¨à±įà°¨à°¿"], ["à¤®", "à¤Ĥà¤¤à¥įà¤°à¥Ģ"], ["Ġ199", "6"], ["à²¤à²¿à²¯", "à²¨à³įà²¨à³ģ"], ["ell", "ate"], ["Ġj", "oin"], ["Ġj", "az"], ["Ġj", "eans"], ["Ġj", "udi"], ["Ġj", "atis"], ["Ġen", "abl"], ["à°¿à°Ĥà°", "ª"], ["Ġen", "ligh"], ["à¥įà¤¯", "à¥ĭà¤Ĥ"], ["Ġen", "vir"], ["Ġen", "abled"], ["Ġra", "w"], ["Ġà°¸à°¾à°Ĥ", "à°ķà±ĩà°¤"], ["Ġra", "ising"], ["Ġ16", "1"], ["Ġra", "ga"], ["Ġra", "ksha"], ["Ġra", "infall"], ["Ġra", "rely"], ["Ġà°¸à°Ń", "à±įà°¯"], ["Ġup", "on"], ["Ġà¤ħ", "à¤µ"], ["Ġup", "sur"], ["ci", "ary"], ["ni", "zed"], ["sh", "ali"], ["Ġà°¸à°Ń", "à°¨à±ģ"], ["sh", "aped"], ["vi", "ous"], ["vi", "ew"], ["Ġà²¸à³įà²¥à²¾à²¨", "à²µà²¨à³įà²¨à³ģ"], ["Ġapp", "are"], ["Ġapp", "ellate"], ["Ġà°¸à°Ń", "à±įà°¯à±ģà°²à±ģ"], ["Ġà¤ħ", "à¤Ń"], ["Ġrep", "ressive"], ["Ġrep", "laced"], ["Ġrep", "ulsing"], ["Ġexp", "ected"], ["à±Ĩà°¸", "à±į"], ["Ġexp", "eri"], ["Ġexp", "anded"], ["Ġexp", "endi"], ["Ġexp", "ectancy"], ["port", "ant"], ["à¤Ĥà¤", "¬"], ["Ġà°°à±Ĩà°Ĥà°¡", "à±ĭ"], ["aw", "ed"], ["Ġà²Ńà²¾à²Ĺ", "à²Ĺà²³à³ģ"], ["aw", "ay"], ["mon", "s"], ["mon", "ary"], ["ins", "pire"], ["Ġà°°à±Ĩà°Ĥà°¡", "à°µ"], ["Ġthere", "by"], ["Ġab", "jured"], ["Ġab", "olished"], ["à¤¹", "à¤°"], ["Ġsec", "ure"], ["Ġemerg", "e"], ["à°¿à°Ĥà°ļà°¿à°¨", "à°Łà±įà°²à±ģ"], ["Ġemerg", "ing"], ["Ġemerg", "ence"], ["Ġemerg", "ency"], ["Ġà²µà²°", "à²¦à²¿à²¯à²²à³įà²²à²¿"], ["Ġhum", "id"], ["Ġhum", "ped"], ["Ġà°¸à°Ĥà°¸à±įà°", "ķà°°à°£"], ["Ġ18", "20"], ["Ġ18", "91"], ["à¤¯", "à¥ĭà¤Ĺ"], ["Ġ18", "48"], ["Ġ18", "85"], ["Ġà°¸à±įà°¥à°¾à°¨", "à°Ĥ"], ["ĠAl", "most"], ["ular", "ities"], ["Ġspec", "ifically"], ["Ġpeop", "les"], ["velop", "ment"], ["Ġà°¸à±įà°¥à°¾à°¨", "à°¾à°²à°¨à±ģ"], ["Ġ6", "5"], ["Ġà²µà²°", "à³įà²²à³įà²¡"], ["Ġ6", "8"], ["Ġà¤¬", "à¥įà¤°"], ["Ġ6", "00"], ["ced", "ented"], ["ex", "e"], ["à°¾à°¹", "à°¾à°°"], ["ex", "isting"], ["ex", "pressed"], ["rol", "eum"], ["ta", "iled"], ["hem", "ical"], ["à°¿à°ļ", "à±ĩ"], ["Ġcour", "se"], ["Ġà¤Ĩ", "à¤°à¥įà¤¥"], ["Ġwar", "mer"], ["Ġà²¬à²Ĥà²¦", "à²¿à²¦à³Ĩ"], ["Ġmus", "ical"], ["Ġmus", "ics"], ["à°¿à°ļ", "à±įà°ļ"], ["Ġmid", "riff"], ["Ġmilit", "ants"], ["omp", "assing"], ["omp", "anied"], ["Ġhist", "ories"], ["à°¿à°³", "à±įà°³"], ["ĠTh", "ree"], ["à¤§", "à¥Ģ"], ["ĠTh", "anjav"], ["ĠTh", "ousands"], ["ĠTh", "roughout"], ["Ġnew", "ly"], ["à°¿à°¶", "à±įà°°"], ["Ġà²¬à²Ĥà²¦", "à²¦à³įà²¦à³ģ"], ["own", "ed"], ["Ġ194", "6"], ["ĠMo", "st"], ["ĠMo", "vement"], ["Ġà¤ĩ", "à¤¨"], ["ĠMo", "derately"], ["Ġà°ľà°°à°¿à°Ĺ", "à±ĩ"], ["ĠMugh", "als"], ["Ġdevelop", "ing"], ["ĠChin", "ese"], ["for", "ce"], ["Ġà°ķà±įà°°à±Ģà°¡", "à°¾"], ["gen", "y"], ["gen", "cies"], ["per", "ate"], ["Ġà²ħà²Ĥà²", "ķ"], ["per", "atures"], ["Ġà¤¶", "à¥ģà¤°"], ["ten", "ment"], ["Ġà°ķà±įà°°à±Ģà°¡", "à°²à°²à±ĭ"], ["ya", "á¹ĩ"], ["Ġset", "backs"], ["Ġset", "tling"], ["Ġbas", "is"], ["rig", "ation"], ["Ġà°ħà°¯à°¿à°¨", "à°¾"], ["Ġthrough", "out"], ["ĠMa", "han"], ["ĠMa", "hÄģ"], ["Ġà¤µà¤¿à¤", "Ń"], ["ĠMa", "hav"], ["ĠMa", "hat"], ["Ġ8", "3"], ["Ġà²ħà²Ĥà²", "¶à²Ĺà²³à³ģ"], ["ĠMa", "oist"], ["ĠMa", "ithili"], ["Ġlead", "s"], ["ĠIndo", "i"], ["Ġsocial", "ist"], ["Ġà°Ł", "à±Īà°Ł"], ["ĠBengal", "i"], ["ĠBengal", "uru"], ["à¤ľ", "à¤¾à¤¤"], ["Ġ9", "3"], ["Ġ9", "7"], ["Ġà°ªà°¾à°²", "à°¨à°²à±ĭ"], ["Ġ9", "00"], ["Ġ9", "40"], ["20", "4"], ["Ġà²Ĩà²°à²Ĥà²Ń", "à²µà²¾à²Ĺà²¿"], ["Ġtr", "ousers"], ["ati", "ya"], ["Ġà°ªà°¾à°²", "à°¿à°Ĥà°ļà°¾à°°à±ģ"], ["Ġcr", "ises"], ["Ġcr", "isis"], ["à¤ļ", "à¥Ģ"], ["Ġsign", "ing"], ["Ġpre", "fer"], ["Ġpre", "cise"], ["à°¦à±ģ", "à°Ĺà°¾"], ["Ġpre", "pared"], ["Ġpre", "vail"], ["Ġpre", "yed"], ["Ġpre", "vious"], ["Ġmain", "land"], ["Ġà²Ĩà²¡à²³à²¿à²¤", "à²ķà³įà²ķà³Ĩ"], ["Ġà°¸à°¾à°®", "à°°à±įà°¥à±įà°¯à°Ĥ"], ["à¤ļ", "à¥įà¤ļ"], ["Ġmain", "tains"], ["Ġmain", "stream"], ["Ġfar", "ther"], ["Ġfar", "away"], ["Ġà°¸à°¾à°®", "à°¾à°ľà°¿à°ķ"], ["Ġgr", "ands"], ["Ġgr", "anted"], ["Ġgr", "andmast"], ["Ġgr", "asslands"], ["Ġgra", "in"], ["Ġà°¸à°¾à°§", "à°¿à°Ĥà°ļà°¿à°¨"], ["à¤Ĥà¤Ĺ", "à¤¾"], ["Ġgra", "zed"], ["Ġgra", "mm"], ["Ġà²ĩà²¤", "à²°"], ["Ġgra", "dual"], ["ĠComp", "rehen"], ["ĠSt", "atist"], ["Ġ197", "7"], ["ĠSik", "kim"], ["roc", "hemical"], ["Ġ198", "1"], ["Ġà¤ľà¤¨", "à¤ľà¤¾à¤¤"], ["Ġ198", "8"], ["Ġà°ªà±įà°°à°¤", "à±įà°¯"], ["Ġ198", "9"], ["Ġexpor", "ting"], ["Ġdire", "ction"], ["Ġdire", "ctions"], ["Ġà²ĩà²¤", "à²¿à²¹à²¾à²¸"], ["Ġreligi", "osa"], ["à°°à±įà°¤", "à°¿à°Ĺà°¾"], ["Ġpolit", "ics"], ["Ġmusic", "ians"], ["Ġus", "ing"], ["Ġus", "age"], ["Ġà¤¸à¥įà¤¥", "à¤¿à¤¤"], ["Ġà°īà°ª", "à°¯à±ĭ"], ["Ġus", "hered"], ["cri", "ption"], ["mit", "tent"], ["odi", "ment"], ["odi", "lian"], ["Ġà°®à±ģà°ĸà±įà°¯", "à°Ĥà°Ĺà°¾"], ["pl", "us"], ["pl", "ace"], ["Ġà²īà²Ĺà²®", "à²Ĺà³Ĭà²Ĥà²¡"], ["put", "ed"], ["à¥ī", "à¤Ĥà¤Ĺà¥įà¤°à¥ĩ"], ["ru", "ments"], ["Ġac", "ute"], ["Ġà°ıà°°à±įà°ª", "à°¡"], ["Ġout", "put"], ["Ġout", "side"], ["Ġout", "post"], ["Ġcol", "d"], ["Ġwe", "alth"], ["Ġà°ķà°¾à°Ĥà°Ĺà±įà°°à±Ĩà°¸", "à±į"], ["Ġwe", "akening"], ["Ġwe", "ights"], ["Ġà¤ķà¤¾à¤°", "à¥įà¤¯"], ["Ġsur", "round"], ["Ġsur", "passing"], ["Ġà²¸à²Ĥà²¸", "à³įà²¥à³Ĩ"], ["à°¾à°¡", "à±ģà°ķà±ģà°Ĥà°Ł"], ["Ġsur", "veill"], ["ors", "hip"], ["Ġfound", "ed"], ["Ġfound", "ing"], ["Ġfound", "ation"], ["à°Ĥà°ķ", "à±Ĩà°²à±ģ"], ["Ġfound", "ations"], ["Ġloc", "ations"], ["Ġà¤¬à¤¹à¥ģ", "à¤¤"], ["Ġ15", "00"], ["Ġ15", "25"], ["Ġgreat", "ly"], ["à°°à±ĭ", "à°ªà°¾"], ["ĠSh", "ank"], ["ĠSh", "alw"], ["à³įà²¸", "à³į"], ["ĠSh", "aiv"], ["ĠSh", "udra"], ["ĠEn", "ergy"], ["Ġà°®à°¾à°¤", "à±įà°°à°®à±ĩ"], ["ĠGandhi", "an"], ["Ġà¤°à¤¾à¤·à¥įà¤Łà¥įà¤°", "à¥Ģà¤¯"], ["Ġcentral", "ised"], ["Ġcoal", "esc"], ["Ġcontrib", "ution"], ["Ġà°®à°¹", "à°¿à°³"], ["Ġcontrol", "led"], ["Ġterrit", "ory"], ["Ġtrans", "mission"], ["Ġtrans", "lating"], ["Ġtrans", "actional"], ["à²¿à²ľ", "à³įà²¯"], ["Ġà°®à°¹", "à°¾à°¤à±įà°®"], ["Ġ8", "0"], ["à¤¦à¥įà¤¯", "à¥ĭà¤Ĺ"], ["Ġ8", "2"], ["Ġ8", "00"], ["Ġent", "ered"], ["Ġent", "repren"], ["Ġent", "irety"], ["Ġent", "renched"], ["Ġà°®à°¹", "à°¾à°¸à°®à±ģà°¦"], ["Ġher", "bal"], ["Ġher", "ds"], ["Ġà¤¨à¤¿à¤°à¥įà¤®", "à¤¾à¤£"], ["Ġher", "itage"], ["19", "3"], ["19", "00"], ["à°°à±įà°²", "à°ķà±ģ"], ["19", "91"], ["19", "67"], ["19", "75"], ["19", "92"], ["are", "tt"], ["Ġà°Ńà°¾à°Ĺ", "à°¾à°¨à±įà°¨à°¿"], ["à²µà²¿à²", "Ńà²ľà²¿à²¤"], ["nolog", "ical"], ["Ġà¤¸à¥Īà¤¨", "à¥įà¤¯"], ["oin", "ted"], ["vol", "ution"], ["vid", "ual"], ["ons", "ible"], ["Ġà°¸à°°à°¿à°¹à°¦à±įà°¦", "à±ģà°Ĺà°¾"], ["Ġorig", "ins"], ["Ġcult", "urally"], ["Ġcap", "ped"], ["Ġcap", "ability"], ["Ġà°īà°¤à±įà°¤à°°", "à°¾à°¨"], ["Ġcap", "acity"], ["Ġà¤µà¤¿à¤¸", "à¥įà¤¤"], ["Ġbi", "as"], ["Ġbi", "osphere"], ["Ġà²¸à²¹", "à²¸à³įà²°"], ["Ġbi", "ological"], ["Ġbir", "ch"], ["à°¾à°³", "à°Ĥ"], ["Ġbir", "yan"], ["ess", "ed"], ["Ġfeat", "uring"], ["oms", "men"], ["Ġdra", "ped"], ["Ġà¤¨à¥ĩà¤¤", "à¥ĥà¤¤"], ["à°°à°¿à°ķ", "à°¾"], ["Ġdra", "wn"], ["Ġdra", "fted"], ["Ġdra", "wstring"], ["Ġ17", "2"], ["Ġ17", "65"], ["Ġà°ªà°¤", "à°¾à°ķ"], ["Ġà²¸à²Ĥà²ĸà³įà²¯", "à³Ĩà²¯à²²à³įà²²à²¿"], ["Ġne", "ed"], ["Ġne", "em"], ["Ġne", "ither"], ["Ġne", "gative"], ["Ġà¤Ĩà¤°à¥įà¤¥", "à¤¿à¤ķ"], ["Ġne", "olith"], ["Ġà°ªà±Ĥ", "à°°à±įà°µ"], ["Ġ26", "8"], ["Ġ197", "0"], ["Ġ197", "2"], ["Ġ197", "4"], ["Ġ197", "5"], ["und", "ale"], ["Ġmovement", "s"], ["Ġà²®à³ĩ", "à²°à³Ĩà²Ĺà³Ĩ"], ["ach", "ings"], ["à¥īà¤Ĥà¤Ĺà¥įà¤°à¥ĩ", "à¤¸"], ["Ġarm", "y"], ["Ġà°ªà±Ĥ", "à°°à±įà°¤à°¿à°Ĺà°¾"], ["Ġarch", "ip"], ["Ġdev", "das"], ["Ġdev", "adasis"], ["Ġleg", "al"], ["Ġleg", "acy"], ["Ġà°®à°¨", "à°¦à±ĩà°¶à°Ĥ"], ["cess", "ful"], ["Ġmarri", "es"], ["Ġmarri", "ageable"], ["à¥", "®"], ["Ġsculpt", "ing"], ["Ġsculpt", "ors"], ["à±Ĩà°Ł", "à±įà°°"], ["Ġà²®à²¹", "à²¾à²°à²¾à²ľ"], ["Ġoccup", "y"], ["Ġoccup", "ies"], ["Ġoccup", "ational"], ["Ġoccup", "ations"], ["à±įâĢĮà°¸", "à°Ń"], ["Ġoccup", "ying"], ["Ġdirect", "ors"], ["à¥", "§à¥"], ["Ġdirect", "ives"], ["Ġlocal", "ised"], ["Ġcontribut", "ing"], ["à°¾à°¬à°¾à°¦", "à±ģ"], ["Ġcontribut", "ors"], ["Ġroc", "ked"], ["eograph", "ic"], ["Ġà²®à³Ĥà²°", "à²¨à³ĩ"], ["iet", "y"], ["min", "i"], ["à°ªà±įà°ªà°Łà°¿à°ķ", "à°¿à°¨à±Ģ"], ["à¥ĩ", "à¤·"], ["min", "ed"], ["min", "ster"], ["mar", "ket"], ["pro", "stitutes"], ["pro", "ducing"], ["Ġà°¸à°¿à°Ĥà°§", "à±Ĥ"], ["wan", "i"], ["wan", "is"], ["wan", "athan"], ["à¤¾à¤", "ĩ"], ["ank", "ing"], ["ank", "ari"], ["Ġà°¸à±Įà°ķà°°à±įà°¯", "à°¾à°²à±ģ"], ["Ġà²ħà²§", "à²¿à²ķà³ĥ"], ["str", "ung"], ["alth", "ough"], ["Ġcar", "ry"], ["Ġcar", "bon"], ["Ġà°¸à±Įà°ķà°°à±įà°¯", "à°¾à°²à°²à±ĭ"], ["Ġcar", "rion"], ["Ġcar", "ried"], ["à¤¾à¤", "Ł"], ["Ġind", "efinite"], ["Ġinter", "est"], ["Ġinter", "vene"], ["Ġà°Ĳ", "à°ķà±įà°¯"], ["Ġinter", "vals"], ["Ġinter", "mittent"], ["Ġà²°à²¾à²ľ", "à²ķà³Ģà²¯"], ["Ġsm", "ooth"], ["Ġsm", "oking"], ["Ġprom", "ised"], ["Ġà°Ĳ", "à°°à±ĭà°ªà°¾"], ["Ġà¤ķ", "à¤®"], ["Ġprom", "otion"], ["Ġprom", "ulgation"], ["Ġprom", "ote"], ["Ġpenins", "ula"], ["Ġlow", "est"], ["Ġà°ĸ", "à°¨à°¿à°ľ"], ["Ġlower", "ed"], ["Ġref", "ined"], ["Ġref", "lect"], ["Ġà¤ķ", "à¥īà¤Ĥà¤Ĺà¥įà¤°à¥ĩà¤¸"], ["Ġref", "lected"], ["à²¿à²¸à²²à²¾à²Ĺ", "à²¿à²¦à³Ĩ"], ["à±įà°ķ", "à±ģ"], ["Ġnational", "ism"], ["amm", "a"], ["ĠSe", "e"], ["ĠSe", "ptember"], ["leg", "al"], ["Ġà°ªà°¦à±įà°§", "à°¤à°¿"], ["leg", "raph"], ["ĠPers", "ia"], ["à¥Ģ", "à¤¸"], ["Ġstat", "ues"], ["Ġstat", "uet"], ["Ġstat", "istics"], ["Ġà°¸à°¾à°°", "à±įà°µà°¤à±įà°°"], ["Ġexecut", "ives"], ["Ġcontin", "ue"], ["Ġà²ªà³įà²°à²®", "à³ģà²ĸ"], ["Ġcontin", "ental"], ["Ġadminist", "er"], ["Ġadminist", "rat"], ["Ġà°¸à°¾à°°", "à°¸à±įà°µà°¤"], ["à¥Ģ", "à¤²"], ["Ġadminist", "rative"], ["Ġsever", "e"], ["Ġsever", "ity"], ["Ġdecl", "ine"], ["Ġà°µà°²", "à°¨"], ["Ġdecl", "ined"], ["Ġdecl", "ining"], ["Ġdecl", "ares"], ["Ġpopular", "ity"], ["à¤¿à¤", "Ł"], ["Ġgener", "ic"], ["Ġà²¸à²¾à²²à²¿à²¨", "à²²à³įà²²à²¿"], ["Ġà°µà°²", "à°¸"], ["Ġgener", "ate"], ["Ġendem", "ics"], ["Ġearli", "er"], ["Ġtechnolog", "ical"], ["Ġorigin", "ated"], ["Ġà°¨à°Ĺ", "à°°"], ["ĠAndaman", "ese"], ["Ġz", "eb"], ["Ġz", "ones"], ["à¤¨", "à¥ĭà¤Ĥ"], ["Ġz", "one"], ["Ġz", "oog"], ["Ġà°ļà±Īà°¨", "à°¾"], ["Ġz", "ero"], ["35", "1"], ["Ġà²īà²ª", "à²¯à³ĭà²Ĺ"], ["ah", "ism"], ["adi", "ly"], ["eak", "ing"], ["Ġà°ļà±Īà°¨", "à°¾à°¨à±ģ"], ["sc", "uring"], ["Ġà¤®", "à¤¨"], ["sc", "heduled"], ["val", "li"], ["Ġtem", "ple"], ["Ġà°µà°¿à°¦", "à±ĩà°¶à±Ģ"], ["Ġtem", "perate"], ["Ġtrib", "es"], ["Ġtrib", "utaries"], ["redi", "ents"], ["Ġaff", "ected"], ["Ġà²īà²¤à³įà²ª", "à²¾à²¦"], ["Ġà¤ª", "à¤¡à¤¼"], ["Ġà°µà°¿à°¶", "à±įà°µ"], ["Ġob", "ser"], ["Ġob", "lig"], ["Ġob", "scuring"], ["Ġcur", "tailed"], ["Ġcivil", "isation"], ["Ġà°°à±Īà°²à±įà°µ", "à±ĩà°¶à°¾à°ĸ"], ["Ġwin", "ter"], ["Ġwin", "ning"], ["Ġindi", "vidual"], ["Ġà¤ª", "à¤°à¥įà¤µ"], ["Ġsa", "ute"], ["Ġsa", "fety"], ["Ġà°¸à±įà°µà°¾à°¤à°Ĥà°¤à±įà°°", "à±įà°¯à°Ĥ"], ["Ġsing", "ers"], ["Ġà²¶à³įà²°à³Ģ", "à²®à²Ĥà²¤"], ["Ġsch", "olars"], ["Ġbl", "ouse"], ["Ġbl", "urred"], ["Ġà°ķà±ĭà°°à±įà°Ł", "à±ģ"], ["Ġbl", "ock"], ["Ġmem", "bers"], ["à¤®", "à¤¾à¤£"], ["Ġfl", "anked"], ["Ġfl", "awed"], ["Ġfl", "anking"], ["Ġà°ķà±ĭà°°à±įà°Ł", "à±ģà°²à±ģ"], ["Ġfast", "er"], ["Ġfast", "est"], ["Ġfast", "ening"], ["Ġeth", "os"], ["Ġà²ķà³ĭà²Łà³įà²¯", "à²§à²¿à²ª"], ["Ġeth", "ically"], ["Ġà¤ħ", "à¤¸"], ["Ġà°ªà±įà°°à°ªà°Ĥà°ļà°Ĥà°²à±ĭ", "à°¨à°¿"], ["Ġeth", "nic"], ["Ġevery", "where"], ["Ġdomin", "ions"], ["Ġren", "dering"], ["Ġ13", "00"], ["Ġà°¨à°¿à°°à±įà°µà°¹", "à°¿à°Ĥà°ļà°¿à°Ĥà°¦à°¿"], ["Ġgar", "ments"], ["Ġglo", "bally"], ["ĠAf", "ghanistan"], ["à¤Ĥà¤", "ľ"], ["ĠAra", "vall"], ["ĠAra", "valli"], ["à°¤à±įà°°", "à°¿"], ["ĠBi", "osphere"], ["Ġà²Ĺà²£", "à²°à²¾à²ľà³įà²¯"], ["ĠBhar", "atiya"], ["ĠBrahm", "in"], ["ĠBrahm", "anism"], ["Ġà°ªà°¦", "à°µà°¿"], ["ĠBrahm", "agup"], ["amp", "les"], ["Ġà¤¨", "à¤¿à¤"], ["Ġconduc", "t"], ["Ġstr", "ucture"], ["Ġstr", "ategic"], ["ĠPro", "file"], ["Ġdist", "ance"], ["Ġdist", "inc"], ["Ġdist", "rict"], ["Ġann", "exe"], ["Ġà²²à³ĭà²ķà²¸à²Ń", "à³Ĩ"], ["ays", "ia"], ["Ġà°Ńà±Ĥ", "à°Łà°¾à°¨à±į"], ["à¤ª", "à¥Ĥ"], ["Ġvari", "ed"], ["Ġvari", "ations"], ["Ġvari", "ety"], ["Ġdef", "ence"], ["Ġdef", "ined"], ["Ġà°Ńà±Ĥ", "à°Ńà°¾à°Ĺà°Ĥ"], ["Ġdef", "ining"], ["Ġchar", "ts"], ["Ġchar", "tered"], ["Ġà¤ªà¥įà¤°", "à¤¤"], ["Ġprot", "agonists"], ["Ġà°°à±Ĥà°ª", "à°¾à°Ĥà°¤à°°"], ["Ġprot", "ectionist"], ["ĠRaj", "ya"], ["Ġà²¹à³ĭà²²", "à²¿à²ķà³Ĩ"], ["Ġplain", "ly"], ["ĠKashm", "iri"], ["Ġcomple", "ted"], ["à°°à±įà°ľ", "à°¾à°¤à±Ģà°¯"], ["Ġcomple", "te"], ["Ġcomple", "mented"], ["Ġà¤ªà¥įà¤°", "à¤¾à¤ªà¥įà¤¤"], ["Ġresp", "ectively"], ["Ġresp", "ective"], ["Ġresp", "onsible"], ["à°°à±įà°·", "à°£"], ["Ġconsid", "ered"], ["Ġconsid", "ering"], ["Ġcaus", "es"], ["Ġcaus", "ing"], ["Ġà³¨à³¦à³§à³", "ª"], ["Ġcourt", "esans"], ["Ġà°¨à±įà°¯à°¾à°¯", "à°µà±įà°¯à°µà°¸à±įà°¥"], ["Ġà¤¸à¥ĩ", "à¤¨à¤¾"], ["Ġestim", "ating"], ["Ġestabl", "ishment"], ["Ġsignificant", "ly"], ["Ġemploy", "ing"], ["Ġà°ĩà°µ", "à°¿à°ķ"], ["Ġemploy", "ment"], ["Ġgroup", "ings"], ["Ġsurv", "ive"], ["Ġsurv", "ived"], ["Ġà¤¶", "à¤¤"], ["Ġsurv", "iving"], ["Ġà°Ĺà±ĭ", "à°¦à°¾à°µ"], ["work", "er"], ["Ġbirth", "place"], ["Ġà²¹à³Ĩà²¸à²°à²¿à²¨", "à²¿à²Ĥà²¦"], ["Ġdiffer", "ences"], ["Ġlegisl", "ation"], ["Ġlegisl", "ative"], ["Ġà°µà°¿à°¸à±įà°¤", "à±Ģà°°à±įà°£"], ["Ġlegisl", "atures"], ["Ġrock", "y"], ["Ġà¤ªà¤°", "à¤®à¤¾à¤£"], ["ĠPersian", "ised"], ["ĠY", "amun"], ["Ġve", "hic"], ["Ġà°²à°ķà±įà°·", "à°£"], ["Ġqu", "ite"], ["Ġqu", "ality"], ["Ġqu", "arter"], ["Ġà²Ńà²¾à²·à³Ĩ", "à²Ĺà²³à²¨à³įà²¨à³ģ"], ["Ġqu", "adrup"], ["30", "8"], ["Ġà°²à±ĭà°ķ", "à±į"], ["Ġà¤¸à¤Ĥà¤", "Ĺ"], ["42", "2"], ["42", "3"], ["42", "8"], ["cast", "s"], ["ie", "vement"], ["te", "enth"], ["ti", "er"], ["Ġà°²à±ĭà°ķ", "à±įâĢĮà°¸à°Ń"], ["tic", "oat"], ["Ġtur", "n"], ["Ġà¤ľà¤¾à¤¤", "à¥Ģ"], ["Ġtur", "meric"], ["Ġtax", "ation"], ["Ġtax", "pay"], ["Ġà°ļà±Ĩà°Ĥà°¦", "à°¾à°¯à°¿"], ["inc", "ome"], ["Ġacc", "ommod"], ["Ġacc", "ompanied"], ["dis", "crimin"], ["Ġà²µà³įà²¯à²µà²¸", "à³įà²¥à³Ĩà²¯à²¨à³įà²¨à³ģ"], ["Ġà°ļà±Ĩà°Ĥà°¦", "à±ģà°¤à±ģà°¨à±įà°¨"], ["Ġcan", "on"], ["Ġà¤¸à¥įà¤¥", "à¤¾à¤¨"], ["Ġcan", "als"], ["Ġcan", "alled"], ["Ġcan", "opy"], ["Ġche", "ap"], ["Ġà°°à°¾à°ľà±įà°¯à°¾à°²à±ģ", "à°Ĺà°¾"], ["Ġche", "cked"], ["..", "."], ["Ġwrit", "ing"], ["Ġwear", "er"], ["Ġà¤Ĺà¤£", "à¤°à¤¾à¤ľà¥įà¤¯"], ["Ġwaist", "line"], ["Ġso", "jour"], ["Ġsum", "mary"], ["Ġà²µà²°à³įà²·", "à²ķà³įà²ķà³Ĩ"], ["Ġà°¸à°¾à°®à±įà°°à°¾à°ľ", "à±įà°¯à°Ĥ"], ["Ġbor", "der"], ["Ġbor", "ne"], ["Ġbody", "guard"], ["Ġpract", "ice"], ["Ġman", "agement"], ["Ġà¤®à¥ģà¤ĸ", "à¥įà¤¯"], ["Ġà°Ĩà°§à°¾à°°", "à°ªà°¡à°¿à°¨"], ["Ġmon", "key"], ["Ġmon", "tan"], ["Ġmult", "ilingual"], ["Ġfam", "ine"], ["Ġfam", "ines"], ["Ġà°¬à±įà°°à°¿à°Łà°¿à°·", "à±į"], ["Ġlo", "yalty"], ["Ġlay", "ered"], ["Ġà²¸à²¿à²°à²¿à²µà²Ĥà²¤", "à²°à³ģ"], ["Ġequ", "ates"], ["Ġà¤ľà¤¨à¤ľà¤¾à¤¤", "à¤¿"], ["Ġequ", "ival"], ["Ġequ", "ator"], ["Ġà°¬à±įà°°à°¿à°Łà°¿à°·", "à±ģ"], ["Ġequ", "alling"], ["Ġder", "ives"], ["Ġder", "ived"], ["Ġder", "iving"], ["Ġà°ªà°¶à±įà°ļà°¿à°®", "à°¾à°¨"], ["Ġder", "ecog"], ["Ġret", "reat"], ["Ġà¤ªà¤°à¤®à¤¾à¤£", "à¥ģ"], ["Ġ14", "0"], ["Ġnat", "ural"], ["Ġnear", "ly"], ["Ġà²ķà³ĩà²Ĥà²¦", "à³įà²°à²¾à²¡à²³à²¿à²¤"], ["Ġà°¸à°Ĥà°µà°¤à±įà°¸", "à°°"], ["ĠAr", "t"], ["ĠAr", "chived"], ["ĠAr", "dhanar"], ["ĠAr", "undale"], ["ĠPar", "che"], ["ĠPar", "vati"], ["à¥įà¤", "¡"], ["Ġste", "eper"], ["à°°à±ĩà°", "¡à±ģ"], ["Ġste", "adily"], ["Ġexc", "lus"], ["Ġexc", "ursions"], ["Ġexch", "anged"], ["ĠGup", "tas"], ["à±Ģà°ķ", "à°°à°£"], ["ĠGree", "ks"], ["ĠGuj", "ral"], ["Ġà¤ķ", "à¥ģà¤"], ["ĠGuj", "arati"], ["ĠDe", "ve"], ["ĠDe", "vi"], ["Ġà°¸à°¹", "à°¸à±įà°°"], ["Ġà²ħà²®à³Ĩà²°", "à²¿à²ķà²¨à³į"], ["ĠDe", "van"], ["ĠDe", "velopment"], ["ĠDes", "ai"], ["ĠDec", "lar"], ["à¤Ĥ", "à¤¤"], ["ĠAss", "amese"], ["Ġà°¸à±Īà°¨", "à°¿à°ķ"], ["ĠWest", "minster"], ["Ġintro", "duction"], ["Ġprov", "ide"], ["Ġprov", "ince"], ["Ġà°¸à°®à±ģà°¦", "à±įà°°à°¤à±Ģ"], ["Ġprov", "ision"], ["Ġprov", "incial"], ["à¤¿à¤", "ª"], ["Ġproduc", "tion"], ["à²²à²¾à²°à²Ĥà²Ńà²¿à²¸à²¿à²¦", "à²°à³ģ"], ["Ġproduc", "tivity"], ["Ġprocess", "es"], ["Ġà°ķà°¨à±įà°¨", "à°¡"], ["Ġpartition", "ed"], ["Ġplate", "au"], ["ĠFore", "st"], ["ĠFore", "casts"], ["Ġshow", "ing"], ["à¤¿à¤", "¹"], ["Ġà°ķà±ģà°²", "à°¾à°²à±ģ"], ["Ġsupp", "lied"], ["Ġsupp", "ressed"], ["Ġsupp", "lying"], ["Ġsupp", "lier"], ["Ġconsolid", "ation"], ["Ġà°ķà°¿à°Ĥà°¦", "à°ķà±ģ"], ["Ġà²¨à²¾à²²à³įà²ķ", "à³ģ"], ["Ġconsolid", "ate"], ["Ġconsolid", "ated"], ["Ġà¤¸", "à¤¿"], ["Ġconsolid", "ations"], ["Ġpoll", "ing"], ["Ġà°ķà°¥", "à°ķ"], ["Ġpoll", "uted"], ["Ġhead", "s"], ["Ġhead", "ed"], ["Ġdisput", "ed"], ["Ġscri", "pts"], ["à°®à±ĩà°¨", "à°¨à°¿"], ["à¤¾à¤°", "à¤¿à¤ķ"], ["Ġsociet", "ies"], ["ĠConstit", "uted"], ["Ġextens", "ion"], ["Ġà²¨à²¾à²Ĺà²°à³Ģà²ķà²¤", "à³Ĩà²¯"], ["Ġextens", "ive"], ["ĠMaur", "yan"], ["Ġà°®à±Ģ", "à°¦à°Ĺà°¾"], ["Ġcrust", "al"], ["Ġcapit", "al"], ["Ġarchitect", "ural"], ["à¤®", "à¤¾"], ["Ġsmall", "er"], ["Ġcommercial", "isation"], ["Ġà°®à±Į", "à°°à±įà°¯"], ["Ġcurren", "t"], ["Ġrenew", "al"], ["Ġrenew", "ed"], ["ĠBharat", "nat"], ["ĠBharat", "avarsha"], ["Ġà°Ńà±Į", "à°Ĺà±ĭà°³"], ["Ġà²¬à³Ĩà²Ĥà²Ĺà²³à³Ĥà²°", "à³ģ"], ["Ġà¤ħ", "à¤°à¤¬"], ["Ġdifferent", "iation"], ["Ġir", "on"], ["Ġir", "reg"], ["Ġir", "rigation"], ["à°µà°ļà±įà°ļ", "à±ģ"], ["200", "1"], ["200", "4"], ["200", "9"], ["Ġà¤¨", "à¤¦"], ["In", "dian"], ["co", "oked"], ["des", "ignated"], ["des", "cription"], ["Ġà°ªà±įà°°à°¾à°°à°Ĥà°Ń", "à°¿à°Ĥà°ļ"], ["ii", "i"], ["08", "3"], ["iqu", "itous"], ["nam", "on"], ["nam", "ic"], ["à¤ª", "à¥įà¤°"], ["pur", "i"], ["Ġà°īà°Ĥà°¡", "à°Łà°Ĥ"], ["pend", "ing"], ["rat", "ri"], ["ser", "ving"], ["set", "tled"], ["Ġte", "ams"], ["Ġà°¨à°¿à°¯", "à°®à°¿à°Ĥà°ļà°¬à°¡"], ["Ġte", "achings"], ["à¤¦", "à¤²"], ["Ġte", "legraph"], ["Ġtest", "ing"], ["Ġà²ªà²¡", "à³Ĩà²¯à²¿à²¤à³ģ"], ["Ġtak", "en"], ["Ġtak", "es"], ["Ġà°¨à±ĩà°ª", "à°¾à°²à±į"], ["Ġtak", "ing"], ["onom", "y"], ["reg", "ulated"], ["à¥įà¤¤", "à¥ģ"], ["Ġopp", "osed"], ["Ġopp", "osing"], ["Ġà°ĩà°Ĥà°Ĺà±įà°²", "à±Ģà°·à±ģ"], ["Ġopp", "osition"], ["Ġcal", "cul"], ["Ġcor", "al"], ["Ġcor", "iand"], ["Ġà°Ĩà°¹", "à°¾à°°à°Ĥ"], ["Ġà²ªà²°à²¿à²¸", "à³įà²¥"], ["Ġcor", "dial"], ["Ġcle", "an"], ["Ġà¤ªà¥įà¤°", "à¤Ń"], ["Ġcrit", "ical"], ["Ġcrit", "ically"], ["Ġcrit", "eria"], ["Ġà°¤à°¿à°°", "à±ģà°Ĺà±ģ"], ["Ġcos", "mop"], ["Ġinst", "ances"], ["Ġinst", "ead"], ["Ġinst", "ruments"], ["Ġà¤Ĺ", "à¤Ī"], ["Ġinit", "ially"], ["Ġà°Ĺà°£", "à°¤à°Ĥà°¤à±įà°°"], ["Ġinstitution", "alised"], ["Ġsil", "k"], ["Ġà²ķà³Ĭà²³à³įà²³", "à³ģà²µ"], ["Ġsil", "t"], ["Ġsil", "ver"], ["Ġsim", "ple"], ["à°Ńà°¾à°°à°¤", "à°¦à±ĩà°¶à°Ĥ"], ["Ġsav", "ed"], ["Ġà¤²", "à¤¿à¤¯à¥ĩ"], ["Ġslow", "ly"], ["Ġsix", "th"], ["Ġsix", "teenth"], ["Ġà°¬à°Ĥà°Ĺ", "à°¾à°°à±ģ"], ["Ġbu", "ffalo"], ["Ġband", "han"], ["Ġband", "hgala"], ["Ġbri", "de"], ["Ġpat", "ril"], ["à¥įà¤µ", "à¥Ģà¤ª"], ["Ġà²ķà³ģà²°à³ģ", "à²¹à³ģ"], ["Ġà°¹à±Ī", "à°¦à°°"], ["Ġpor", "ts"], ["Ġpet", "roleum"], ["Ġpet", "rochemical"], ["Ġpet", "ticoat"], ["Ġpers", "on"], ["Ġà°ķà±Ĥà°¡à±ģà°ķà±ģ", "à°¨à°¿"], ["Ġpers", "ist"], ["Ġpers", "istent"], ["Ġà¤¯", "à¥ģà¤¦à¥įà¤§"], ["Ġmin", "or"], ["Ġmin", "ority"], ["Ġmin", "iature"], ["Ġà°ªà°°à°¿à°ªà°¾à°²", "à°¨"], ["Ġmig", "rating"], ["Ġmerch", "andi"], ["à²ķà³ĭà²Ł", "à²¿"], ["Ġfra", "gment"], ["Ġfem", "ale"], ["à¤£", "à¥įà¤¡"], ["Ġà°Ńà°¾à°µ", "à°¿à°¸à±įà°¤à°¾à°°à±ģ"], ["Ġfall", "s"], ["Ġfact", "ors"], ["Ġlim", "it"], ["Ġlik", "ely"], ["Ġeff", "ect"], ["Ġà°ľà°¨à°Ĺà°£", "à°¨"], ["Ġeff", "ectively"], ["Ġeff", "ects"], ["Ġeight", "een"], ["Ġà¤ļ", "à¤²"], ["Ġhy", "dro"], ["Ġhig", "her"], ["Ġà²µà²¿à²Ĥà²", "Ĺà²¡"], ["Ġà°µà±įà°¯à°¾à°ª", "à°¾à°°"], ["ĠTem", "peratures"], ["Ġdri", "ve"], ["Ġdri", "ving"], ["Ġdri", "ft"], ["Ġ11", "3"], ["Ġà°İà°¨à±įà°¨à°¿à°ķ", "à°²à±įà°²à±ĭ"], ["à¤Ń", "à¤¾"], ["Ġnomin", "ated"], ["ĠAk", "ademi"], ["olit", "an"], ["ĠCl", "othing"], ["ĠBh", "angra"], ["Ġà°ķà°²à°¿à°¸", "à°¿"], ["ĠBh", "utan"], ["ĠBh", "akti"], ["Ġà²µà³Ĩà²²", "à³įà²¤à³įâĢĮ"], ["à¥įà¤¦", "à¥Ģ"], ["ĠShe", "khar"], ["Ġisol", "ates"], ["Ġà°°à°¾à°ľà±įà°¯à°¾à°Ĥà°Ĺ", "à°Ĥ"], ["Ġ25", "00"], ["ime", "dia"], ["Ġthreat", "s"], ["ĠMal", "dives"], ["ĠMal", "ayalam"], ["Ġà°ıà°°à±įà°ªà°¡à±įà°¡", "à°¾à°¯à°¿"], ["ĠMal", "aysia"], ["Ġà¤¸à¤®", "à¤¾à¤ľ"], ["Ġbelief", "s"], ["Ġconce", "pt"], ["Ġconce", "pts"], ["Ġà²µà²¾à²£", "à²¿à²ľà³įà²¯"], ["Ġconce", "aled"], ["Ġà°®à±Ĭà°¦à°²à±Īà°¨", "à°µà°¿"], ["ĠPro", "ject"], ["ĠPro", "gressive"], ["ĠPro", "tection"], ["Ġà¤ħà¤¨", "à¥įà¤¤"], ["Ġmoist", "ure"], ["ĠEx", "ternal"], ["Ġà°µà°¿à°¦à±įà°¯", "à±ģà°¤à±į"], ["ĠEx", "panding"], ["ĠEx", "amples"], ["ĠEconom", "ic"], ["ĠEuras", "ian"], ["Ġà°ªà±įà°°à°¤à°¿à°ªà°¾à°¦à°¨", "à°ķà±ģ"], ["Ġextin", "ction"], ["Ġà¤¸à¥įà¤¥", "à¤¾à¤ª"], ["Ġdiv", "isions"], ["Ġà²ħà²¤à³įà²¯", "à²Ĥà²¤"], ["ĠGeograph", "ic"], ["Ġorgan", "ised"], ["ĠDal", "it"], ["Ġà°¸à±Ĥà°ļ", "à°¿à°Ĥà°ļà°¿à°¨à°Łà±įà°²à±ģ"], ["ĠDal", "hous"], ["ĠDemoc", "racy"], ["Ġunit", "s"], ["Ġvi", "ewed"], ["Ġà¤ľà¤¿à¤¸", "à¤®à¥ĩà¤Ĥ"], ["Ġvis", "it"], ["Ġà°Ĩà°«à±įà°ĺ", "à°¨"], ["Ġvis", "ited"], ["Ġvis", "ible"], ["Ġvarn", "as"], ["Ġvict", "ory"], ["Ġà²°à³Ĥà²", "ª"], ["Ġdefe", "at"], ["Ġà°ķà°¾à°°à±įà°¯à°ķà±įà°°à°®", "à°¾à°²à±ģ"], ["Ġpartic", "ip"], ["Ġà¤ķà¥įà¤·à¥ĩà¤¤à¥įà¤°", "à¥Ģà¤¯"], ["ĠRe", "port"], ["ĠRe", "organ"], ["ĠRe", "volution"], ["Ġspeak", "ing"], ["Ġà°ªà±Ģà°ł", "à°Ńà±Ĥà°®"], ["Ġadop", "ting"], ["Ġclim", "ate"], ["Ġsep", "arated"], ["à¤ķà¥įà¤¤", "à¤¿"], ["Ġmarked", "ly"], ["Ġà°ķà°Ĥà°ªà±Ĩ", "à°¨à±Ģ"], ["ĠKal", "inga"], ["ĠKal", "ighat"], ["Ġà²¦à³ĥ", "à²·à³įà²Łà²¿à²¯à²¿à²Ĥà²¦"], ["ĠKal", "arippayat"], ["ĠVa", "isak"], ["ĠVa", "igai"], ["bo", "ok"], ["ĠVa", "ishya"], ["Ġà¤ªà¤¹", "à¤²à¥ĩ"], ["Ġsho", "ok"], ["Ġreser", "ve"], ["Ġreser", "ved"], ["Ġà°¦à°¾à°¦à°¾à°ª", "à±ģ"], ["Ġreser", "ves"], ["Ġsuppl", "ies"], ["Ġconsum", "er"], ["ĠLank", "a"], ["Ġà²ªà³įà²°à²¾à²ļà³Ģ", "à²¨"], ["Ġà¤µà¤°à¥įà¤·", "à¥ĭà¤Ĥ"], ["Ġheredi", "ty"], ["Ġà°ľà°°à±ģà°ª", "à±ģà°ķà±ģà°Ĥà°Łà°¾à°°à±ģ"], ["Ġimpro", "ved"], ["Ġimpro", "vement"], ["Ġimpro", "vis"], ["Ġdispl", "ay"], ["Ġà°¶à±Ĩà°²à°µà±ģ", "à°¦à°¿à°¨à°¾à°²à±ģ"], ["Ġdispl", "aced"], ["Ġdispl", "ayed"], ["Ġà¤¬à¤¹à¥ģ", "à¤®"], ["Ġserv", "ants"], ["Ġrecogn", "ition"], ["Ġrecogn", "ised"], ["Ġà°¹à°¿à°®à°¾à°²", "à°¯"], ["Ġrecogn", "ises"], ["Ġrailw", "ay"], ["Ġà²¤à²Ĥà²¤à³įà²°à²ľ", "à³įà²ŀà²¾à²¨"], ["Ġappear", "ance"], ["Ġexpans", "ions"], ["Ġexpress", "ing"], ["à¤¾à¤¬", "à¥įà¤¦à¥Ģ"], ["¢à°¾à°ķ", "à°¾"], ["Ġ185", "7"], ["Ġsetting", "s"], ["201", "0"], ["201", "3"], ["201", "4"], ["Ġcoll", "ision"], ["Ġcoll", "arles"], ["à¤¨à¥įà¤¦", "à¥įà¤°"], ["à°²à±ĩ", "à°¦à±ģ"], ["Ġcoll", "aboration"], ["Ġassoci", "ate"], ["à³Ĩà²²à²¿à²Ĺà³įà²°à²¾à²", "Ĥ"], ["Ġenter", "pr"], ["Ġdevotion", "al"], ["Ġrefer", "ence"], ["Ġà°ªà°µ", "à°¿à°¤à±įà°°"], ["Ġrefer", "red"], ["Ġrefer", "ring"], ["Ġà¤µà¤¿à¤ķ", "à¤¾à¤¸"], ["Ġtemp", "ered"], ["Ġcharacter", "ised"], ["Ġconsider", "able"], ["Ġà°ªà°ķà±įà°ķ", "à°¨"], ["Ġveget", "ables"], ["Ġveget", "arian"], ["Ġveget", "arians"], ["Ġà²µà²¿à²¶à³įà²µ", "à²¦"], ["Ġmanuscri", "pts"], ["à°ķà°¾à°¤", "à°¾"], ["Ġmulti", "ple"], ["Ġà¤¸à¤Ĥà¤¸", "à¤¦"], ["Ġloose", "ly"], ["Ġretur", "n"], ["Ġscript", "ure"], ["Ġbroad", "ly"], ["Ġà°¸à±įà°¤", "à±įà°°à±Ģà°²à±ģ"], ["Ġpredomin", "ate"], ["Ġpredomin", "ates"], ["Ġpredomin", "antly"], ["Ġà¤ĵ", "à¤°"], ["Ġliberal", "ise"], ["Ġhabit", "ats"], ["Ġà°¸à±ģà°ª", "à±įà°°à±Ģà°Ĥ"], ["ĠPallav", "a"], ["Ġà²µà³įà²¯à²¾à²ª", "à²¾à²°"], ["Ġro", "ot"], ["Ġro", "yalty"], ["Ġide", "as"], ["Ġide", "ological"], ["Ġà°ķà°¨à±ģ", "à°®à°²à±ģ"], ["Ġà¤ªà¥įà¤°à¤§à¤¾à¤¨", "à¤®à¤Ĥà¤¤à¥įà¤°à¥Ģ"], ["21", "0"], ["PP", "P"], ["cover", "y"], ["cover", "ing"], ["dd", "en"], ["Ġà°ķà±ĥ", "à°·à±įà°£"], ["dd", "led"], ["dro", "p"], ["down", "tro"], ["Ġà¤¬à¥įà¤°", "à¤¿à¤Ł"], ["Ġà²¬à³Ĩà²³à²µà²£", "à²¿à²Ĺà³Ĩ"], ["eth", "nic"], ["Ġà°ķà°³", "à°²à±ģ"], ["east", "ward"], ["fl", "ats"], ["fl", "ung"], ["fast", "est"], ["lid", "ing"], ["Ġà°ķà°¿à°²à±ĭ", "à°®à±Ģà°Ł"], ["sp", "ecific"], ["Ġà¤¨à¥ĩà¤¤à¥ĥà¤¤", "à¥įà¤µ"], ["sp", "eaking"], ["tr", "ine"], ["tell", "ing"], ["uk", "kut"], ["Ġà°ķà°¬à°¡", "à±įà°¡"], ["ËĪ", "bÊ"], ["Ġà²µà²°à³įà²²à³įà²¡", "à³įâĢĮ"], ["Ġtun", "ic"], ["Ġtun", "ics"], ["Ġà¤¶à¤¤", "à¤¾à¤¬à¥įà¤¦à¥Ģ"], ["head", "ed"], ["Ġaut", "omot"], ["Ġà°ķà°¾à°ª", "à°¾à°¡à±ģà°ķà±ģà°Ĥà°Ł"], ["Ġaut", "onomy"], ["div", "ine"], ["div", "ide"], ["atak", "a"], ["Ġà°µà°¾à°¯", "à±ģ"], ["Ġcin", "ema"], ["Ġcin", "namon"], ["Ġ", ","], ["Ġcust", "om"], ["Ġcust", "oms"], ["Ġà²ħà²§à²¿à²ķà³ĥ", "à²¤"], ["Ġcuis", "ine"], ["Ġà°µà±Ĩà°²", "à±įà°²"], ["Ġcuis", "ines"], ["ĠIm", "mediately"], ["ĠIm", "portant"], ["Ġ", "-"], ["ĠInc", "reasing"], ["ĠInc", "reasingly"], ["Ġwet", "lands"], ["Ġing", "ested"], ["Ġà°®à°¾à°Ł", "à±įà°²à°¾à°¡"], ["Ġing", "redients"], ["Ġinno", "vative"], ["Ġinno", "vations"], ["à¤", "ĥ"], ["Ġsw", "athes"], ["Ġ", "/"], ["Ġsw", "ift"], ["Ġà°®à°²à°¯", "à°¾à°³à°Ĥ"], ["Ġshe", "ared"], ["Ġshe", "ets"], ["Ġsuc", "ceed"], ["Ġsuc", "cessful"], ["à¥", "¯"], ["Ġsiz", "e"], ["1", "21"], ["à±Ĩà°¡", "à±į"], ["Ġsiz", "es"], ["Ġban", "ned"], ["Ġbal", "ance"], ["Ġbal", "anced"], ["Ġbar", "k"], ["Ġà°°à°ļ", "à°¯à°¿à°¤"], ["1", "000000"], ["Ġbar", "ley"], ["à¤°", "à¥Ĥà¤ª"], ["Ġback", "drop"], ["Ġbreak", "down"], ["Ġbreak", "fast"], ["Ġà°ªà±įà°°à°¸", "à°¿à°¦à±įà°§à°¿"], ["Ġpur", "sue"], ["Ġpur", "chasing"], ["2", "6"], ["Ġpil", "ed"], ["Ġpil", "af"], ["à¥įà¤", "£"], ["Ġpul", "ses"], ["Ġà°ªà±įà°°à°¯à±ĭ", "à°ľ"], ["Ġpul", "monary"], ["Ġple", "ated"], ["Ġple", "asures"], ["3", "3"], ["Ġpast", "ime"], ["Ġpast", "oral"], ["Ġà°Ńà°¾à°°à°¤à±įâĢĮ", "à°²à±ĭ"], ["Ġpot", "tery"], ["Ġà¤ķ", "à¤¿"], ["Ġpass", "es"], ["Ġpass", "ages"], ["Ġport", "foli"], ["4", "000"], ["Ġport", "raits"], ["Ġà°ħà°Ĥà°¤", "à°°à±įà°ľà°¾à°¤à±Ģà°¯"], ["Ġmand", "ate"], ["Ġmand", "ating"], ["Ġmix", "ed"], ["Ġà¤ķ", "à¤¾à¤²"], ["Ġmix", "ture"], ["Ġà°ħà°®à±Ĩ", "à°°à°¿à°ķà°¾"], ["Ġfil", "m"], ["6", "00"], ["Ġfil", "ms"], ["Ġfest", "ive"], ["Ġfest", "ival"], ["Ġfac", "es"], ["ĠCoun", "try"], ["Ġfac", "ilitated"], ["Ġà¤ķ", "à¤¿à¤¨"], ["Ġfav", "our"], ["7", "6"], ["Ġfav", "oured"], ["Ġfash", "ion"], ["Ġfash", "ions"], ["Ġà°ľà°®à±įà°®", "à±Ĥ"], ["Ġling", "ered"], ["Ġling", "uistic"], ["Ġlab", "el"], ["7", "7"], ["Ġà¤ķ", "à¥ģà¤²"], ["Ġlab", "our"], ["Ġliber", "ty"], ["Ġà°¨à±Ĩà°²", "à°ķà±Ĭ"], ["Ġliber", "ties"], ["Ġevol", "ved"], ["Ġevol", "ving"], ["Ġemb", "roid"], ["9", "3"], ["Ġemb", "odiment"], ["Ġhost", "s"], ["à¤¿à¤", "·"], ["ĠTer", "ritory"], ["Ġà°¨à°¿à°¡", "à°¿à°µ"], ["ĠTer", "ukkut"], ["Ġdh", "oti"], ["Ġdh", "amma"], ["u", "ly"], ["Ġdy", "nast"], ["Ġdy", "namic"], ["Ġà°¨à°¿à°ªà±ģ", "à°£à±ģà°²à±ģ"], ["Ġà¤¸", "à¤¾à¤²"], ["Ġdest", "ruc"], ["Ġdest", "inations"], ["Ġdem", "and"], ["Ġdem", "arcation"], ["ħ", "à²Ĥà²"], ["Ġdoc", "ument"], ["Ġà°ļà±Ĥà°¡", "à°Ĥà°¡à°¿"], ["Ġdoc", "trine"], ["Ġdesc", "ended"], ["Ġà¤¸", "à¤°à¥įà¤µ"], ["Ġdesc", "ribes"], ["Ġrest", "rictions"], ["Ġà°ļà°¦à°°", "à°Ĥà°Ĺ"], ["Ġrece", "ive"], ["Ĩ", "à²°à³įà²¯"], ["Ġrece", "ived"], ["Ġrept", "ile"], ["Ġrept", "iles"], ["Ġà¤®", "à¥Į"], ["Ġrelief", "s"], ["à±įà°Łà±ĭà°°", "à°²à±į"], ["Ġnet", "work"], ["Ġnet", "works"], ["ī", "à²¦"], ["Ġgro", "om"], ["Ġgro", "omsmen"], ["Ġgovern", "ed"], ["Ġà°Ĺà±Ĩà°²à±ģ", "à°ļà±ģà°ķà±ĭà°µ"], ["Ġgovern", "ing"], ["Ġà¤ª", "à¥ģà¤°"], ["Ġgeograph", "ical"], ["Ġgeograph", "ically"], ["ĭ", "à²¤à³įà²¯"], ["Ġgeolog", "ic"], ["Ġgeolog", "ically"], ["Ġà°¬à±Į", "à°¦à±įà°§"], ["ĠAc", "ross"], ["ĠAc", "ademi"], ["ĠAt", "las"], ["à¥Ī", "à¤²"], ["ķ", "à³į"], ["ĠBal", "och"], ["Ġà°İà°²à°ķ", "à±įà°Łà±ĭà°°à°²à±į"], ["ĠBal", "asaras"], ["ĠBah", "Ã¡"], ["ĠBah", "adur"], ["ĠSant", "al"], ["ĠSant", "ali"], ["Ġà°¶à°¾à°¸", "à°¨"], ["Ġà¤Ń", "à¤¾à¤Ĺ"], ["ķ", "à²¾"], ["ĠSarn", "aism"], ["ĠSarn", "ath"], ["Ġrati", "o"], ["Ġrati", "os"], ["ĠMarat", "hi"], ["ĠFact", "book"], ["ķ", "à³įà²·"], ["ĠMarat", "has"], ["à¤®", "à¤¿à¤²"], ["Ġstri", "dent"], ["Ġstri", "ke"], ["Ġstif", "f"], ["Ġà°Īà°¶", "à°¾à°¨à±įà°¯"], ["Ġstif", "fer"], ["ĠEl", "ections"], ["Ĺ", "à³įà²°à²¾à²"], ["ĠEl", "lor"], ["Ġà¤ľ", "à¤¾à¤¨"], ["Ġexerc", "ised"], ["Ġà°ªà°°à±įà°¯à°¾à°¯", "à°¾à°²à±ģ"], ["Ġexerc", "ises"], ["Ġanatom", "y"], ["Ġanatom", "ically"], ["ĠDis", "aff"], ["Ĺ", "à³ĭà²³"], ["ĠDis", "covery"], ["Ġà°²à±Įà°ķ", "à°¿à°ķ"], ["ĠNi", "hÃ"], ["Ġà¤ľ", "à¤¬"], ["ĠNi", "amtre"], ["ĠNet", "work"], ["ĠNet", "works"], ["ĠNew", "s"], ["Ġà°®à±ģà°¸à±įà°²", "à°¿à°Ĥ"], ["ĺ", "à²²"], ["ĠNew", "ly"], ["ĠNep", "al"], ["ĠNep", "ali"], ["à¤ª", "à¤¾à¤²"], ["Ġ(\"", "..."], ["Ġvary", "ing"], ["Ġà°¸à±įà°¥à°¾à°µ", "à°°à°¾à°²à±ģ"], ["Ġvolcan", "ic"], ["ļ", "à²¿à²¤"], ["Ġvolcan", "ism"], ["Ġchap", "ati"], ["Ġchap", "ters"], ["Ġà¤°", "à¤ķà¥įà¤·à¤¾"], ["Ġproj", "ected"], ["Ġà°ıà°ªà±įà°°", "à°¿à°²à±į"], ["Ġproj", "ections"], ["Ġcontra", "vene"], ["ļ", "à³ģà²Ĺ"], ["Ġcontra", "sting"], ["Ġattract", "ing"], ["Ġà°İà°¨à±įà°¨à±ģà°ķà±ĭ", "à°¬à°¡à°¤à°¾à°°à±ģ"], ["Ġattract", "ive"], ["Ġregist", "ers"], ["à¥Ĥ", "à¤°"], ["Ġregist", "ered"], ["ĠChand", "ra"], ["ľ", "à³įà²ŀà²¾à²¨"], ["ĠChol", "a"], ["Ġà°ªà°¾à°°à±įà°²à°®à±Ĩ", "à°Ĥà°Ł"], ["ĠChol", "as"], ["ĠChamp", "ion"], ["ĠChamp", "ions"], ["à¤µ", "à¥įà¤¯"], ["Ġsubduc", "t"], ["Ġsubduc", "tion"], ["Ŀ", "à³Ĭ"], ["Ġà°ķà±ĭà°²à±įâĢĮ", "à°ķà°¾à°¤à°¾"], ["Ġagree", "ment"], ["Ġagree", "ments"], ["Ġmarry", "ing"], ["Ġelect", "rical"], ["Ġelect", "ricity"], ["Ġà°¸à°¾à°Ĥà°ķà±ĩà°¤", "à°¿à°ķ"], ["à¥ģà¤", "Ĺ"], ["ĠVis", "ual"], ["Ł", "à²¦"], ["ĠVis", "wanathan"], ["Ġcompos", "ite"], ["Ġcompos", "itions"], ["Ġà°īà°ªà°¯à±ĭ", "à°Ĺ"], ["Ġshalw", "ar"], ["Ġshalw", "ars"], ["Ġartic", "les"], ["à¥ģà¤", "·"], ["Ł", "à³Ĩà²²à²¿à²Ĺà³įà²°à²¾à²Ĥ"], ["Ġartic", "ulating"], ["Ġ34", "3"], ["Ġà°®à°¹à°¾à°¤à±įà°®", "à°¾"], ["ĠOver", "view"], ["ĠOut", "line"], ["ĠOut", "side"], ["Ġmedic", "ine"], ["¡", "à²¿à²°à³ģà²µ"], ["à¤¼", "à¥Ģ"], ["Ġmedic", "ines"], ["Ġà°®à°¹à°¾à°¸à°®à±ģà°¦", "à±įà°°à°Ĥ"], ["ĠLat", "in"], ["ĠLat", "ika"], ["Ġlatitud", "e"], ["Ġlatitud", "es"], ["¤", "à²°"], ["Ġimple", "ments"], ["Ġà°ĸà°¨à°¿à°ľ", "à°¾à°²à±ģ"], ["Ġimple", "mented"], ["à¤¾à¤ľ", "à¤ª"], ["Ġdiscrimin", "ation"], ["Ġdiscrimin", "atory"], ["Ġscen", "e"], ["Ġscen", "es"], ["Ġà°¸à°¾à°°à±įà°µà°¤à±įà°°", "à°¿à°ķ"], ["¤", "à²Ł"], ["Ġsouthwest", "erly"], ["Ġenc", "roach"], ["Ġà¤Ĺ", "à¤ł"], ["Ġenc", "ompassing"], ["Ġraid", "ing"], ["Ġà°¸à°¾à°°à°¸à±įà°µà°¤", "à°Ĥ"], ["Ġraid", "ers"], ["Ġappoin", "ted"], ["¤", "à²¾à²¨"], ["Ġappoin", "tment"], ["Ġrepresent", "atives"], ["Ġabs", "ence"], ["Ġà¤Ĩ", "à¤¯"], ["Ġà°¸à°¹à°¸à±įà°°", "à°¾à°¬à±įà°¦"], ["Ġabs", "olute"], ["gener", "ally"], ["gener", "ational"], ["¥", "à²¾à²°à³į"], ["Ġmaintain", "ed"], ["Ġmaintain", "ing"], ["Ġà°Ńà±Įà°Ĺà±ĭà°³", "à°¿à°ķ"], ["Ġemphas", "is"], ["Ġemphas", "ising"], ["Ġà¤Ĩ", "à¤¦"], ["Ġgradient", "s"], ["Ġtechniqu", "e"], ["¦", "à²¿"], ["Ġtechniqu", "es"], ["Ġà°¤à°¿à°°à±ģà°Ĺà±ģ", "à°¬à°¾à°Łà±ģ"], ["Ġweb", "site"], ["Ġneighbour", "s"], ["Ġdevast", "ation"], ["Ġà¤²", "à¥ĭà¤Ĺ"], ["Ġdevast", "ating"], ["Ġà°ķà°¿à°²à±ĭà°®à±Ģà°Ł", "à°°à±įà°²à°ķà±ģ"], ["Ġpromin", "ent"], ["§", "à³įà²¯"], ["Ġpromin", "ence"], ["á¹ĩ", "ini"], ["Ġtextil", "e"], ["Ġtextil", "es"], ["Ġà°ķà°¾à°ªà°¾à°¡à±ģà°ķà±ģà°Ĥà°Ł", "à±Ĥ"], ["Ġaffirm", "ative"], ["à¤¬", "à¤Ĥà¤§"], ["Ġobstruc", "ted"], ["§", "à²¿à²¯"], ["Ġobstruc", "tive"], ["Ġflour", "ished"], ["Ġflour", "ishing"], ["Ġà°®à°¾à°Łà±įà°²à°¾à°¡", "à±ĩ"], ["ĠBihar", "i"], ["Ġdistinct", "ly"], ["Ġà¤°à¤¾à¤ľ", "à¤¨à¥Ģ"], ["Ġdistinct", "ive"], ["§", "à³¦"], ["Ġdefin", "ition"], ["Ġdefin", "itions"], ["Ġà°Ĺà±Ĩà°²à±ģà°ļà±ģà°ķà±ĭà°µ", "à°¡à°Ĥ"], ["Ġaccoun", "ts"], ["Ġaccoun", "ting"], ["Ġmonso", "on"], ["Ġmonso", "ons"], ["§", "à²¿à²ª"], ["Ġà¤¸à¤Ĥà¤", "¯"], ["Ġ", "&"], ["Ġcalend", "ar"], ["Ġcalend", "rical"], ["Ġiniti", "ative"], ["Ġ", "."], ["Ġiniti", "atives"], ["Ġpatron", "age"], ["Ġ", "^"], ["Ġpatron", "ised"], ["§", "à²¿à²¸à²¿à²¤à³ģ"], ["Ġlike", "lihood"], ["à¤Ń", "à¤Ĺ"], ["Ġseparat", "ist"], ["%", ")"], ["Ġseparat", "ism"], ["Artic", "le"], ["%", ")."], ["Artic", "les"], ["á¼¸Î½Î´", "Î¯Î"], ["©", "à³¦"], [")", ":"], ["á¼¸Î½Î´", "ÏĮÏ"], ["Ġtandoor", "i"], ["Ġamphi", "bian"], ["0", "5"], ["à¤¾à¤¯", "à¥ģ"], ["Ġamphi", "bians"], ["Ġbronz", "e"], ["0", "7"], ["Ġbronz", "es"], ["ª", "à²Łà³įà²Ł"], ["Ġmanufact", "uring"], ["Ġmanufact", "ured"], ["1", "0"], ["Ġflood", "s"], ["Ġflood", "ing"], ["2", "63"], ["Ġà¤ľà¤¨", "à¤¸à¤Ĥà¤"], ["ĠTibet", "an"], ["ĠAchaemen", "id"], ["«", "à³¦à³¦"], ["3", "6"], ["ĠAchaemen", "ian"], ["Ġcommitte", "e"], ["Ġcommitte", "es"], ["5", "2"], ["ĠÃ", "ĸn"], ["ĠÅ", "ļul"], ["à¥ī", "à¤²"], ["5", "6"], ["¬", "à³ª"], ["Ġic", "onic"], ["Ġil", "legal"], ["5", "9"], ["Ġver", "bal"], ["Ġid", "li"], ["Ġub", "iquitous"], ["7", "0"], ["Ġens", "laving"], ["Ń", "à²¦à²²à³įà²²à²¿"], ["Ġeng", "ineering"], ["Ġà¤Ńà¤¾à¤·", "à¤¾"], ["7", "2"], ["Ġident", "ity"], ["23", "2"], ["Al", "igned"], ["7", "40"], ["Ara", "bic"], ["Aph", "orism"], ["8", "7"], ["Ń", "à²¿à²¨"], ["Aust", "ralian"], ["Bh", "angra"], ["Ġà¤Ńà¤¾à¤·", "à¤¾à¤ı"], ["9", "00"], ["BhÄģ", "rat"], ["Isl", "amic"], ["Kad", "ai"], ["A", "L"], ["Min", "imum"], ["Ń", "à³ĩà²Ł"], ["Pol", "o"], ["I", "N"], ["Pub", "s"], ["Pars", "is"], ["Ġà¤¥", "à¥ĩ"], ["Stre", "etMap"], ["I", "SBN"], ["aus", "e"], ["aá¹", "ħga"], ["P", "IN"], ["®", "à²¦à²²à³įà²²à²¿"], ["bor", "ne"], ["bec", "ause"], ["p", "e"], ["bro", "ken"], ["Ġà¤¦à¥ĭ", "à¤¨à¥ĭà¤Ĥ"], ["bodi", "a"], ["bhÄģ", "rata"], ["y", "pe"], ["col", "onial"], ["®", "à³¦à³¦"], ["dand", "a"], ["ī", "à°¦"], ["def", "ined"], ["eur", "ial"], ["fen", "ac"], ["ĭ", "à°¤"], ["à¤®à¥įà¤", "Ń"], ["graph", "ic"], ["hor", "se"], ["Ĵ", "à°ķ"], ["®", "à³«"], ["ham", "ihi"], ["last", "ing"], ["Ķ", "à°Ł"], ["lad", "en"], ["liter", "ally"], ["mÄģ", "yaá¹ĩ"], ["Ġà¤¸à¤Ĥà¤¸à¥įà¤ķà¥ĥà¤¤", "à¤¿"], ["ķ", "à°µ"], ["not", "ably"], ["µ", "à²¤"], ["par", "ty"], ["ķ", "à±Ĩà°Łà±į"], ["past", "oral"], ["pli", "ers"], ["Ľ", "à°¾à°¯à±ģà°¤"], ["rul", "e"], ["rum", "ped"], ["à¥įà¤¹", "à¥ĩà¤Ĥ"], ["rgar", "h"], ["ľ", "à±įà°"], ["¶", "à³ĭ"], ["sid", "ed"], ["soli", "dified"], ["ľ", "à°ªà°¾"], ["tra", "ditional"], ["yÄ", "«"], ["ylon", "ians"], ["ľ", "à±Ĩà°Łà±į"], ["£á¹", "ŃÄģ"], ["Ġà¤µà¤¿à¤¦", "à¥ĩà¤¶"], ["¶", "à³įà²ļ"], ["ªnd", "ÊĬËĪ"], ["ŀ", "à°¾à°¨"], ["±aËĲ", "É¾É"], ["É¦É", "ªndÊĬËĪ"], ["Ł", "à°²à±ģ"], ["Ġtre", "es"], ["Ġtal", "kies"], ["Ġtri", "ad"], ["·", "à²¿à²¯à²¨à³į"], ["Ł", "à°¾à°¯"], ["Ġà¤¸à¤¦", "à¤¸"], ["Ġtuc", "ked"], ["Ġtang", "ent"], ["Ł", "à°¾à°Ł"], ["Ġtreat", "ment"], ["Ġtect", "onic"], ["Ġtabl", "a"], ["ł", "à±Ģ"], ["Ġtight", "ly"], ["¸", "à³įà²¥à²¾à²¨"], ["Ġtrigonomet", "ric"], ["¡", "à°¿à°ªà±ĭà°¯à°¿à°Ĥà°¦à°¿"], ["Ġà¤ıà¤µ", "à¤Ĥ"], ["Ġtaugh", "t"], ["Ġtheore", "m"], ["¢", "à°µ"], ["Ġaro", "se"], ["Ġach", "ievement"], ["Ġamb", "itions"], ["¸", "à³įà²¥à³Ĩ"], ["£", "à°¿à°Ĥà°ļ"], ["Ġastring", "ent"], ["Ġauth", "ority"], ["Ġà¤Ńà¥Ĥà¤®", "à¤¿à¤ķà¤¾"], ["¥", "à°¨"], ["Ġaveng", "e"], ["Ġoro", "geny"], ["¥", "à°²à±ģ"], ["Ġoper", "ation"], ["¹", "à²¿à²¤"], ["Ġocean", "ic"], ["staËĲ", "n"], ["¦", "à±Ĥ"], ["atant", "ra"], ["Ġà¤¸à¥įà¤µà¤¤à¤Ĥà¤¤à¥įà¤°", "à¤¤à¤¾"], ["Ġcas", "es"], ["§", "à°¿à°²à±įà°²"], ["Ġcra", "fts"], ["Ġcig", "arett"], ["¼", "à²"], ["Ġcres", "cent"], ["§", "à°¿à°Ĥà°ļà°¿à°Ĥà°¦à°¿"], ["Ġcab", "inet"], ["Ġcum", "in"], ["ª", "à°¸à±į"], ["Ġcli", "ffs"], ["Ġà¤¨à¤¿à¤", "Ń"], ["Ġcall", "s"], ["«", "à°²"], ["Ġcrow", "ded"], ["à²", "Ī"], ["Ġcard", "amom"], ["Ġcroc", "odilian"], ["¬", "à°¿à°¯à°¾"], ["Ġcamp", "s"], ["Ġcropp", "ing"], ["Ń", "à°¾à°Ĺ"], ["Ġà¤ķà¥ģà¤", "Ľ"], ["Ġcaval", "ry"], ["Ġcuff", "ed"], ["à²", "Ĩà²°à³įà²¯"], ["ĠIran", "is"], ["Ń", "à°¾à°Ĺà°Ĥ"], ["ĠIdent", "ified"], ["ĠIndust", "ries"], ["®", "à°¾à°¯"], ["ĠIntell", "igence"], ["Ġwil", "derness"], ["Ġà¤¬à¥įà¤°à¤¿à¤Ł", "à¤¿à¤¶"], ["®", "à±ĩà°·"], ["Ġwra", "pped"], ["à²", "īà²¦"], ["Ġwai", "vers"], ["Ġwedd", "ings"], ["²", "à±ĩà°ļ"], ["Ġinve", "stment"], ["Ġindic", "a"], ["³", "à°µà°¿"], ["Ġinval", "idate"], ["Ġinsur", "gencies"], ["à¤¬à¤Ĥà¤§", "à¤¨"], ["à²", "ĭà²¤à³įà²¯"], ["¶", "à±įà°µ"], ["Ġinscri", "ptions"], ["Ġsol", "diers"], ["Ġsus", "pending"], ["¶", "à°Ĥà°²à±ĭ"], ["Ġsem", "inaries"], ["Ġsher", "wanis"], ["·", "à°¿à°ķ"], ["Ġsac", "rifices"], ["à²", "ĺà²²"], ["Ġà¤ľà¤¨à¤¸à¤Ĥà¤", "ĸà¥įà¤¯à¤¾"], ["Ġspor", "ting"], ["Ġsap", "iens"], ["·", "à°¾à°²à±ģ"], ["Ġsust", "ained"], ["Ġsidel", "ine"], ["¸", "à°¿à°¨"], ["Ġsanct", "uaries"], ["Ġbes", "et"], ["à²", "¼à²"], ["¸", "à°¾à°®"], ["Ġbur", "den"], ["Ġ", "$"], ["Ġbak", "ing"], ["Ġbust", "ard"], ["¸", "à°¿à°Ĥà°Ĺ"], ["Ġbodi", "es"], ["Ġbacks", "liding"], ["¸", "à°¾à°¯à±ģà°¤"], ["orig", "in"], ["Ġà²", "Ŀà³Ĭ"], ["Ġpow", "ers"], ["à¤", "Ĩ"], ["Ġpac", "ified"], ["¹", "à°ªà±ģ"], ["Ġpill", "ar"], ["Ġpay", "ments"], ["à°", "ĥ"], ["Ġpiv", "otal"], ["Ġpav", "ed"], ["Ġà²", "Łà³Ĩà²²à²¿à²Ĺà³įà²°à²¾à²Ĥ"], ["à°", "Ī"], ["Ġpap", "er"], ["Ġà¤", "ĭ"], ["Ġpree", "xisting"], ["Ġpron", "ounced"], ["à°", "ı"], ["Ġposs", "essed"], ["Ġpran", "a"], ["à°", "¢à°¾à°ķà°¾"], ["Ġpoul", "try"], ["Ġà²", "¥à²¾à²°à³į"], ["à¥ĩ", "à¤°"], ["Ġpanch", "ayat"], ["Ġpiec", "e"], ["à°", "īà°¦"], ["Ġpoet", "ry"], ["Ġprince", "ly"], ["Ġà°", "¢à°¾à°ķà°¾"], ["Ġpyjam", "as"], ["Ġming", "led"], ["à²¿à²", "§"], ["à¥ĩ", "à¤ķ"], ["Ġà°", "ĭà°¤"], ["Ġment", "ioned"], ["Ġmud", "flats"], ["Ġmoun", "tain"], ["Ġà°", "Ķà°Ł"], ["Ġmel", "odic"], ["Ġmant", "le"], ["à±įà°", "ķà±ĥ"], ["Ġmort", "ality"], ["à²¿à²", "ħà²Ĥà²"], ["à¤¾à¤", "ĸ"], ["Ġmiss", "ing"], ["à±įà°", "Ńà°µ"], ["Ġmyst", "ics"], ["Ġmalnut", "rition"], ["Ġful", "l"], ["à±įà°", "Ľà°¾à°¯à±ģà°¤"], ["Ġfle", "eing"], ["à²¾à²", "Ĥ"], ["Ġfut", "ure"], ["à¤¾à¤", "¡à¤¼"], ["à±įà°", "ľà±Ĩà°Łà±į"], ["Ġfun", "ctions"], ["Ġfoc", "used"], ["Ġfoun", "der"], ["à±įà°", "Ńà°¾à°Ĺ"], ["Ġfel", "t"], ["Ġfire", "power"], ["à±įà°", "·à°¿à°ķ"], ["à²¾à²", "Ń"], ["Ġfine", "ly"], ["Ġà¤ķ", "à¤¹"], ["Ġfix", "ed"], ["à°¾à°", "·à±įà°Łà±įà°°"], ["Ġfoss", "ils"], ["Ġfie", "ld"], ["Ġfeud", "al"], ["à°¾à°", "łà±Ģ"], ["Ġfreed", "om"], ["à²¾à²", "¯à³ģ"], ["Ġlear", "ned"], ["Ġà¤ķ", "à¤¾à¤®"], ["à°¿", "à°Ĥà°Ł"], ["Ġline", "ages"], ["Ġliqu", "efied"], ["Ġlux", "uriant"], ["à°¿", "à°Ĥà°¬"], ["Ġele", "ments"], ["Ġeigh", "ty"], ["à±ģ", "à°¦"], ["à²¾à²", "ķà³į"], ["Ġety", "mons"], ["à¤¿à¤", "ľ"], ["Ġemit", "s"], ["à±ģ", "à°Ĥà°¦"], ["Ġecolog", "ically"], ["Ġtoler", "ance"], ["Ġham", "strung"], ["à±ģ", "à°Ł"], ["Ġhoc", "key"], ["à²¾à²", "Łà²¦"], ["à¥ĭ", "à¤¤"], ["Ġhour", "ly"], ["à±ģ", "à°²à±ĭ"], ["Ġhood", "ed"], ["Ġhund", "red"], ["à±ģ", "à°ļ"], ["Ġhold", "ing"], ["Ġhoriz", "ontally"], ["ĠTra", "de"], ["à±ģ", "à°Ĥà°Ł"], ["à²¾à²", "¡à²¿à²°à³ģà²µ"], ["à¥ĭ", "à¤¹"], ["ĠTro", "phies"], ["ĠTow", "ards"], ["à±ģ", "à°Łà±įà°Ł"], ["ĠTel", "ugu"], ["ĠTod", "a"], ["ĠTap", "ti"], ["à±ģ", "à°³"], ["ĠTech", "nological"], ["à²¾à²", "§à²¿à²ª"], ["à¥ĭ", "à¤µ"], ["ĠTash", "kent"], ["à±ģ", "à°°à±įà°¯"], ["ĠTeth", "yan"], ["ĠTrigonomet", "ry"], ["à±ģ", "à°°à°¾à°²à±ģ"], ["Ġdur", "able"], ["Ġdol", "phin"], ["Ġdet", "ail"], ["à±ģ", "à°¡à±ģ"], ["à³ģ", "à²ª"], ["Ġà¤¹", "à¤¿à¤®"], ["Ġdel", "ta"], ["Ġdens", "ity"], ["à±ģ", "à°ķà±įà°¤"], ["Ġdrough", "ts"], ["Ġdaw", "nings"], ["Ġdai", "ly"], ["à±ģ", "à°°à±ģà°·"], ["Ġdeter", "mined"], ["à³ģ", "à²¦à³įà²§"], ["Ġà¤¹", "à¤¥"], ["Ġdropp", "ed"], ["à±ģ", "à°¡à±Īà°¨"], ["Ġreve", "als"], ["Ġremit", "tances"], ["à±ģ", "à°Ĥà°¡à°¾"], ["Ġreach", "ing"], ["Ġreject", "ing"], ["Ġreorgan", "ised"], ["à±ģ", "à°¸à±įà°¤à±ģà°²à±ģ"], ["à¤¾à¤°", "à¤®à¥įà¤Ń"], ["à³ģ", "à²¤à³įà²µ"], ["Ġrehab", "ilitated"], ["Ġ120", "6"], ["à°¿à°", "·à±įà°Ł"], ["Ġnapp", "es"], ["Ġgri", "ddled"], ["à°¿à°", "¥à°¿à°ķ"], ["Ġgir", "ls"], ["Ġgill", "i"], ["Ġà¤ª", "à¥Ī"], ["à³ģ", "à²³à²¿à²ķà³Ĩ"], ["Ġghar", "ial"], ["à°¿à°", "¢à°µ"], ["Ġglac", "iers"], ["Ġguidel", "ines"], ["à°¿à°", "Ńà°¾à°Ĺà°Ĥ"], ["ĠAver", "aging"], ["ĠAry", "abhata"], ["ĠApp", "ointed"], ["Ġà¤ª", "à¥įà¤²"], ["à°Ĥà°", "¥à°¾à°²à±ģ"], ["à³Ĩ", "à²³"], ["ĠAhm", "edabad"], ["ĠAmar", "avati"], ["à°Ĥà°", "¶à°Ĥà°²à±ĭ"], ["ĠAá¹", "£á¹ŃÄģ"], ["ĠAtom", "ic"], ["à°¤", "à°Ĥ"], ["ĠAdminist", "rative"], ["Ġà¤ķà¥ĩ", "à¤¨à¥įà¤¦à¥įà¤°"], ["ĠAmrit", "sar"], ["à³Ĩ", "à²¤à³įà²¤"], ["ĠAzadi", "rach"], ["à°¤", "à±ĩ"], ["ĠAdivas", "i"], ["righ", "t"], ["à°¤", "à±įà°¯"], ["ĠCam", "bodia"], ["ĠCher", "as"], ["à¤®", "à¤¨"], ["à³Ĩ", "à²Ł"], ["ĠCrit", "ically"], ["à°¤", "à°¿à°ķ"], ["ĠCoun", "cil"], ["ĠCap", "ital"], ["à°¤", "à°Ĥà°²à±ĭ"], ["ĠCrow", "n"], ["ĠChen", "nai"], ["à°¤", "à±ģà°²à±ģ"], ["ĠCredi", "ble"], ["Ġà¤ħ", "à¤°à¥įà¤¥"], ["à³Ĩ", "à²Ĥà²¡"], ["ĠCuis", "ine"], ["ĠCoast", "al"], ["à°¤", "à°¾à°¯à°¿"], ["ĠCalcut", "ta"], ["ĠColorad", "o"], ["à°¤", "à°Ĥà°Ĺà°¾"], ["ĠBab", "ylonians"], ["ĠBod", "o"], ["Ġà¤¨", "à¤¿à¤°"], ["à³Ĩ", "à²·"], ["ĠBound", "ed"], ["à°¤", "à±įâĢĮ"], ["ĠBef", "ore"], ["ĠBib", "liograph"], ["à°¤", "à°¾à°®"], ["ĠBhas", "kara"], ["ĠBedd", "ome"], ["à°¤", "à±įà°¯à°Ĥ"], ["ĠBakh", "shali"], ["Ġà¤¨", "à¤¾à¤Ĺ"], ["à²°", "à³į"], ["ĠBrune", "i"], ["ĠBollywo", "od"], ["à°¤", "à°¿à°¹"], ["ĠSet", "tled"], ["ĠSang", "am"], ["à°¤", "à°¾à°²à°¤à±ĭ"], ["ĠSup", "pliers"], ["ĠSoc", "iety"], ["Ġà¤¬", "à¤¨à¥ĩ"], ["à²°", "à³ĭ"], ["à°¤", "à°¿à°ļà±ĩ"], ["ĠSch", "ool"], ["ĠSign", "ificant"], ["ĠSange", "et"], ["à°¨", "à°¾"], ["ĠSund", "arbans"], ["ĠSrin", "ivasa"], ["à°¨", "à°¤"], ["ĠSanch", "i"], ["Ġà¤¦", "à¤°"], ["à²°", "à²¿à²¯"], ["ĠSindh", "u"], ["ĠSchedul", "e"], ["à°¨", "à°²"], ["ĠSÅ«tr", "as"], ["ĠSanam", "ahism"], ["à°¨", "à°ķ"], ["ĠSatpur", "a"], ["à¤¿à¤¯", "à¤¾à¤°"], ["Ġthous", "and"], ["à²°", "à²¿à²¤"], ["à°¨", "à°¦"], ["Ġthicken", "ing"], ["untouch", "ables"], ["ucher", "ry"], ["à°¨", "à±įà°¯"], ["Ġrup", "ees"], ["Ġrough", "ly"], ["à°¨", "à°µ"], ["à¥Ĥ", "à¤¸"], ["Ġrhyth", "mic"], ["à²°", "à²¨à³įà²¨à³ģ"], ["ĠMong", "ol"], ["ĠMult", "i"], ["à°¨", "à°¿à°ķ"], ["ĠMinist", "ers"], ["ĠMeh", "rgarh"], ["à°¨", "à°²à±ģ"], ["ĠMach", "ine"], ["à¥Ĥ", "à¤²"], ["ĠMani", "puri"], ["à²°", "à²£"], ["ĠMedic", "al"], ["ĠMeas", "ured"], ["ĠManmo", "han"], ["à°¨", "à±Ĥ"], ["ĠMathem", "atics"], ["ĠMarri", "age"], ["Ġà¤¤", "à¤®à¤¿à¤²"], ["à°¨", "à°¿à°¨"], ["ĠMitoch", "ondrial"], ["à²°", "à²¾à²¸"], ["ĠMadhav", "a"], ["à°¨", "à°Ĥà°²à±ĭ"], ["Ġbeac", "hes"], ["Ġconif", "erous"], ["Ġconqu", "est"], ["à°¨", "à±įà°²"], ["Ġcondition", "ing"], ["Ġà¤ªà¥įà¤°", "à¤ķà¤¾à¤°"], ["Ġconsequent", "ly"], ["à²°", "à²¿à²ķà³Ĩ"], ["à°¨", "à°¸"], ["ĠPain", "ted"], ["ĠPud", "ucherry"], ["ĠPÄģ", "á¹ĩini"], ["à°¨", "à°¿à°ª"], ["ĠProc", "laiming"], ["ĠPach", "isi"], ["Ġà¤ªà¥įà¤°", "à¤¾à¤°à¤®à¥įà¤Ń"], ["à°¨", "à°¿à°°"], ["ĠPash", "upati"], ["à²°", "à²£à³Ĩ"], ["ĠPanch", "atantra"], ["à°¨", "à±įà°®"], ["ĠPyth", "agore"], ["ĠPream", "ble"], ["ĠPandy", "as"], ["à°¨", "à°¾à°Ł"], ["ĠPhili", "ppines"], ["Ġà¤¸à¥ĩ", "à¤µ"], ["ĠPrades", "h"], ["à²°", "à²¾à²£"], ["à°¨", "à°°à±įà°µ"], ["Ġstup", "as"], ["Ġstory", "telling"], ["Ġsteat", "ite"], ["à°¨", "à°µà°¿"], ["Ġstret", "ching"], ["Ġà¤Ĺ", "à¥ģà¤"], ["ĠEmp", "ires"], ["à°¨", "à±įà°¸"], ["ĠEduc", "ation"], ["à²°", "à²¿à²ķà²¨à³į"], ["ĠEigh", "th"], ["à°¨", "à°¾à°¡"], ["ĠEmb", "racing"], ["ĠEsc", "hewing"], ["ĠEleph", "anta"], ["à°¨", "à±Ģà°ª"], ["Ġà¥", "«"], ["Ġitse", "lf"], ["à²°", "à²Ĺà²³à²¿à²Ĥà²¦"], ["Ġexceed", "ing"], ["à°¨", "à°¾à°²à°¤à±ĭ"], ["Ġdiclo", "fenac"], ["Ġdiox", "ide"], ["à°¨", "à°¬à°¡à°¿à°¨"], ["ĠGod", "avari"], ["ĠGovern", "or"], ["Ġà¤²", "à¤¿à¤¯à¤¾"], ["ĠGold", "en"], ["à°¨", "à°¿à°ļà±įà°ļ"], ["à²°", "à²¬à³įà²¬"], ["ĠGov", "Pubs"], ["ĠGanweri", "wala"], ["à°¨", "à°µà°ļà±įà°ļà±ģ"], ["select", "ive"], ["ĠDog", "ri"], ["ĠDire", "ctory"], ["à°²", "à°²"], ["Ġà¤ĩ", "à¤Ĥà¤¡"], ["ĠDomin", "ion"], ["à²°", "à²²à²¾à²°à²Ĥà²Ńà²¿à²¸à²¿à²¦à²°à³ģ"], ["ĠDeter", "rence"], ["à°²", "à°®"], ["ĠDomestic", "ation"], ["ĠDhol", "avira"], ["à°²", "à±Ĩ"], ["ĠDiction", "ary"], ["ĠHell", "enistic"], ["Ġà¤ªà¤°", "à¤Ĥà¤ª"], ["ĠHyder", "abad"], ["à°²", "à°¹"], ["à²°", "à²¾à²Łà²¦"], ["ĠHarapp", "a"], ["ĠNot", "es"], ["à°²", "à°¿à°¤"], ["ĠNav", "ratri"], ["ĠNains", "ukh"], ["ĠNax", "alite"], ["à°²", "à°¿à°Ĺ"], ["Ġà¤¯", "à¥Ĥà¤°"], ["ĠNaren", "dra"], ["à²¤", "à³Ĩ"], ["ĠNaras", "imha"], ["à°²", "à±įà°¯à°Ĥ"], ["ĠNatar", "aja"], ["Ġuncon", "stitutional"], ["à°²", "à±Ģà°¨"], ["Ġunif", "orm"], ["Ġunwan", "ted"], ["Ġà¤ķà¤°", "à¤¨à¤¾"], ["Ġundis", "puted"], ["à°²", "à°¿à°Ĥà°ª"], ["à²¤", "à²¿à²¦"], ["Ġuniqu", "ely"], ["Ġuneas", "y"], ["à°°", "à°¾"], ["Ġunivers", "ities"], ["Ġunlin", "ked"], ["Ġunpre", "cedented"], ["à°°", "à°¦"], ["Ġà¤ĩà¤¸", "à¥Ģ"], ["Ġunanim", "ously"], ["à²¤", "à²¿à²°à³ģà²µ"], ["Ġunleav", "ened"], ["à°°", "à±Ĥ"], ["Ġparalle", "l"], ["Ġinclus", "ive"], ["à°°", "à°¾à°¯"], ["Ġallu", "vial"], ["à¤¾à¤µ", "à¤¾"], ["Ġaltern", "ately"], ["Ġalgeb", "ra"], ["à°°", "à°ļ"], ["à²¤", "à²Łà³įà²Łà³ģ"], ["Ġcommission", "ing"], ["Ġcommun", "ities"], ["à°°", "à°®à±ģ"], ["Ġvulner", "able"], ["Ġdefore", "sted"], ["Ġà¤ľà¤¾à¤¤", "à¥ĩ"], ["à°°", "à±įâĢĮ"], ["ĠWik", "imedia"], ["ĠWild", "life"], ["à²¤", "à²¿à²¹à²¾à²¸"], ["Ġchall", "enges"], ["à°°", "à°¾à°®"], ["Ġchik", "ankari"], ["Ġchatur", "aá¹ħga"], ["à°°", "à°¤à°°"], ["Ġcott", "on"], ["Ġà¤µà¤°à¥įà¤", "Ĺ"], ["Ġcoheren", "t"], ["Ġprofess", "ionals"], ["à°°", "à±Ĩà°Ĥà°¡"], ["à²Ĥà²", "ķà²¾"], ["Ġcontex", "ts"], ["Ġcontempor", "ary"], ["à°°", "à°¿à°¯à°¾"], ["ĠUtt", "ar"], ["associ", "ate"], ["à¤¾à¤ģ", "à¤ķà¤¿"], ["à°°", "à°¿à°Ĥà°ļà°¿à°Ĥà°¦à°¿"], ["ĠRef", "erences"], ["ĠRÄģ", "mÄģyaá¹ĩ"], ["à²Ĥà²", "¸à³įà²¥à³Ĩ"], ["ĠReb", "ellion"], ["à°°", "à°¿à°Ĥà°ļà°¿à°¨"], ["ĠRams", "ar"], ["ĠRuk", "mini"], ["à°°", "à±Ĥà°ª"], ["ĠRakh", "igarhi"], ["Ġà¤§", "à¥Ģ"], ["ĠRaslil", "a"], ["ĠRamanu", "jan"], ["à°°", "à°µà±ĩ"], ["à²¦", "à²¿"], ["Ġspok", "en"], ["Ġspons", "orship"], ["à°°", "à±ģà°¤à±ĭ"], ["Ġregard", "ed"], ["ĠChord", "s"], ["Ġà¤īà¤¤", "à¥įà¤ª"], ["à°°", "à±įâĢĮà°²"], ["ĠChronic", "ling"], ["ĠChaud", "hary"], ["à²¦", "à²¾"], ["ĠChromos", "ome"], ["à°°", "à°ķà±Ĥ"], ["ĠJust", "ice"], ["Ġkne", "es"], ["à°°", "à°®à±ĩà°¨à°¨à°¿"], ["Ġkabad", "di"], ["Ġà¥§à¥¯à¥", "¯à¥"], ["Ġkeep", "ing"], ["à²¦", "à²¾à²°"], ["à°°", "à°¾à°·à±įà°Łà±įà°°"], ["Ġkatab", "atic"], ["Ġadverse", "ly"], ["Ġadequ", "ate"], ["à±ĩ", "à°¦à°¿"], ["Ġadheren", "ts"], ["à¤§à¤¿à¤ķ", "à¤¾à¤°à¤¿à¤ķ"], ["Ġadjoin", "ing"], ["à±ĩ", "à°¤à°°"], ["Ġsevent", "h"], ["à²¦", "à³ĩ"], ["Ġseaf", "loor"], ["Ġsegreg", "ation"], ["à±ĩ", "à°°à°¿"], ["Ġsubord", "inate"], ["Ġsubcast", "e"], ["à±ĩ", "à°°à±ĭ"], ["Ġà¤ħà¤ª", "à¥įà¤°"], ["Ġplural", "istic"], ["Ġlexic", "on"], ["à²¦", "à²¿à²¦à³Ĩ"], ["à±ĩ", "à°°à±įà°²à±ģ"], ["Ġaggl", "omerations"], ["Ġperform", "ing"], ["Ġperman", "ent"], ["Ġà°ª", "à°¡"], ["ĠKsh", "atriya"], ["Ġà¤ħà¤ª", "à¤¨à¥ĩ"], ["ĠKarn", "ataka"], ["Ġà°ª", "à°Ł"], ["ĠKingd", "om"], ["à²¦", "à²¾à²µ"], ["ĠKann", "ada"], ["ĠKrish", "na"], ["Ġà°ª", "à°Ĥà°¡"], ["Ġdecentral", "isation"], ["ĠViet", "nam"], ["Ġà°ª", "à°ķà±įà°·"], ["Ġà¤ħà¤ª", "à¤¨à¥Ģ"], ["ĠVirt", "ually"], ["ĠVindh", "ya"], ["à²¦", "à²Ĺà²³à²¨à³įà²¨à³ģ"], ["Ġà°ª", "à°¾à°¦"], ["ĠVarÄģ", "hamihi"], ["Ġsymb", "ol"], ["Ġsyncre", "tic"], ["Ġà°ª", "à°¿à°²"], ["Ġcomplic", "ated"], ["Ġà¤°à¤¹", "à¥ĩ"], ["Ġendeav", "or"], ["Ġà°ª", "à°¾à°°à±įà°"], ["ĠOpen", "StreetMap"], ["à²¦", "à²¿à²µà³Ĩ"], ["ĠOlymp", "ics"], ["Ġà°ª", "à°ļà±įà°ļ"], ["dhyÄģ", "yÄ«"], ["Ġinfrastruc", "ture"], ["Ġsuperi", "or"], ["Ġà¥¨", "à¥¦à¥¦"], ["Ġà°ª", "à±Į"], ["Ġconsci", "ously"], ["Ġconspic", "uous"], ["à²¦", "à²ķà³įà²·à²¿à²£"], ["Ġà°ª", "à°Ĥà°ª"], ["Ġconsistent", "ly"], ["ĠLef", "t"], ["ĠLib", "raries"], ["Ġà°ª", "à±ĭà°°"], ["ĠLiber", "ation"], ["à¥ģà¤¨", "à¤¿à¤ķ"], ["Ġpeep", "ul"], ["Ġà°ª", "à°¾à°Ĥà°¡"], ["Ġpehl", "wani"], ["à²¨", "à²¿à²Ĥà²¦"], ["Ġlongitud", "e"], ["Ġà°ª", "à°¾à°Łà±ģ"], ["Ġcaret", "aker"], ["Ġdispro", "portionately"], ["Ġdisrup", "tive"], ["Ġà¤ĺ", "à¥ĭà¤·"], ["Ġà°ª", "à°Łà°Ĥ"], ["Ġdisadvant", "aged"], ["Ġterracot", "ta"], ["à²¨", "à²¾à²¦"], ["Ġà°ª", "à°°à±įà°·"], ["Ġlandown", "ers"], ["Ġlandsl", "ide"], ["Ġlandmar", "k"], ["Ġà°ª", "à±ĩà°¸"], ["à¥ĭà¤²", "à¤¨"], ["Ġrecommend", "ed"], ["ĠConser", "vation"], ["Ġà°ª", "à°¸à±įà°°"], ["ĠConcur", "rently"], ["à²¨", "à³įà²®"], ["Ġjoin", "t"], ["Ġà°ª", "à°ķà±įà°·à°Ĥ"], ["Ġjaz", "z"], ["Ġjudi", "ciary"], ["Ġà¤¬à¤¡à¤¼", "à¤¾"], ["Ġenabl", "ing"], ["Ġà°ª", "à°Ĥà°ľ"], ["Ġenligh", "tenment"], ["Ġenvir", "onmental"], ["à²¨", "à²¿à²¯à²¿à²Ĥà²¦"], ["Ġà°ª", "à±Ĩà°Łà±įà°°"], ["Ġupsur", "ge"], ["Ġappare", "l"], ["Ġexperi", "ence"], ["à±ĭ", "à°ķ"], ["Ġà¤µà¥įà¤¯", "à¤¾à¤ª"], ["Ġexpendi", "ture"], ["inspire", "d"], ["à±ĭ", "à°¦"], ["ĠThanjav", "ur"], ["à²¨", "à²¿à²ľ"], ["ĠMahan", "adi"], ["à±ĭ", "à°¨à±įà°¨"], ["ĠMahÄģ", "bhÄģrata"], ["ĠMahav", "ira"], ["Ġà¤²à¤Ĺ", "à¤Ńà¤Ĺ"], ["ĠMahat", "ma"], ["à±ĭ", "à°Ĥà°¦à°¿"], ["Ġprefer", "red"], ["Ġprevail", "ing"], ["à²²", "à³ģ"], ["à±ĭ", "à°§"], ["Ġgrands", "on"], ["Ġgrandmast", "ers"], ["à±ĭ", "à°ķà±ģ"], ["Ġgramm", "atical"], ["Ġà¤Īà¤¸", "à¤¾"], ["ĠComprehen", "sive"], ["ĠStatist", "ically"], ["à±ĭ", "à°ļ"], ["à²²", "à³Ĩ"], ["Ġoutpost", "s"], ["à±ĭ", "à°ķà±įà°·"], ["Ġà¤¹à¤¾à¤²", "à¤¾à¤ģà¤ķà¤¿"], ["à±ĭ", "à°¬"], ["à²²", "à²¨"], ["à±ĭ", "à°¤à±įà°¤"], ["à±ĭ", "à°°à±įà°Ł"], ["Ġà¤¨à¥įà¤¯à¤¾à¤¯", "à¤¾à¤²à¤¯"], ["à±ĭ", "à°ªà°¾à°²"], ["à²²", "à²¿à²¤"], ["à±ĭ", "à°¤à±įà°°à°¿"], ["Ġà¤ªà¤¾à¤°à¥įà¤Ł", "à¥Ģ"], ["à±įà°°", "à°¾"], ["à²²", "à³Ĩà²¯"], ["à±įà°°", "à±Ĥ"], ["à±įà°°", "à°¾à°²à±ģ"], ["Ġà¤ªà¥įà¤°à¤Ń", "à¤¾à¤µ"], ["à±įà°°", "à±Ī"], ["à²²", "à³Ĥ"], ["à±įà°°", "à°¾à°¨"], ["à¤¾à¤ľà¤ª", "à¤¾"], ["à±įà°°", "à°¾à°¯"], ["à²²", "à²ķà³įà²·"], ["à±įà°°", "à°¾à°Ĥ"], ["Ġà¤Ĺà¤ł", "à¤¬à¤Ĥà¤§à¤¨"], ["à±įà°°", "à°¿à°µ"], ["à±įà°°", "à°¾à°µ"], ["à²²", "à²Ĥà²ķà²¾"], ["à±įà°°", "à°¾à°¨à±į"], ["Ġà¤¸à¤Ĥà¤¯", "à¥ģà¤ķà¥įà¤¤"], ["à±įà°°", "à°¿à°ļ"], ["à²Ĺ", "à²¦"], ["à±įà°°", "à°¯à°¾à°²à±ģ"], ["Ġà¤¨à¤¿à¤Ń", "à¤¾à¤Ī"], ["à±įà°°", "à°¾à°«"], ["à±įà°°", "à°¨à°¾à°¥"], ["à²Ĺ", "à²¿à²¦à³Ĩ"], ["à±įà°°", "à°µà°°à±įà°¤"], ["Ġà¤¹à¤¿à¤®", "à¤¾à¤²à¤¯"], ["à±įà°°", "à±Ĩà°¡à±į"], ["à²Ĺ", "à²µà²¾à²Ĺà²¿"], ["à°¾à°°", "à°®"], ["Ġà¤¹à¤¥", "à¤¿à¤¯à¤¾à¤°"], ["à°¾à°°", "à°¾à°²à±ģ"], ["à°¾à°°", "à°¿à°Ĥà°¦à°¿"], ["à²Ĺ", "à²¾à²°à²¿à²ķà³Ĩ"], ["à°¾à°°", "âĢĮ"], ["Ġà¤ªà¥įà¤²", "à¥ĩà¤Ł"], ["à°¾à°°", "à±įà°¯à°Ĥ"], ["à²Ĺ", "à³ĭà²³"], ["à°¾à°°", "à°¿à°¸à±įà°¤à°¾à°°à±ģ"], ["Ġà¤", "ĳ"], ["à°¾à°°", "à°£à°Ĥà°Ĺà°¾"], ["à°ķ", "à°Ĥ"], ["à²Ĺ", "à²¿à²Ĥà²¤"], ["à¤°", "à¥įà¤¯"], ["à°ķ", "à°²"], ["à°ķ", "à±įà°¨"], ["à²¾à²°", "à²¿"], ["à¥į", "âĢ"], ["à°ķ", "à°³"], ["à°ķ", "à°¤à±įà°¤"], ["à°ķ", "à°²à±įà°ª"], ["à²¾à²°", "à²¦à²²à³įà²²à²¿"], ["à¥ĩ", "à¤ľ"], ["à°ķ", "à°®à±ĩà°¨"], ["à°ķ", "à±ĥà°¤"], ["à¥ĩ", "à¤²à¥Ģ"], ["à²¾à²°", "à²¾à²·à³įà²Łà³įà²°"], ["à°ķ", "à°¾à°¹à°¾à°°"], ["à°ķ", "à±ĭà°°à±įà°Ł"], ["à¤¾à¤", "¶"], ["à²¾à²°", "à³įà²®"], ["à°ķ", "à±įà°°à°µà°°à±įà°¤"], ["à°¾à°²", "à±ĩ"], ["Ġà¤ķ", "à¤°à¥įà¤ľ"], ["à°¾à°²", "à±Ģ"], ["à²¾à²°", "à³įà²Ĺ"], ["à°¾à°²", "à±įà°¯"], ["à¤Ĥ", "à¤ķ"], ["à°¾à°²", "à°¿à°ķ"], ["à²¾à²°", "à³įà²·"], ["à°¾à°²", "à°¾à°²à±ģ"], ["à¥Ģ", "à¤°"], ["à°¾à°²", "à°¨à°¿"], ["à°¾à°²", "à±įâĢĮ"], ["à²¾à²°", "à³įà²¸"], ["à°¾à°²", "à°ľ"], ["à¤¿à¤", "ĸ"], ["à°¾à°²", "à±įà°¦"], ["à²¾à²°", "à²¾à²Ĺà²¿"], ["à°¾à°²", "à°°à±įà°²à±ģ"], ["à¤¤", "à¤°"], ["à°¾à°²", "à±ĩà°ķ"], ["à°¾à°²", "à±Ĩà°ķà±įà°ķ"], ["à¤¤", "à¤®"], ["à³įà²°", "à³ĩ"], ["à°¾à°²", "à°ªà±Ī"], ["à°¾à°²", "à°¨à±įà°¨à±Ģ"], ["Ġà¤¸", "à¤¿à¤¨"], ["à³įà²°", "à²¾à²¨"], ["à±Ģ", "à°°"], ["à±Ģ", "à°Ĥà°¦"], ["Ġà¤¸", "à¤Ń"], ["à±Ģ", "à°²à±ģ"], ["à³įà²°", "à²Ĺà²³à³ģ"], ["à±Ģ", "à°°à±įà°"], ["Ġà¤¸", "à¥įà¤¤à¤°"], ["à±Ģ", "à°¤à±ĭ"], ["à³įà²°", "à²Ń"], ["à±Ģ", "à°²à°²à±ĭ"], ["à¥ĭ", "à¤°"], ["à±Ģ", "à°¨à±įà°¨à°¿"], ["à±Ģ", "à°ķà°¾à°°à°Ĥ"], ["à³įà²°", "à²¾à²µ"], ["à°¦", "à°¾à°¨"], ["à¥ĭ", "à¤ª"], ["à°¦", "à°Ĺ"], ["à³įà²°", "à²Ĺà²³à²¿à²Ĥà²¦"], ["à°¦", "à±Ģà°¯"], ["à¥ĭ", "à¤Ł"], ["à°¦", "à°¿à°Ĺ"], ["à°¦", "à°¾à°°à±ģ"], ["à³įà²°", "à³ĭà²²"], ["à¤¸", "à¤Ńà¤¾"], ["à°¦", "à°¿à°°"], ["à°¦", "à°°à°¿à°ķ"], ["à¥Ī", "à¤²à¥Ģ"], ["à³įà²°", "à²¹à³įà²®"], ["à°¦", "à°Ĥà°¡à°¾"], ["à°¦", "à°¾à°¬à°¾à°¦à±ģ"], ["à¥įà¤¯", "à¤¤à¤¾"], ["Ġà°¸", "à°Ĥ"], ["à²³", "à²¿"], ["Ġà°¸", "à°µ"], ["à¤²", "à¥ĭà¤Ĥ"], ["Ġà°¸", "à°Ĥà°¦"], ["à²³", "à³Ĩà²¯"], ["Ġà°¸", "à±Ĩ"], ["Ġà¤ħ", "à¤«"], ["Ġà°¸", "à±Ī"], ["Ġà°¸", "à°¾à°¨"], ["à²³", "à³ģà²µ"], ["Ġà°¸", "à±įà°Ł"], ["à¤Ĥà¤", "Ł"], ["Ġà°¸", "à±įà°²"], ["à²³", "à²µà²¾à²Ĺà²¿à²¦à³Ĩ"], ["Ġà°¸", "à°®à±ģ"], ["à¤Ĥà¤", "¶"], ["Ġà°¸", "à°¿à°Ĺ"], ["Ġà°¸", "à±ģà°²"], ["à²³", "à²ªà²Łà³įà²Ł"], ["à¤Ĥà¤", "¹"], ["Ġà°¸", "à°¾à°¹"], ["Ġà°¸", "à°²à±įà°µ"], ["Ġà¤ľ", "à¤¾"], ["à²µ", "à³Ĩ"], ["Ġà°¸", "à±ĩà°µ"], ["Ġà°¸", "à°¾à°«"], ["Ġà¤¬", "à¤¾à¤°"], ["Ġà°¸", "à±ģà°®"], ["à²µ", "à²¨"], ["Ġà°¸", "à°¾à°°à±įà°ķ"], ["Ġà¤µ", "à¥ĩ"], ["Ġà°¸", "à±ģà°¦"], ["à²µ", "à²²"], ["Ġà°¸", "à°¤à±įà°¯"], ["Ġà°¸", "à°²à°¹"], ["Ġà¤µ", "à¤¾à¤²"], ["Ġà°ķ", "à±Ĥ"], ["à²µ", "à²°à³įà²"], ["Ġà°ķ", "à°¾à°¯"], ["à¤ª", "à¤°"], ["Ġà°ķ", "à°¿à°¤"], ["à²µ", "à³Ĥ"], ["Ġà°ķ", "à°Ĥà°Ł"], ["à¤ª", "à¥ĩ"], ["Ġà°ķ", "à°¾à°ķ"], ["Ġà°ķ", "à°Łà±įà°Ł"], ["à²µ", "à²¿à²°à³ģà²µ"], ["à¤¿à¤¯", "à¤¨"], ["Ġà°ķ", "à°¾à°°à±įà°"], ["Ġà°ķ", "à°¿à°®"], ["à²µ", "à²¾à²¸"], ["Ġà¤°", "à¤ĸ"], ["Ġà°ķ", "à±įà°°à°®"], ["Ġà°ķ", "à°¾à°µ"], ["à¥įà¤¤", "à¥įà¤°"], ["Ġà°ķ", "à°°à±įà°£"], ["à²µ", "à²°à³Ĩà²Ĺà³Ĩ"], ["Ġà°ķ", "à°·à±įà°Ł"], ["à¤µ", "à¤²"], ["Ġà°ķ", "à°¾à°Ĺà°¾"], ["à²µ", "à²¾à²¯"], ["Ġà°ķ", "à°®à°²"], ["Ġà°ķ", "à°®à±Ģ"], ["Ġà¤¤", "à¥Ģà¤¸"], ["à²µ", "à³įà²¯à²µà²¨à³įà²¨à³ģ"], ["Ġà°ķ", "à°¿à°Ĥà°Ĺ"], ["Ġà°ķ", "à°¾à°¨à±Ģ"], ["à¤Ĺ", "à¤°"], ["Ġà°ķ", "à°¨à°¿à°ª"], ["à²µ", "à³įà²¸à³į"], ["à±ĩà°", "Łà±į"], ["Ġà¤Ĺ", "à¤¾à¤Ĥ"], ["à±ĩà°", "§à°Ĥ"], ["Ġà²¸", "à²¾à²Ĺ"], ["à±ĩà°", "Ĵà°ķ"], ["Ġà¤Ĺ", "à¤ı"], ["à±ĩà°", "Łà°¾à°¯"], ["à±ĩà°", "³à°µà°¿"], ["Ġà²¸", "à²Ĥà²¦"], ["Ġà¤Ĺ", "à¤Ĥà¤Ĺà¤¾"], ["Ġà°µ", "à°Ĥà°¦"], ["Ġà°µ", "à°¿à°¨"], ["Ġà¤Ĩ", "à¤ķ"], ["Ġà²¸", "à³Ĥà²"], ["Ġà°µ", "à°°à±ģ"], ["Ġà°µ", "à°¾à°¦"], ["Ġà°µ", "à±ĥ"], ["Ġà¤Ĩ", "à¤Ĺ"], ["Ġà²¸", "à³įà²¥"], ["Ġà°µ", "à°ľ"], ["Ġà°µ", "à°¦à±įà°¦"], ["Ġà¤Ĩ", "à¤§à¤¿à¤ķà¤¾à¤°à¤¿à¤ķ"], ["Ġà²¸", "à²°à²¿"], ["Ġà°µ", "à±ģà°¨à±įà°¨"], ["Ġà°µ", "à°°à±įà°£"], ["Ġà¤ī", "à¤¸"], ["Ġà°µ", "à±Ĩà°²à±ģ"], ["Ġà²¸", "à³Īà²¨"], ["Ġà°µ", "à±Ĥà°ª"], ["à¤¾à¤¤", "à¤¾"], ["Ġà°µ", "à°°à°¿"], ["Ġà²¸", "à²¾à²Ĺà²°"], ["Ġà°µ", "à°²à±įà°²"], ["Ġà¤µà¤¿à¤", "ľ"], ["Ġà°µ", "à°¨à°¾à°²à±ģ"], ["Ġà°µ", "à°¾à°¦à°¨"], ["Ġà²¸", "à²°à³įà²ķ"], ["Ġà¤¯", "à¥ģà¤Ĺ"], ["Ġà°µ", "à±ģà°Ĥà°Ł"], ["Ġà°µ", "à°Ĥà°¶à°Ĥà°²à±ĭ"], ["Ġà²¸", "à²°à²¾à²¸"], ["Ġà¤ļ", "à¤¾à¤°"], ["Ġà°µ", "à°¨à±įà°¯"], ["Ġà°µ", "à°°à°ķà±Ĥ"], ["à±įà°¯", "à°¾"], ["Ġà¤ļ", "à¥Ģà¤¨"], ["Ġà²Ń", "à³Į"], ["à±įà°¯", "à°®"], ["à±įà°¯", "à°¸"], ["à¤¾à¤¦", "à¥Ģ"], ["Ġà²Ń", "à²¾à²°à²¿"], ["à±įà°¯", "à°ļ"], ["à±įà°¯", "à°¾à°¡"], ["à¤¾à¤¦", "à¥įà¤µà¥Ģà¤ª"], ["à±įà°¯", "à°®à±Īà°¨à°¦à°¿"], ["à³įà²¯", "à²¦à²²à³įà²²à²¿"], ["à±įà°¯", "à°¾à°Łà°ķ"], ["à¥ĥ", "à¤¦à¥įà¤§"], ["à°®", "à±į"], ["à³įà²¯", "à²¾à²ķà³į"], ["à°®", "à°¿"], ["Ġà¤¸à¤®", "à¥įà¤ª"], ["à°®", "à±Ĥ"], ["à°®", "à±ģà°²à±ģ"], ["Ġà²®", "à²Ĺ"], ["Ġà¤¹à¥ĭ", "à¤¤à¥Ģ"], ["à°®", "à°Ĥà°¤"], ["à°®", "à°¾à°£"], ["Ġà²®", "à²¯"], ["à¥įà¤¥", "à¤¾à¤¨"], ["à°®", "à°¿à°Ĥà°ļà°¿"], ["à°®", "à°°à±įà°ľ"], ["à°®", "à°¸à±į"], ["à¤¸à¥ĩ", "à¤¨à¤¾"], ["Ġà²®", "à²Ĥà²¡"], ["à°®", "à°¿à°¤à°¿"], ["à°®", "à±Ĥà°²"], ["Ġà¥§à¥¯à¥", "Ń"], ["Ġà²®", "à²°à³ģ"], ["à°®", "à°¤à°¿à°¨à°¿"], ["à°®", "à±įà°¯à°¾à°²à±ģ"], ["Ġà¥§à¥¯à¥", "®"], ["à°®", "à±ĭà°¨à±įà°¨"], ["Ġà²®", "à²¾à²²"], ["Ġà°®", "à°¿à°¨"], ["Ġà¤ľà¤¿à¤¸", "à¤ķà¥ĩ"], ["Ġà°®", "à°¯"], ["Ġà²®", "à²Ĥà²¤à³įà²°"], ["Ġà°®", "à°¾à°¨"], ["à¤ķà¤°", "à¤£"], ["Ġà°®", "à°¸"], ["Ġà°®", "à°£"], ["Ġà²®", "à³Į"], ["Ġà¤¬à¤¡à¤¼", "à¥ĩ"], ["Ġà°®", "à°¿à°Ĺ"], ["Ġà°®", "à°¾à°°à±ģ"], ["Ġà²®", "à²¾à²°à³ģ"], ["Ġà°®", "à°¾à°®"], ["Ġà¤¬à¤¡à¤¼", "à¥Ģ"], ["Ġà°®", "à±ĩà°¨"], ["Ġà°®", "à°¾à°Ĥà°¡"], ["Ġà²®", "à²¨à³Ĩà²¯"], ["Ġà¤¡", "à¥īà¤²"], ["Ġà°®", "à±Ĩà°¹"], ["Ġà°®", "à°Ĥà°ļà°¿"], ["Ġà¤µà¥įà¤¯", "à¤µà¤¸à¥įà¤¥à¤¾"], ["Ġà²®", "à²¾à²¡à²¿à²°à³ģà²µ"], ["Ġà°®", "à±Ĥà°²"], ["Ġà°®", "à°¾à°¨à°Ĥ"], ["à¤®à¥įà¤", "¬"], ["Ġà°®", "à°Ĥà°ľ"], ["Ġà²®", "à³Ĩà²·"], ["Ġà°®", "à±ĩà°°"], ["Ġà¤ħà¤²", "à¤Ĺ"], ["Ġà°®", "à°¦à±įà°°"], ["Ġà²®", "à²¾à²°à³įà²Ĺ"], ["Ġà°®", "à±Ĩà°Łà±įà°°"], ["Ġà¤¸à¤¹", "à¤¯à¥ĭà¤Ĺ"], ["Ġà°®", "à±ĩà°°à±ĭ"], ["Ġà°®", "à°¾à°°à°¿à°Ĥà°¦à°¿"], ["Ġà²ª", "à³ĭ"], ["Ġà¤ħà¤Ĥà¤Ĺà¥įà¤°à¥ĩà¤ľ", "à¥Ģ"], ["Ġà°®", "à°¾à°²à±įà°¦"], ["Ġà°®", "à±ĩà°³à°µà°¿"], ["Ġà²ª", "à³Į"], ["Ġà°Ń", "à°Ĥà°Ĺ"], ["Ġà¤Ĭ", "à¤ģ"], ["Ġà°Ń", "à±Ĥà°ª"], ["Ġà²ª", "à³ģà²°"], ["Ġà°Ń", "à°°à°¤"], ["à¤¾à¤§", "à¤¿à¤ķ"], ["Ġà°Ń", "à°¾à°°à±įà°¤"], ["Ġà°Ń", "à°¿à°Ĥà°¬"], ["Ġà¤Ĩà¤§", "à¥ģà¤¨à¤¿à¤ķ"], ["Ġà²ª", "à³ģà²¤à³įà²°"], ["Ġà°Ń", "à°¾à°°âĢĮ"], ["à°µ", "à°¸"], ["à¤¶à¤¾à¤¸", "à¤¿à¤¤"], ["Ġà²ª", "à²°à²¿à²Ĺ"], ["à°µ", "à±Īà°¨"], ["à°µ", "à°°à±ģ"], ["à¥ĥà¤·", "à¥įà¤Ł"], ["à°µ", "âĢĮ"], ["Ġà²ª", "à³Ĩà²Ł"], ["à°µ", "à°¨à°¾à°²à±ģ"], ["Ġà¤¶à¥ģà¤°", "à¥Ĥ"], ["à°µ", "à°°à±įà°·"], ["Ġà²ª", "à²¾à²°à³įà²¸"], ["à°µ", "à°¾à°°à°¿"], ["Ġà¤µà¤¿à¤¸à¥įà¤¤", "à¥ĥà¤¤"], ["à°µ", "à°¾à°¦à°Ĥ"], ["à°µ", "à±Ģà°Ĥà°¦"], ["Ġà²ª", "à²³à³Ĩà²¯"], ["à°Ĥà°¦", "à±į"], ["Ġà¤¬à¤¹à¥ģà¤®", "à¤¤"], ["à°Ĥà°¦", "à±ģà°µ"], ["à³įà²¤", "à²¿à²¯à²¿à²Ĥà²¦"], ["à°Ĥà°¦", "à°°à±ĭ"], ["Ġà¤ķà¤¿à¤¨", "à¥įà¤¤à¥ģ"], ["à°Ĥà°¦", "à±ģà°Ĺà°¾"], ["à°Ĥà°¦", "à°°à±Ĥ"], ["à³įà²²", "à³Ĩà²Ĥà²¡"], ["à¤ªà¤¾à¤²", "à¤¿à¤ķà¤¾"], ["à°¿à°ķ", "à°¤"], ["à°¿à°ķ", "à±ģà°²à±ģ"], ["Ġà¤µà¤¿à¤¦à¥ĩà¤¶", "à¥Ģ"], ["à³ĩ", "à²°"], ["à°¿à°ķ", "à±ģà°²"], ["à°¿à°ķ", "à±ĩà°¨"], ["Ġà¤ħà¤°à¥įà¤¥", "à¤µà¥įà¤¯"], ["à°¿à°ķ", "à°Ĥà°Łà±ĩ"], ["à³ĩ", "à²¯"], ["à°¿à°ķ", "à°®à±Īà°¨à°¦à°¿"], ["Ġà¤§à¥Ģ", "à¤°à¥ĩ"], ["à±Ĩ", "à°ľ"], ["à³ĩ", "à²°à³Ĩ"], ["à±Ĩ", "à°¨à±ĩ"], ["à±Ĩ", "à°°à±į"], ["à¥įâĢ", "į"], ["à±Ĩ", "à°ªà±įà°ª"], ["à³ĩ", "à²¤à³įà²°"], ["à±Ĩ", "à°¨à±įà°¸"], ["Ġà¤Ĺà¤¾à¤Ĥ", "à¤§à¥Ģ"], ["à±Ĩ", "à°ķà±įà°¨"], ["à³ĩ", "à²ĸ"], ["Ġà°°", "à±ĩ"], ["Ġà¤¡à¥īà¤²", "à¤°"], ["Ġà°°", "à°¾à°¤"], ["Ġà°°", "à±Ĭ"], ["à³ĩ", "à²°à²¿"], ["Ġ", "âĢ"], ["Ġà°°", "âĢĮ"], ["Ġà°°", "à°ķà±įà°·"], ["¤", "à¤®à¤¾à¤¨"], ["Ġà²Ńà²¾à²°à²¤", "à²µà³ģ"], ["Ġà°°", "à±Ģà°¤"], ["Ġà°°", "à±ģà°ļ"], ["µ", "à¤¾à¤¦"], ["Ġà°°", "à°µà±Ģà°Ĥà°¦"], ["Ġà²Ńà²¾à²°à²¤", "à²µà³Ĥ"], ["à°¡", "à°¾à°²à±ģ"], ["à¥", "§"], ["à°¡", "à±įà°²"], ["Ġà²¹", "à³Ĭ"], ["à¥įà¤", "ł"], ["à°¡", "à°¿à°Ĺ"], ["à°¡", "à±įà°ļ"], ["Ġà¤ķ", "à¥ĥà¤·"], ["à°¡", "à°µà°¸à±įà°¥"], ["Ġà²¹", "à²¤à³įà²¤"], ["à°¡", "à°¿à°Ĥà°ļà°¿à°Ĥà°¦à°¿"], ["à¤¤", "à¤¿à¤¹"], ["à°¡", "à°¿à°¸à±įà°"], ["Ġà²¹", "à²¨à³įà²¨"], ["à°¡", "à°¿à°Ĥà°ļà°¿"], ["à¤¤", "à¤ĥ"], ["à°¡", "à°Ĥà°¤à±ĭ"], ["à°¡", "à±įà°¯à°ļ"], ["Ġà²¹", "à²¿à²®"], ["Ġà¤¸", "à¥Ģ"], ["à°²à±ģ", "à°Ĺà°¾"], ["Ġà°ªà±įà°°", "à°¯"], ["Ġà¤¸", "à¥Ĥ"], ["Ġà²¹", "à²°à²¿à²¯"], ["Ġà°ªà±įà°°", "à°Ĺ"], ["à¤¨", "à¥įà¤¨"], ["Ġà°ªà±įà°°", "à°¾à°¯"], ["Ġà°ªà±įà°°", "à°£"], ["à²¸", "à³įà²¤à²¾à²¨"], ["à¥ĭ", "à¤¢à¤¼"], ["Ġà°ªà±įà°°", "à°¾à°®"], ["Ġà°ªà±įà°°", "à°¾à°¬"], ["à²¸", "à²¿à²¤à³ģ"], ["à¥ĭ", "à¤¸à¥Ģ"], ["Ġà°ªà±įà°°", "à°¤à°¿"], ["Ġà°ªà±įà°°", "à°¾à°°à±įà°"], ["à¥ĭ", "à¤ļà¥įà¤ļ"], ["Ġà°ªà±įà°°", "à°¾à°¸"], ["à²¸", "à²Ĥà²¸à³įà²¥à³Ĩ"], ["Ġà°ªà±įà°°", "à°¾à°ľ"], ["Ġà¤®", "à¥ĭ"], ["Ġà°ªà±įà°°", "à°ĸà±įà°¯"], ["à²²à³įà²²", "à²°à²¿à²Ĺ"], ["Ġà°ªà±įà°°", "à°¥"], ["Ġà¤ª", "à¥ģ"], ["Ġà°ªà±įà°°", "à°¾à°¦à±ĩà°¶"], ["Ġà¤ķà¥ĩ", "à¤µà¤²"], ["Ġà°ªà±įà°°", "à°®à°¾à°£"], ["à²²à³įà²²", "à³ĩà²ĸ"], ["ĠT", "ype"], ["à¤¸", "à¤®"], ["à°¾à°°à°¤", "à°Ĥ"], ["Ġà²ķ", "à³Ĭ"], ["à°¾à°°à°¤", "à°®à±įà°¯à°¾à°²à±ģ"], ["à¤¸", "à¥įà¤µ"], ["à±įà°¨", "à°Ĥ"], ["Ġà²ķ", "à²¡"], ["à±įà°¨", "à°²à±ģ"], ["à¤¸", "à¤¿à¤¤"], ["à±įà°¨", "à°¾à°²à±ģ"], ["à±įà°¨", "à±ĩà°¯"], ["Ġà¤Ń", "à¤¾à¤ľà¤ªà¤¾"], ["Ġà²ķ", "à²£"], ["à°ª", "à°Ĥ"], ["à°ª", "à°¦"], ["à¤®", "à¤¹"], ["Ġà²ķ", "à²Ĥà²¡"], ["à°ª", "à°Ł"], ["à°ª", "à±ģà°²"], ["à¥įà¤¯", "à¤®"], ["à°ª", "à°°à°¿"], ["Ġà²ķ", "à³Ī"], ["Ġà¤ħ", "à¤Ĺ"], ["à°ª", "à°¾à°Ĥà°¡"], ["à°ª", "à°¾à°Łà±ģ"], ["Ġà¤ħ", "à¤¬"], ["Ġà²ķ", "à²¾à²µ"], ["à°ª", "à°²à°¿"], ["à°ª", "à°¡à±ģà°¤à±ģà°¨à±įà°¨"], ["à¤¯", "à¤¾à¤¸"], ["à°ª", "à°¤à±ģà°²à±ģ"], ["Ġà²ķ", "à³įà²°à²¿à²"], ["Ġ1", "000"], ["Ġà¤ľ", "à¥Ī"], ["Ġ1", "42"], ["Ġà²ķ", "à³įà²·"], ["Ġà°Ńà°¾à°°à°¤", "à°Ĥ"], ["Ġà¤¨", "à¤¿à¤¯"], ["Ġà°Ńà°¾à°°à°¤", "à°Ĥà°²à±ĭ"], ["Ġà°ħ", "à°Ĥà°¦à°¿"], ["Ġà²ķ", "à³ģà²¶"], ["Ġà¤¨", "à¤µ"], ["Ġà°ħ", "à°¸à±įà°"], ["Ġà°ħ", "à°°à±ģ"], ["Ġà¤¬", "à¥Ī"], ["Ġà²ķ", "à³ĭà²²"], ["Ġà°ħ", "à°¦à°¿"], ["Ġà°ħ", "à°¦à±įà°¦"], ["Ġà¤¬", "à¤¨à¤¾"], ["Ġà°ħ", "à°¶"], ["Ġà²ķ", "à³Ĥà²¡"], ["Ġà¤¬", "à¤¾à¤¹"], ["Ġà°ħ", "à°¨à±įà°¨à°¿"], ["Ġà°ħ", "à°ķà±įà°·à°°"], ["Ġà¤¬", "à¤¦à¤²"], ["Ġà²ķ", "à³Ĩà²³"], ["Ġà°ħ", "à°Ĥà°Łà±ĩ"], ["Ġà°ħ", "à°ĸà°Ĥà°¡"], ["Ġà¤µ", "à¤¿à¤°"], ["Ġà°ħ", "à°²à±įà°ª"], ["à²ķ", "à²¦à²¿à²Ĥà²¦"], ["Ġà°ħ", "à°°à±ĩà°"], ["Ġà¤¦", "à¤¿à¤²"], ["Ġà°ħ", "à°®à°²"], ["à²ķ", "à²Łà³įà²Łà³Ĩ"], ["Ġà°ħ", "à°²à°Ĥà°ķ"], ["Ġà¤¦", "à¥ĥà¤·à¥įà¤Ł"], ["Ġà°ħ", "à°°à°µ"], ["Ġà°ħ", "à°Ĥà°ķà±Ĩà°²à±ģ"], ["à¤¿à¤¯", "à¤¾à¤¨"], ["à²ķ", "à²°à²Ĺà²³à²¿à²Ĥà²¦"], ["Ġà°ħ", "à°²à±Ģà°¨"], ["Ġà°ħ", "à°Ĥà°¦à°°à±Ĥ"], ["à¤¿à¤ķ", "à¥Ģ"], ["Ġà²µ", "à²¶"], ["th", "nolog"], ["à¤¦", "à¥Ģ"], ["à±Ĥ", "à°Ł"], ["à±Ĥ", "à°¸"], ["Ġà²µ", "à²¿à²°"], ["à¤¦", "à¥įà¤°"], ["à±Ĥ", "à°°à±įà°µ"], ["à±Ĥ", "à°¦à±ģà°²à±ģ"], ["à¤µ", "à¤°à¥Ģ"], ["Ġà²µ", "à²¹"], ["à°¾à°²à±ģ", "à°Ĺà°¾"], ["ĠB", "S"], ["à¤µ", "à¥Ģà¤Ĥ"], ["à±Ī", "à°ķ"], ["Ġà²µ", "à²°à³Ĩ"], ["à±Ī", "à°Ĺ"], ["à¤µ", "à¤¾à¤¯à¥ģ"], ["à±Ī", "à°¸à±įà°¤"], ["Ġà²µ", "à³Ī"], ["à±Ī", "à°¨à±ģà°²à±ģ"], ["Ġà¤¤", "à¤°"], ["à±Ī", "à°²à±Ģ"], ["Ġà¤ªà¥įà¤°", "à¤¤à¥įà¤¯"], ["à±Ī", "à°²à°¸"], ["Ġà²µ", "à³ĥ"], ["à±Ī", "à°°à±Ĩà°Ĥà°¡"], ["Ġà¤ªà¥įà¤°", "à¤¯à¤¾à¤¸"], ["à°Ł", "à±ĩ"], ["Ġà²µ", "à³ĥà²·"], ["à°Ł", "à°²à±ģ"], ["à¥ģà¤", "§"], ["à°Ł", "à°Ĥà°¡"], ["à°Ł", "à±ģà°µ"], ["Ġà²µ", "à²¾à²¸à³įà²¤"], ["Ġà¤Ĩ", "à¤ª"], ["à°Ł", "à°°à±įà°²"], ["à°Ł", "à°Ĥà°¤à±ĭ"], ["Ġà¤Ĩ", "à¤ľ"], ["Ġà²µ", "à²¾à²°à³įà²·"], ["à°Ł", "à±Ĩà°¹"], ["à°Ł", "à°ļà±ĩ"], ["Ġà¤Ĩ", "à¤¨à¥įà¤¦"], ["à°Ł", "à±Ģà°²à°²à±ĭ"], ["à²Ĺà²³", "à²¾à²¦"], ["Ġà¤ī", "à¤¦à¥įà¤¯à¥ĭà¤Ĺ"], ["à°Ł", "à°®à±Ĥ"], ["ĠS", "I"], ["à²Ĺà²³", "à²¾à²Ĺà²¿"], ["à°¿à°¨", "à°¾à°²à±ģ"], ["Ġà¤²", "à¥ĩ"], ["à°¿à°¨", "à°¿à°²à±įà°²"], ["Ġà¤²", "à¤¾à¤ĸ"], ["à°¿à°¨", "à°¿à°§"], ["à²Ĺà²³", "à³Ĭà²Ĥà²¦à²¿à²Ĺà³Ĩ"], ["à°¿à°¨", "à±ĩà°¤"], ["Ġà¤¶", "à¤¿à¤ķ"], ["à°¿à°¨", "à±Ĩà°¸à±į"], ["à²¯", "à²¿"], ["à°¯", "à°¾"], ["Ġà¤¶", "à¤¾à¤Ĥ"], ["à°¯", "à°Ĥ"], ["à²¯", "à²µà²¾à²Ĺ"], ["à°¯", "à°¿à°¨"], ["Ġà¤¶", "à¥įà¤°à¥Ģ"], ["à°¯", "à°Ĥà°²à±ĭ"], ["à°¯", "à°°à±į"], ["à¤¡", "à¥Ģ"], ["à²¯", "à²¾à²°à²¿à²ķà³Ĩ"], ["à°¯", "à°¾à°¤à±įà°°"], ["à°¯", "à°Ĥà°¤à±ĭ"], ["Ġà¤µà¤¿à¤", "µà¤¾à¤¦"], ["Ġà²¬", "à²¿à²Ĥà²"], ["à°¯", "à±ģà°ķà±įà°¤"], ["à°¯", "à±Ĥà°¦à±ģà°²à±ģ"], ["à¤£", "à¤¾"], ["à°¾à°¨", "à±ĩ"], ["Ġà²¬", "à²°à³ģ"], ["à¤£", "à¥Ģ"], ["à°¾à°¨", "à°Ĥà°²à±ĭ"], ["à°¾à°¨", "à±ģà°²à±ģ"], ["Ġà¤ķà¤°", "à¤¤à¤¾"], ["Ġà²¬", "à²¿à²²"], ["à°¾à°¨", "à°®à±Īà°¨"], ["à°¾à°¨", "à°¾à°²à°¤à±ĭ"], ["à¤¿à¤¨", "à¥įà¤¨"], ["à°¾à°¨", "à°¿à°¸à±įà°¤à°¾à°¨à±į"], ["Ġà²¬", "à²Ĥà²Ĺ"], ["à°¾à°¨", "à±Ĩà°Łà±į"], ["Ġà¤ĩà¤¸", "à¤ķà¥Ģ"], ["à°¾à°¨", "à±įà°ķà±ģ"], ["Ġà²¬", "à²¦à²²"], ["à°¾à°¨", "à°ªà°¦"], ["Ġà¤¸à¤®", "à¤°à¥įà¤¥"], ["à°°à±įà°", "¦à±Ĥ"], ["à°°à±įà°", "®à±ĩà°·"], ["Ġà¤¸à¤®", "à¤¾à¤ªà¥įà¤¤"], ["Ġà²¬", "à²Ĥà²¦à³ģ"], ["à°°à±įà°", "¸à°¿à°Ĥà°Ĺ"], ["à¤¾à¤Ĥ", "à¤¸"], ["Ġà°¦", "à°Ĥà°¡"], ["Ġà²¬", "à²¾à²¹"], ["Ġà°¦", "à±Īà°¨"], ["à¤¾à¤Ĥ", "à¤Ĺ"], ["Ġà°¦", "à°¿à°Ĺ"], ["Ġà°¦", "à±ĥ"], ["Ġà²¬", "à²¿à²¡"], ["à¤¾à¤Ĥ", "à¤¡"], ["Ġà°¦", "à°ķà±įà°ķ"], ["Ġà°¦", "à°¶"], ["Ġà¥§à¥", "¦"], ["Ġà²¬", "à²Łà³įà²Łà³Ĩ"], ["Ġà°¦", "à±Ģà°ª"], ["Ġà°¦", "à°Ĺà±įà°Ĺ"], ["Ġà¤¹à¥ĭ", "à¤¤à¥ĩ"], ["Ġà°¦", "à°¸à°°"], ["Ġà²¬", "à²°à²²à²¾à²°à²Ĥà²Ńà²¿à²¸à²¿à²¦à²°à³ģ"], ["Ġà°¦", "à°°à±įà°¶"], ["Ġà¤µà¤°à¥įà¤", "£"], ["Ġà°¦", "à±ģà°¸à±įà°¤à±ģà°²à±ģ"], ["Ġà²¬", "à³įà²°à²¹à³įà²®"], ["Ġà¤µà¤°à¥įà¤", "¤à¤®à¤¾à¤¨"], ["Ġà°¦", "à±įà°°à°¾à°µ"], ["Ġà°¦", "à±Ģà°¨à±įà°¨à°¿"], ["à¤¾à¤ģ", "à¤ļ"], ["Ġà°¦", "à°¿à°¨à°¾à°²à±ģ"], ["Ġà²¬", "à³ĩà²°à³Ĩ"], ["Ġ2", "30"], ["Ġà¥§à¥¯à¥", "¬"], ["à°Ĺ", "à°Ĥ"], ["à³ĭ", "à²¡"], ["à°Ĺ", "à±ģà°¤"], ["Ġà¤¬à¤¨", "à¥Ģ"], ["à°Ĺ", "à°¿à°¨à±įà°¨"], ["à°Ĺ", "à°¿à°²à±įà°²à±Ģ"], ["à³ĭ", "à²¦à²¾à²µ"], ["Ġà¤¬à¤¨", "à¤¾à¤¨à¥ĩ"], ["à°Ĺ", "à±ĩà°ľ"], ["à°Ĺ", "à°²à°¿à°Ĺ"], ["Ġà¥¨", "à¥¦"], ["Ġà²ħ", "à²Ĥà²¦"], ["à°¨à±įà°¨", "à°¾à°°à±ģ"], ["à°¨à±įà°¨", "à°¦à°¿"], ["à¤«", "à¤²"], ["Ġà°ī", "à°¦à±įà°"], ["Ġà²ħ", "à²Ĥà²¤"], ["à¤«", "à¤¼"], ["Ġà°ī", "à°Ĥà°¡à°¿"], ["Ġà°ī", "à°Ĥà°¡à±ģ"], ["Ġà²ħ", "à²£"], ["Ġà¤¹à¤¿à¤¨à¥įà¤¦", "à¥Ĥ"], ["Ġà°ī", "à°·à±įà°£"], ["Ġà°ī", "à°¨à°¿à°ķ"], ["Ġà¤ªà¤¹", "à¤¾à¤¡à¤¼"], ["Ġà°ī", "à°°à±įà°¦à±Ĥ"], ["Ġà²ħ", "à²ķà³įà²·"], ["Ġà°ľ", "à±Īà°¨"], ["Ġà¤ħà¤§à¤¿à¤ķ", "à¤¾à¤°"], ["Ġà°ľ", "à°Ĥà°¤"], ["Ġà²ħ", "à²Ĥà²¤à²°"], ["Ġà°ľ", "à±Į"], ["à¤¿à¤¶", "à¤¤"], ["Ġà°ľ", "à°¿à°²à±įà°²"], ["Ġà°ľ", "à±Ģà°µ"], ["à¤¸à¥įà¤¤", "à¥įà¤°"], ["Ġà²ħ", "à²¸à³įà²¤"], ["Ġà°ľ", "à±ĭà°¨"], ["Ġà¤®à¤¾à¤¨", "à¤¾"], ["Ġà°ľ", "à°µà°¹"], ["Ġà²ħ", "à²¹à³įà²®"], ["Ġà°ľ", "à±ĭà°ķ"], ["à¥įà¤°à¥Ģ", "à¤ķà¤¾"], ["Ġà°ľ", "à±Īà°¨à±ģà°²à±ģ"], ["Ġà°ľ", "à°¾à°¨à°ªà°¦"], ["Ġà²ħ", "à²°à²¬à³įà²¬"], ["Ġà¤®à¤¿à¤²", "à¤¾"], ["à°¾à°¯", "à°Ĥ"], ["à°¾à°¯", "à°ķà±ģ"], ["Ġà¤ħà¤®", "à¤°à¥Ģ"], ["Ġà²ħ", "à²¤à²¿à²¦"], ["à°¾à°¯", "à°¨à°¿"], ["à°¾à°¯", "à°¤à°¿"], ["Ġà¤ħà¤Ĥà¤Ĺà¥įà¤°à¥ĩà¤ľ", "à¤¼à¥Ģ"], ["à°¾à°¯", "à°¿à°²à±ĭ"], ["à³Ĭ", "à²°à³Ĩ"], ["à°¾à°¯", "à°¿à°Ĥà°ļà°¿"], ["Ġà¤ľà¤²", "à¥ĭà¤¢à¤¼"], ["à°¾à°¯", "à±Ģà°²à±ģ"], ["à²¿à²¯", "à³ĩ"], ["à°Ĥà°ļ", "à±ĩ"], ["Ġà¤ľà¤²", "à¤µà¤¾à¤¯à¥ģ"], ["à°Ĥà°ļ", "à°¿à°¨"], ["à¥ģà¤ª", "à¥įà¤¤"], ["à°¾à°¤", "à°¥"], ["à²¿à²¯", "à²®"], ["à°¾à°¤", "à°°à°Ĥ"], ["Ġà¤ħà¤Ń", "à¥Ģ"], ["à°¦à±ĩà°¶", "à°Ĥà°²à±ĭ"], ["à²¿à²¯", "à²¨à³įà²¨à³ģ"], ["à°¦à±ĩà°¶", "à°ªà±ģ"], ["Ġà¤µà¤¿à¤Ń", "à¤¿à¤¨à¥įà¤¨"], ["à°¦à±ĩà°¶", "à°¾à°²à°²à±ĭ"], ["à²¿à²¯", "à²·à³įà²Ł"], ["Ġà°¨", "à°¾à°Ł"], ["Ġà¤ªà¤¡à¤¼", "à¥ĭà¤¸à¥Ģ"], ["Ġà°¨", "à±ģà°¨à±įà°¨"], ["Ġà°¨", "à°¡à±ģ"], ["Ġà¤ªà¥įà¤°à¤¤", "à¤¿à¤¶à¤¤"], ["à²¿à²¯", "à²¨à²¿à²ľ"], ["Ġà°¨", "à°¿à°·"], ["Ġà°¨", "à±ĥà°¤"], ["Ġà¤¸à¥įà¤¥à¤¾à¤ª", "à¤¨à¤¾"], ["à²®", "à²¿"], ["Ġà°¨", "à°¦à±ģà°²à±ģ"], ["Ġà¤¸à¤°à¥įà¤µ", "à¥ĭà¤ļà¥įà¤ļ"], ["Ġà°¨", "à±ĭà°¬"], ["Ġà°¨", "à±Ĥà°Ł"], ["à²®", "à²£"], ["Ġà¤ľà¤¾à¤¨", "à¤¾"], ["Ġà°¨", "à°¾à°¯à°ķà±ģ"], ["à°Ĥà°Ĺ", "à°²"], ["Ġà¤ľà¤¬", "à¤ķà¤¿"], ["à²®", "à²µà²¾à²Ĺà²¿"], ["à°Ĥà°Ĺ", "à°Ĥà°Ĺà°¾"], ["à°Ĥà°Ĺ", "à±ģà°³"], ["Ġà¤Ĩà¤¦", "à¤¿"], ["ĠP", "AL"], ["à²®", "à³įà²®"], ["Ġà°ļ", "à°¿à°¤"], ["Ġà¤°à¤¾à¤ľà¤¨à¥Ģ", "à¤¤à¤¿à¤ķ"], ["Ġà°ļ", "à°®à±ģ"], ["à²®", "à³ģà²¨"], ["Ġà°ļ", "à°Łà±įà°Ł"], ["Ġà¤ĭ", "à¤¤"], ["Ġà°ļ", "à°¿à°¹"], ["Ġà¤ªà¤°à¤Ĥà¤ª", "à¤°"], ["Ġà°ļ", "à±Ĥà°ª"], ["à²®", "à²¾à²°à²¾à²Ĺà²¿"], ["Ġà°ļ", "à°¾à°³"], ["Ġà¤¯à¥Ĥà¤°", "à¥ĭà¤ª"], ["Ġà°ļ", "à±ĩà°¤"], ["à²®", "à²¯à²µà²¾à²Ĺ"], ["Ġà°ļ", "à±ĭà°³"], ["Ġà¤īà¤¤à¥įà¤ª", "à¤¾à¤¦"], ["Ġà°ļ", "à°¿à°¤à±įà°°à°ķ"], ["Ġà°ļ", "à±ĩà°°"], ["à²¿à²¦", "à²¿à²¦à³įà²¦à³ģ"], ["Ġà¤ħà¤ªà¥įà¤°", "à¥Īà¤²"], ["Ġà°ļ", "à±ģà°Łà±įà°Ł"], ["Ġà°ļ", "à°ķà±įà°°à°µà°°à±įà°¤"], ["Ġà¤ħà¤«", "à¥įà¤°à¥Ģà¤ķà¤¾"], ["à²¾à²Ĺ", "à²¿à²¦à³Ĩ"], ["Ġà°ļ", "à±Ģà°°"], ["à±įà°µ", "à°¸à±įà°¤"], ["Ġà¤ħà¤°à¥įà¤¥à¤µà¥įà¤¯", "à¤µà¤¸à¥įà¤¥à¤¾"], ["à±įà°µ", "à°¾à°¹"], ["à²¤à³įà²¤", "à²¾"], ["à±įà°µ", "à°¾à°²à±į"], ["à¤¤à¤¿à¤¹", "à¤¾à¤¸"], ["à±įà°µ", "à°°à°²à±ĭ"], ["à²¤à³įà²¤", "à²¿à²¨"], ["Ġà¤¸à¤®à¤°à¥įà¤¥", "à¤¨"], ["à±įà°µ", "à°¬à°¡à°¿à°¨"], ["à°§", "à°¾à°²"], ["Ġà¤¯à¥Ĥà¤°à¥ĭà¤ª", "à¥Ģà¤¯"], ["à°§", "à±ģà°®"], ["à²¤à³įà²¤", "à²¾à²°à³Ĩ"], ["à±įà°Ł", "à±įâĢĮ"], ["«", "à¥¦"], ["ĠE", "thnolog"], ["à²¤à³įà²¤", "à²¿à²Ĺà²³à²²à³įà²²à²¿"], ["Ġà°ĩ", "à°¨à±ģ"], ["²", "à¤¿à¤®"], ["Ġà°ĩ", "à°Ĥà°Ł"], ["¶", "à¤¨"], ["Ġà°ĩ", "à°®à±ģ"], ["à²Ĥà²¦", "à²¿à²°"], ["Ġà°ĩ", "à°ļà±įà°ļ"], ["à¤", "ĩ"], ["Ġà°ĩ", "à°Ĥà°ķ"], ["Ġà²¨", "à²²à³įà²²à²¿"], ["à¤", "Ŀ"], ["Ġà°ĩ", "à°ªà±įà°ªà°Łà°¿à°ķà±Ģ"], ["Ġà°ĩ", "à°¦à±ĩ"], ["Ġà¤", "Ĳ"], ["Ġà°ĩ", "à°¤à°¨à±ģ"], ["Ġà²¨", "à²Ĥà²¤"], ["Ġà¤", "¢"], ["Ġà°ĩ", "à°¨à±įâĢĮ"], ["Ġà°ĩ", "à°¤à°¿à°¹"], ["à¤°", "à¤¾à¤¤"], ["Ġà²¨", "à³Ģ"], ["Ġà°ĩ", "à°¯à°°à±į"], ["à¥ĩ", "à¤²"], ["à°²à±ĭ", "à°¯"], ["à°²à±ĭ", "à°¨à±ģ"], ["Ġà²¨", "à²¿à²°"], ["à¥ĩ", "à¤¡"], ["à°²à±ĭ", "à°ļ"], ["à¥įà¤", "ŀ"], ["Ġà°Ńà°¾à°°à°¤à°¦à±ĩà°¶", "à°®à±ģ"], ["Ġà²¨", "à³Ī"], ["Ġà°Ńà°¾à°°à°¤à°¦à±ĩà°¶", "à°®à±ĩ"], ["Ġà¤ķ", "à¤¿à¤¸"], ["à°Ĥà°¡", "à±įà°²à°¨à±ģ"], ["à°¨à±ģ", "à°Ĥà°¦à°¿"], ["Ġà¤ķ", "à¤¿à¤¯à¥ĩ"], ["Ġà²¨", "à²°à³įà²®"], ["à°¿à°Ĥà°ļ", "à±ģà°ķà±ģ"], ["à¤Ĥ", "à¤¸"], ["à°¿à°Ĥà°ļ", "à°µà°ļà±įà°ļà±ģ"], ["Ġà²¨", "à³Ĩà²°"], ["ĠH", "Z"], ["à¤¿à¤", "¬à¤Ĥà¤§"], ["à°¸à±įà°", "µà°¾à°®"], ["à¤¤", "à¤¨"], ["à°¸à±įà°", "Łà°²à±ģ"], ["Ġà²¨", "à³ĩà²°"], ["à±Ĭ", "à°ķà±įà°ķ"], ["à¤¤", "à¥įà¤¤"], ["à±Ĭ", "à°®à±įà°®"], ["Ġà²¨", "à³ĭà²¡"], ["à¤¤", "à¤¾à¤Ĥ"], ["à±Ĭ", "à°²à±Ģ"], ["à±Ĭ", "à°Ĥà°¦à°¿à°Ĥà°¦à°¿"], ["Ġà¤¸", "à¤²"], ["à±Ĭ", "à°°à±įà°¸à°¿à°Ĥà°Ĺ"], ["à²Ł", "à³Ĩà²²à²¿à²Ĺà³įà²°à²¾à²Ĥ"], ["à¤¨", "à¤¤"], ["à°¸", "à°Ĥ"], ["à°¸", "à°Ĺà°¾"], ["à¤¨", "à¥Ī"], ["à²¶", "à²¾à²¨"], ["à°¸", "à°¾à°ķ"], ["à¥ĭ", "à¤§"], ["à°¸", "à°¤à±įà°¤"], ["à²¶", "à²¾à²¸à³įà²¤"], ["à°¹", "à°¾à°²à±ģ"], ["Ġà¤®", "à¤Ĥà¤¤à¥įà¤°"], ["à°¹", "à±įà°®"], ["Ġà¤®", "à¤¾à¤§"], ["à°¹", "à°¾à°¯à°¿à°Ĥà°ļà°¿"], ["à²¶", "à³įà²°à³ĩ"], ["à°ķà±ģ", "à°Ĥà°¤"], ["Ġà¤®", "à¥Ĥà¤²"], ["à°ķà±ģ", "à°²à°¨à±ģ"], ["à²¶", "à²ķà²¦à²¿à²Ĥà²¦"], ["Ġà¤¹", "à¤°"], ["à°ķà±ģ", "à°¡à±Īà°¨"], ["Ġà°Ĩ", "à°£"], ["Ġà¤¹", "à¤¿à¤¸"], ["Ġà°Ĩ", "à°ļ"], ["Ġà²°", "à³Ģ"], ["Ġà°Ĩ", "à°¤à°¿"], ["Ġà¤ª", "à¤Ĥà¤ľ"], ["Ġà°Ĩ", "à°§à±įà°¯"], ["à¤¸", "à¥Ĥà¤¨"], ["Ġà²°", "à²·à³įà²¯"], ["Ġà°Ĩ", "à°¦à°¾à°¯"], ["Ġà°Ĩ", "à°ķà±įà°·à°°à°¾à°¸à±įà°¯à°¤"], ["à¤®", "à¥Ģ"], ["Ġà°Ĩ", "à°²à°¸"], ["Ġà²°", "à²·à³įà²Łà³ģ"], ["à¥įà¤¯", "à¤¾à¤¦"], ["Ġà°Ĩ", "à°¡à±ģà°¤à±ģà°¨à±įà°¨"], ["Ġà°Ĩ", "à°¦à±ĩà°¶à°¾à°²à±ģ"], ["à¥įà¤¯", "à¤Ł"], ["à²¿à²¸", "à²¿à²ķ"], ["Ġà°Ĩ", "à°Łà°²à±ģ"], ["à¤²", "à¤¾"], ["Ġà°Ĩ", "à°¯à°¾"], ["Ġà°Ĩ", "à°²à±ĭà°ļ"], ["à¤¹", "à¤¾à¤°"], ["à²¿à²¸", "à³ģà²µ"], ["à°¾à°Ĥ", "à°Łà°¿"], ["à¤¹", "à¤¾à¤ģ"], ["Ġà°¦à±ĩà°¶", "à°®à±ģ"], ["à²¿à²¸", "à²¿à²¦à³įà²¦à²¾à²°à³Ĩ"], ["Ġà°¦à±ĩà°¶", "à°¾à°§"], ["Ġà¤ľ", "à¥Ģ"], ["Ġà°¦à±ĩà°¶", "à°¾à°¨à±įà°¨à°¿"], ["Ġà¤ľ", "à¥Ģà¤µ"], ["Ġà°¦à±ĩà°¶", "à°°à°¾à°ľ"], ["à²¿à²¸", "à²²à³ģ"], ["Ġà°¦à±ĩà°¶", "à°®à°Ĥà°¤"], ["Ġà¤ľ", "à¥Ģà¤¤"], ["Ġà°¤", "à°¾à°ľ"], ["à²¾à²¨", "à³į"], ["Ġà¤ľ", "à¥Ĥà¤¨"], ["Ġà°¤", "à±Ĩà°²"], ["Ġà°¤", "à°¦à±ģ"], ["Ġà¤ľ", "à¤¹à¤¾à¤ģ"], ["Ġà°¤", "à°²à°Ĥà°ª"], ["à²¿à²¤", "à²¿à²¯"], ["Ġà°¤", "à±ĩà°²"], ["Ġà¤¨", "à¤¿à¤®"], ["Ġà°¤", "à°Ĺà±įà°Ĺ"], ["Ġà¤¨", "à¤¿à¤µ"], ["à²¿à²¤", "à³įà²µ"], ["Ġà°¤", "à±ģà°°à±ģà°·"], ["Ġà°¤", "à°²à°²"], ["Ġà¤¬", "à¤Ĥà¤Ĺ"], ["Ġà°¤", "à°°à°¤à°°"], ["à²¿à²¤", "à³įà²°à²Ĺà²³à³ģ"], ["Ġà¤¬", "à¥Į"], ["Ġà°¤", "à±ĩà°¦à°¿"], ["Ġà°¤", "à±įà°°à°¿à°µ"], ["Ġà¤µ", "à¥Ģà¤Ĥ"], ["à²°à³įà²", "£"], ["Ġà°¤", "à±Ĩà°ªà±įà°ª"], ["à¤¿à¤¯", "à¤¾à¤Ĥ"], ["Ġà°¤", "à°¾à°°à°¤à°®à±įà°¯à°¾à°²à±ģ"], ["Ġà°¤", "à±įà°µà°°à°²à±ĭ"], ["à²°à³įà²", "ļà³ģà²Ĺ"], ["Ġà¤°", "à¥Ĥà¤¸"], ["à°£", "à°¿"], ["à¤¦", "à¤¾"], ["à°£", "à°Ĥ"], ["à²°à³įà²", "ªà²Łà³įà²Ł"], ["à°£", "à±ĩ"], ["à¤¦", "à¤¾à¤°"], ["à°£", "à°¾à°¸"], ["à¤¦", "à¤¾à¤°à¥Ģ"], ["à°£", "à°¦à°¾à°°à±ģà°²à±ģ"], ["à²°à³įà²", "Ńà²¦à²²à³įà²²à²¿"], ["à±ģà°²à±ģ", "à°¨à±įà°¨à°¾à°¯à°¿"], ["à¥įà¤¤", "à¤¨à¤¤"], ["Ġà°°à°¾à°", "£à°¿à°Ĥà°ļ"], ["Ġà²Ńà²¾à²°à²¤à²¦", "à²¿à²Ĥà²¦"], ["Ġà¤¤", "à¥ĭ"], ["Ġà°°à°¾à°", "®à°¾à°¯"], ["Ġà°°à°¾à°", "¸à°¿à°¨"], ["Ġà¤¤", "à¤Ł"], ["à°¿à°¤", "à°Ĥ"], ["Ġà²Ńà²¾à²°à²¤à²¦", "à³Ĭà²Ĥà²¦à²¿à²Ĺà³Ĩ"], ["Ġà¤ªà¥įà¤°", "à¤¸"], ["à°¿à°¤", "à±ĩ"], ["à°¿à°¤", "à±ĭ"], ["Ġà¤ªà¥įà¤°", "à¤ļ"], ["Ġà³", "§à³¦"], ["à°¿à°¤", "à°Ĥà°²à±ĭ"], ["à°¿à°¤", "à°¿à°ķà°¿"], ["Ġà¤ªà¥įà¤°", "à¥Į"], ["à°¿à°¤", "à±įà°¯à°Ĥ"], ["Ġà³", "«à³¦à³¦"], ["Ġà¤ªà¥įà¤°", "à¤¶à¤¾à¤¸"], ["Ġà°Ĺ", "à°¾"], ["Ġà°Ĺ", "à±ģà°¤"], ["à¥ģà¤", "ģ"], ["Ġà³", "¬à³ª"], ["Ġà°Ĺ", "à°Ĥà°Ĺà°¾"], ["à¥ģà¤", "Ĩ"], ["Ġà°Ĺ", "à±įà°°à±Ģ"], ["Ġà°Ĺ", "à±Į"], ["Ġà³", "®à³¦à³¦"], ["à¥ģà¤", "¡à¤¼"], ["Ġà°Ĺ", "à±Ĩà°²"], ["à¤¾à¤ľ", "à¤¿à¤ķ"], ["Ġà°Ĺ", "à±Ģà°¤"], ["à²¡", "à³ģà²µ"], ["Ġà°Ĺ", "à±ģà°ª"], ["Ġà¤Ĺ", "à¥ģà¤ªà¥įà¤¤"], ["Ġà°Ĺ", "à±ĩà°¯"], ["Ġà¤Ĩ", "à¤¸"], ["Ġà°Ĺ", "à°¨à±ģà°²à±ģ"], ["à²¡", "à³Ĩà²¯à²¨à³įà²¨à³ģ"], ["à°ļ", "à°¿à°¨"], ["Ġà¤Ĩ", "à¤µ"], ["à°ļ", "à°¿à°¤"], ["à²¡", "à²¨à³Ĩà²¯"], ["Ġà¥", "¬"], ["à°ļ", "à°¿à°ª"], ["à°Ń", "à°¾"], ["Ġà¤ī", "à¤Ń"], ["à°Ń", "à±įà°¯à°®à±Īà°¨"], ["à²¡", "à²¿à²¯à²¨à³įà²¨à³ģ"], ["Ġà¤ī", "à¤ļà¥įà¤ļ"], ["Ġà°¬", "à°¾à°¬"], ["Ġà°¬", "à±ģà°ķ"], ["à²¡", "à²¿à²¸à²¿à²ķ"], ["à¥įà¤·", "à¤°"], ["Ġà°¬", "à°¿à°¨à±įà°¨"], ["Ġà°¬", "à°¿à°ľ"], ["Ġà¤²", "à¤¡à¤¼"], ["à³¦", "à³§"], ["Ġà°¬", "à°¾à°Ĺà°¾"], ["Ġà¤ĩ", "à¤¤à¤¿à¤¹à¤¾à¤¸"], ["Ġà°¬", "à°¾à°Ĥà°¬"], ["Ġà°¬", "à±įà°¯à°¾à°¡"], ["Ġà¤ªà¤°", "à¥įà¤¯à¤Ł"], ["Ġà²¦", "à³įà²µ"], ["Ġà°¬", "à°Ĥà°¡à±įà°²à°¨à±ģ"], ["Ġà¤ķà¥ĭ", "à¤Ī"], ["Ġà°¬", "à±Ĭà°®à±įà°®"], ["Ġà²¦", "à²ª"], ["à±ģà°¤", "à±Ĥ"], ["à¤¬", "à¤°"], ["à±ģà°¤", "à±įà°¯à°Ĥ"], ["à¤¬", "à¥Ģ"], ["à°Ĥà°Ł", "à°¿"], ["Ġà²¦", "à²ĸ"], ["à°Ĥà°Ł", "à±ĭ"], ["à¤¾à¤¤", "à¥įà¤®"], ["Ġà°µà°¿à°", "§à°¿"], ["à¤¤à¥įà¤°", "à¤¿à¤ķ"], ["Ġà²¦", "à²¾à²³"], ["Ġà°µà°¿à°", "ľà±įà°"], ["Ġà°µà°¿à°", "¡à°¿à°ªà±ĭà°¯à°¿à°Ĥà°¦à°¿"], ["à¤¾à¤¸", "à¥įà¤¤"], ["Ġà°µà°¿à°", "«à°²"], ["Ġà²¦", "à³ģà²¶"], ["à¤ľ", "à¥Ģ"], ["à±Īà°¨", "à°ªà±įà°ªà°Łà°¿à°ķà±Ģ"], ["à±Īà°¨", "à±Ĩà°°à±į"], ["Ġà¤ļ", "à¥ģ"], ["Ġà²¦", "à³įà²°à²¾à²µ"], ["à°°à±ģ", "à°Ĺà°¾"], ["Ġà¤°à¤¾à¤ľ", "à¤§à¤¾à¤¨"], ["à±Ĥà°¡", "à°¾"], ["à±Ĥà°¡", "à°¿"], ["Ġà²¦", "à³Ĭà²°à³Ĩ"], ["Ġà¤°à¤¾à¤ľ", "à¤¨à¥Ī"], ["Ġà°¸à°Ĥà°", "§à°¿"], ["à°®à±ģ", "à°¨"], ["à¤¨à¥ĩ", "à¤ķ"], ["Ġà²¦", "à²¶à²ķà²¦à²¿à²Ĥà²¦"], ["à°®à±ģ", "à°²à°ķà±ģ"], ["à¤Ń", "à¤¾à¤·"], ["Ġà°İ", "à°Ĺà±ģ"], ["Ġà°İ", "à°¦à±ģ"], ["à¤¾à¤¯", "à¤ķ"], ["à³įà²¨", "à³ĩà²¯"], ["Ġà°İ", "à°²à±įà°²"], ["Ġà¥§à¥", "®"], ["Ġà°İ", "à°Ĥà°¤à±ĭ"], ["à²¿à²ķ", "à²¦"], ["Ġà°İ", "à°Ĺà±ģà°µ"], ["Ġà¤ħà¤¨", "à¥įà¤¤à¤°"], ["Ġà°İ", "à°®à°°à±įà°ľ"], ["Ġà¤Ńà¥Ģ", "à¤²"], ["Ġà°¶", "à°ķ"], ["à²¿à²ķ", "à²µà²¾à²Ĺà²¿"], ["Ġà°¶", "à°¾à°ķ"], ["à¥Į", "à¤°"], ["Ġà°¶", "à±įà°²à±ĭ"], ["Ġà¤ľà¤¨", "à¤¤à¤¾"], ["à²¿à²ķ", "à³įà²ķ"], ["Ġà°¶", "à°°à°¦"], ["Ġà°¶", "à±Īà°²à±Ģ"], ["Ġà¤ľà¤¨", "à¤µà¤°à¥Ģ"], ["Ġà°¶", "à°ķà±ģà°Ĥà°¤"], ["à²¿à²ķ", "à³Ĭà²Ĥà²¡"], ["à¤¸à¥įà¤", "²à¤¿à¤®"], ["âĢĮ", "à°µâĢĮ"], ["à°Ĥà°¤", "à±Ī"], ["Ġà¤¬à¤¨", "à¤¾à¤Ī"], ["à³Ģ", "à²ª"], ["à°¿à°Ĺ", "à±ĩ"], ["Ġà¤°à¤¹", "à¥Ģ"], ["à°¿à°Ĺ", "à°®à°¿à°Ĥà°ļà°¿"], ["à°¾à°°à±ģ", "à°¡à±ģ"], ["à³Ģ", "à²¸à³į"], ["Ġà¤¸à¤°à¤ķà¤¾à¤°", "à¥ĩà¤Ĥ"], ["Ġà°īà°¨à±įà°¨", "à°Łà±įà°²à±ģ"], ["Ġà¤ľà¤¿à¤¸", "à¤ķà¤¾"], ["Ġà°īà°¨à±įà°¨", "à°¤à°Ĥà°Ĺà°¾"], ["à³Ģ", "à²µà³įà²¸à³į"], ["à°ķà±įà°·", "à°Ĥà°Ĺà°¾"], ["à¤¿à¤°", "à¤¾"], ["à°ķà±įà°·", "à°®à±Ī"], ["à±įà°ļ", "à°¿à°¨"], ["Ġà¤¸à¤¾à¤®", "à¤¾à¤ľà¤¿à¤ķ"], ["à³Ģ", "à²¸à³įà²¤à²¾à²¨"], ["à°¬", "à±ģà°²"], ["Ġà¤«", "à¥įà¤°"], ["à°¬", "à±Ĩà°Łà±įà°Ł"], ["à²¿à²Ĥà²¦", "à²¿à²¨"], ["à°¬", "à°¦à±įà°§à°Ĥ"], ["à¥įà¤²", "à¥Ģ"], ["à°¬", "à±įà°°à±Ĩà°¡à±į"], ["Ġà¤ªà¤¹", "à¥ģà¤ģ"], ["à°¬", "à°¾à°²à±įâĢĮ"], ["à³Ĩà²¯", "à³ģà²¤à³įà²¤à²¿à²°à³ģà²µ"], ["à°¬", "à±Īà°°à±Ĩà°Ĥà°¡"], ["Ġà¤ĺ", "à¤¾à¤Ł"], ["à±įâĢĮ", "à°ķà±ģ"], ["à²¨à³įà²¨", "à²Ĺà²³à³ģ"], ["Ġà¤ªà¥Ĥà¤°à¥įà¤µ", "à¥Ģ"], ["à±įâĢĮ", "à°²à°²à±ĭ"], ["à±įâĢĮ", "à°Łà°¿à°ķ"], ["Ġà¤¨à¤¿", "à¤°à¥įà¤"], ["à±įâĢĮ", "à°®à°¹"], ["à²¨à³įà²¨", "à²¡à³Ĩà²¯à²¨à³įà²¨à³ģ"], ["Ġà¤®à¤¾à¤¨", "à¤¸à¥Ĥà¤¨"], ["à±įâĢĮ", "à°Ĺà±ĩà°ľ"], ["à±įâĢĮ", "à°¬à°¾à°²à±įâĢĮ"], ["Ġà¤¬à¤¢à¤¼", "à¤ķà¤°"], ["à³Ĥà²", "Ł"], ["à°¾à°¦", "à°¿"], ["Ġà¤īà¤ª", "à¤®à¤¹"], ["à°¾à°¦", "à°¿à°¨"], ["à°¾à°¦", "à°¿à°ķà°¿"], ["à³Ĥà²", "¤à²Ł"], ["Ġà¤Ľ", "à¥ĭà¤¡à¤¼"], ["à°¾à°¦", "à°¿à°°"], ["Ġà¤®à¤¿à¤²", "à¤¿à¤¯à¤¨"], ["à°¿à°ª", "à°¿à°¤"], ["à³Ĥà²", "¦à²¿"], ["à°¿à°ª", "à°¾à°µ"], ["Ġà¤¸à¤Ĥà¤ĺ", "à¤°à¥įà¤·"], ["à°¿à°ª", "à±Ĩà°Łà±įà°Ł"], ["à°¿à°ª", "à°¤à±įà°¯à°Ĥ"], ["Ġà¤ħà¤®", "à¥ĩà¤°"], ["à³Ĥà²", "¸à³įà²¥à²¾à²¨"], ["à°¿à°ª", "à±ĩà°°à±įà°²à±ģ"], ["Ġà¤ħà¤²", "à¤¾à¤µà¤¾"], ["à°¿à°ª", "à±įà°°à°¾à°¯"], ["Ġà²Ĩ", "à²§"], ["à°¾à°®", "à±į"], ["Ġà¤µà¤¿à¤ķ", "à¤¸à¤¿à¤¤"], ["à°¾à°®", "à±ģ"], ["Ġà¤Ĩà¤§", "à¤¾à¤°"], ["Ġà²Ĩ", "à²Ĺà²®"], ["à°¾à°®", "à°¿à°ķ"], ["à°¾à°®", "à°¾à°²à±ģ"], ["Ġà¤¦à¥ĩà¤ĸ", "à¤¾"], ["à°¾à°®", "à°¨à°¿"], ["Ġà²Ĩ", "à²ķà³įà²°"], ["à¤°à¥įà¤¤", "à¤Ĺ"], ["à°¾à°®", "à°¿à°¤à±įà°°"], ["Ġà°¹", "à°ķà±įà°ķ"], ["Ġà¤ħà¤Ń", "à¤¿à¤¯à¤¾à¤¨"], ["Ġà²Ĩ", "à²ķà²°à²Ĺà²³à²¿à²Ĥà²¦"], ["Ġà°¹", "à°¸à±įà°¤"], ["Ġà¤¶à¥ģà¤°", "à¥ģà¤Ĩ"], ["Ġà°¹", "à±Ĩà°¬"], ["Ġà°¹", "à±Ĭà°²à±Ģ"], ["à¤¦à¥įà¤¯à¥ĭà¤Ĺ", "à¤¿à¤ķà¥Ģ"], ["Ġà²ľ", "à²ª"], ["à°¿à°¯", "à°Ĥ"], ["Ġà¤µà¤¿à¤¸à¥įà¤¤", "à¤¾à¤°"], ["à°¿à°¯", "à±ĭà°°"], ["Ġà²ľ", "à²¾à²¤"], ["à°¿à°¯", "à°¾à°Ĥà°¡"],
[...]
